[PAD]
[UNK]
[CLS]
[SEP]
[MASK]
!
"
#
$
%
&
'
(
)
*
+
,
-
.
/
0
1
2
3
4
5
6
7
8
9
:
;
<
=
>
?
@
[
\
]
^
_
`
a
b
c
d
e
f
g
h
i
j
k
l
m
n
o
p
q
r
s
t
u
v
w
x
y
z
{
|
}
~
¡
¢
£
¤
¥
¦
§
¨
©
ª
«
¬
®
¯
°
±
²
³
´
¶
·
¸
¹
º
»
¼
½
¾
×
æ
ð
÷
ø
œ
ƒ
ˆ
ˉ
β
б
।
॥
ং
ঃ
অ
আ
ই
ঈ
উ
ঊ
ঋ
ঌ
এ
ঐ
ও
ঔ
ক
খ
গ
ঘ
ঙ
চ
ছ
জ
ঝ
ঞ
ট
ঠ
ড
ঢ
ণ
ত
থ
দ
ধ
ন
প
ফ
ব
ভ
ম
য
র
ল
শ
ষ
স
হ
া
ি
ী
ে
ৈ
ৎ
ৗ
ৠ
৤
৥
০
১
২
৩
৪
৫
৬
৭
৮
৯
ৰ
ৱ
৲
৳
৴
৵
৶
৷
৸
৹
৻
ਅ
ਆ
ਇ
ਈ
ਉ
ਊ
ਐ
ਓ
ਔ
ਕ
ਖ
ਗ
ਘ
ਙ
ਛ
ਜ
ਝ
ਟ
ਠ
ਡ
ਢ
ਣ
ਤ
ਧ
ਨ
ਫ
ਬ
ਭ
ਮ
ਯ
ਰ
ਲ
ਵ
ਹ
੦
੧
੨
੩
੪
੫
੬
੯
ੲ
ੳ
ੴ
ઃ
અ
આ
ઇ
ઈ
ઉ
ઊ
ઋ
ઍ
એ
ઐ
ઓ
ઔ
ક
ખ
ગ
ઘ
ઙ
ચ
છ
ઝ
–
—
‘
’
‚
“
”
†
‡
•
…
‰
′
‹
›
€
™
∏
−
√
┤
║
╓
╕
╚
╛
╞
╟
╠
╡
╨
╬
□
◦
##া
##হ
##ন
##ী
##জ
##ও
##য
##ড
##ে
##প
##ম
##ব
##ৗ
##স
##ল
##র
##ি
##চ
##ৎ
##ণ
##গ
##ধ
##দ
##শ
##৹
##ট
##e
##m
##ৈ
##ফ
##উ
##6
##´
##1
##0
##2
##4
##ই
##ચ
##ষ
##ং
##থ
##৷
##ক
##ভ
##ঙ
##ੴ
##ত
##ঞ
##a
##v
##i
##n
##g
##ঢ
##ঘ
##l
##p
##h
##o
##আ
##এ
##s
##ছ
##খ
##ঠ
##ਡ
##ઙ
##ਗ
##২
##ਓ
##ઝ
##০
##ਉ
##৩
##ਛ
##ঌ
##ગ
##ઘ
##ઃ
##ਙ
##৴
##১
##৭
##৫
##৯
##৬
##੯
##w
##r
##ਅ
##৲
##ઔ
##એ
##੪
##ਮ
##ঃ
##ਟ
##આ
##৮
##ਠ
##b
##t
##5
##৪
##৤
##f
##੩
##∏
##ঝ
##ਫ
##7
##8
##3
##c
##d
##k
##y
##u
##ઈ
##ਣ
##x
##ਊ
##ઓ
##ઍ
##9
##੬
##অ
##੧
##×
##¯
##œ
##¬
##৶
##ਹ
##ਤ
##ਕ
##¤
##ਲ
##j
##ਔ
##ঈ
##z
##৸
##ઐ
##৵
##ਬ
##੨
##ਇ
##²
##৻
##ਈ
##ਭ
##ਨ
##°
##અ
##৳
##ঐ
##ઉ
##÷
##ਰ
##ઇ
##ખ
##ਜ
##ઋ
##ਖ
##ঋ
##ਆ
##º
##¦
##®
##ક
##q
##╕
##┤
##੦
##ਝ
##¥
##ઊ
##ਢ
##æ
##╚
##৥
##ø
##ੳ
##੫
##ਵ
##¾
##ৱ
##છ
##ਧ
##ঊ
##ঔ
##ƒ
##╛
##ਐ
##╟
##ৠ
##−
##ਯ
##╬
##©
##½
##³
##¹
##ੲ
##ৰ
##¼
##¨
##¸
##ਘ
##ð
##╠
##ˉ
##¢
##◦
##ার
##ের
##ো
##ান
পর
##যে
##েন
কর
##যা
##িন
##িক
বি
##াল
##টি
##ায
##তি
##কে
##তে
##বে
##াম
##তর
##ছে
##লে
##াদ
নি
##াস
##াক
##াজ
##েশ
##িল
সম
##পর
##িত
এক
বা
করে
##েল
##ির
##িনি
##াই
##িযে
##যার
##তা
##বা
বল
##নে
##বার
##রা
না
##কার
সং
##দের
##কষ
আম
জন
তার
##াত
হযে
##বি
##ঙগ
##নতর
##োর
##নের
জান
দে
##ছেন
##ভা
অন
##োগ
##েকে
নে
##বর
##িস
সর
হয
##ীর
##ওযা
##ীয
##না
থেকে
##টা
##াদের
সা
সে
বলেন
##ধান
##রে
##লা
কো
##থা
এই
পা
##রি
##যান
পরি
নির
##নি
করা
তিনি
আর
পরতি
##লো
##মান
##িশ
##াকা
##টক
মা
বলে
সব
হবে
##দর
##ালে
হযেছে
##যোগ
##কর
তা
বাং
##যের
পার
##ষঠ
কার
বয
##দধ
##মা
##ডে
##েষ
নিযে
##টে
##বং
##নো
সরকার
উপ
##জন
যে
বিশ
##বস
এবং
##ঙগে
##ডি
##কা
জনয
যা
দল
##বাদ
আগ
##যেন
রা
##িকষ
##লাদ
দেশ
কম
##িকে
এর
##উজ
##গর
##কত
শর
সঙগে
কা
##ানে
বাংলাদ
বাংলাদেশ
##ছিল
##কতি
##িযা
মধ
আস
##ারা
মো
##নতরী
##ডা
##নত
দিযে
করেন
##টার
##টর
পরধান
করম
অভ
একটি
##চি
##যাল
##ফোর
ছিল
শিকষ
রাজ
কষ
##মে
##যেনটি
মান
করতে
##োধ
দর
কি
##ওযার
##েখ
বিড
##টকম
জানান
##িনিউজ
বিডিনিউজ
##পি
##নধ
##যেনটিফোর
মে
ডটকম
টো
চে
এস
##াপ
২০
গর
##বাচ
##পতি
তাদের
হাস
##নদ
দেখ
মধযে
##চার
বিশব
##এন
টোযেনটিফোর
##চছে
##মনতরী
সি
##খন
সক
##েলা
বযা
##সি
##তার
##োল
পে
কথা
বিষ
##াজার
গত
কোনো
আই
নিরবাচ
পল
উদ
##টির
##াহ
আহ
এম
মহ
##তিক
##কের
##ভাবে
সময
মত
##দিন
##েম
##নী
থাক
পরয
ছা
বর
##দা
##ংশ
##রথ
বির
অধ
তারা
দা
বে
##লাম
##থম
##তন
##ছর
##ীন
##বল
ঢাকা
কাজ
বিএন
##ানের
লা
##িজ
##িতে
##িম
##নার
##দল
দিন
ইস
##ীগ
সহ
সংস
কিন
আল
##তত
১০
০০
সংবাদ
##মী
বছর
যায
পরশ
অব
গে
আমরা
কে
ভা
##োস
##দেশ
ঘট
##ারণ
##ছি
##ষটর
পলিশ
ভার
দই
নাম
চল
##টের
##তির
##গলো
##বাহ
##ঞজ
##পার
রহ
অনষঠ
##লপ
অভি
সাম
পরথম
করার
##বেশ
##বয
আগে
শেষ
কিনত
ওই
##কষে
শেখ
##ষণ
তবে
##ীদের
ইসলাম
##বেন
৩০
হিস
##িনন
আব
পরস
মানষ
##দস
বেশ
সথ
ধর
##ালের
অনে
##ালো
##তের
##ণে
##তযা
##চে
আমাদের
পরধানমনতরী
অস
##দি
##ীব
##ানা
এল
আলো
##তরে
বিভ
কিছ
দেওযা
নিজ
জানিযে
##ধয
##যেছে
বাস
##ানি
কেন
হচছে
ইউ
##তব
দলের
বযবস
হা
সাং
মাম
আমি
##দযাল
##যন
লীগ
পরে
##পন
রহমান
করেছে
##মিক
##বাস
##লি
তিন
হলে
##োম
পরিচ
##লার
দেশের
আশ
##ারথ
আওযা
নয
হাজার
##িনা
আওযামী
সভা
##শি
সদস
##জি
অবস
গণ
জাত
অরথ
##যায
##নায
১৯
সরকারের
##েবে
##এস
##কাশ
বিভিনন
করেছেন
##োক
এখন
রাখ
##পত
আজ
মার
হোস
##তরা
বৈ
##হার
জাতীয
বহ
১২
##লের
খালে
##ামী
মি
বিক
##োজ
সমপর
১১
##he
মযা
##ষট
##ছিলেন
##োট
##ঞচ
##াকার
হিসেবে
চাল
পরতিষঠ
##িকার
##ণের
##সথ
বিষয
উত
রযেছে
অনেক
##দে
##ডের
হোসেন
##সহ
সদসয
আছে
##খানে
চার
অনয
##ানো
অংশ
##সে
আমার
##থয
##ভাগ
##ধারণ
সভাপতি
দাবি
সিন
##াকে
##পাদ
##বিত
কমি
বাংলাদেশের
##বিদযাল
##েলে
##চিব
নতন
রাত
##চনা
##পা
পরকাশ
হার
##ডার
##বির
কাছে
খালেদা
##ৈতিক
রো
ছিলেন
করমকর
##মদ
খেল
দায
অভিযোগ
বিএনপি
##ৎস
##বেদ
টাকা
নেই
আইন
বিশববিদযাল
দেন
উন
পারে
মনতর
নিরবাচন
##পে
তাকে
##পির
##হত
##দধে
##ীরা
##যাপ
ইন
পরযনত
লি
পরত
##যেক
নেতা
##নৈতিক
সকাল
দিকে
হাসিনা
আদ
মনে
##কাল
মাস
সেই
ছাতর
মতো
##ীকষ
বড
শিকষা
পরিচাল
বিষযে
##যাম
##কি
##োন
##ধর
আয
টর
the
সালে
বেশি
##ঠে
ভালো
দি
উপজ
##েক
মাধয
##গরাম
১৫
দপর
##েস
ওপর
##তায
জিযা
বিজ
দেখা
বকত
যোগ
##াকায
##োধী
পডে
বিচার
##তম
তো
ঘো
##মি
বিরদধে
কী
##ভাব
দশ
কযেক
জি
##েনট
##ভার
সপ
গেছে
পরা
##চিত
চেযার
##রত
##োজন
বনধ
##াধ
হতে
গো
##থি
আরও
উততর
পরীকষ
##ীল
কারণে
সমম
##মযান
অবসথ
নাটক
পদ
##বান
##দার
সাধারণ
##শন
মল
##ছা
##ানত
##তরী
পাশ
এমন
টি
##বনধ
বিএনপির
##ফর
##ামা
##পতর
মকতি
দিতে
বিভাগ
আন
২০১
##ফল
চৌ
##মন
উই
##েই
##বাধ
##টট
ধরে
বিশেষ
শহ
বযবসথা
নার
##েষটা
পাল
গা
বলা
##পাত
উল
##আই
সনধ
##সত
সার
সিদ
চাই
খবর
##সের
রাষটর
সমপাদ
অভিন
##তিতে
বযব
এসে
মখ
##লেও
জা
##ষণা
বার
পরায
##যানড
##রণ
##মাণ
পাঠ
২০০
কোটি
##বের
ডি
অপর
##ণাল
##রল
##যারি
##িকা
কষম
খান
পাচ
##াইন
তথয
##ভি
ধারা
সালের
##এম
##িলপ
##ডিযে
##হা
রাজনৈতিক
পরক
তলে
বৈঠ
মাধযমে
সেন
চৌধর
##লোর
##er
##বাদিক
##েলার
##াযক
সাংবাদিক
সংগ
চটট
হওযার
হাম
তৈ
আদাল
##বারের
সমপাদক
##ঠন
##েমবর
##েতরে
বযাং
শতা
শিকষারথ
##তো
রে
##চচ
মনতরণাল
সরব
চটটগরাম
দেশে
##বেক
কলে
সথান
উনন
##লেন
##ধা
অর
চি
##গঞজ
##িসত
হতযা
জীব
কল
লাখ
কলেজ
গান
বিরোধী
সমমেল
শাহ
##মবর
আনদ
অযা
##গত
##ণড
বিদ
পরিবেশ
কমিশ
##পরি
এটা
হলো
তাই
বিপ
লীগের
করমস
পি
আবদল
কেনদর
পথ
গোল
##জা
##ষটি
গিযে
খেলা
নিয
সিনে
সাবেক
রান
##ঙগল
ছাডা
আগামী
##ধি
##গে
##াপা
##ংস
যান
মাহ
আনদোল
ফির
করছে
পাওযা
##াতে
এতে
##িদ
##নীতি
সমা
বরত
##কট
##যর
মন
বাংলা
থান
##সব
আপ
##কারী
বরতমান
করমকরতা
##ীত
চৌধরী
##ানোর
সির
এসব
একজন
যাবে
আহমে
##েরা
##ভব
একটা
##বাহিক
ধরনের
দেয
##উন
##োযা
##দরশ
যক
সচিব
ঘোষণা
##িকি
ধারাবাহিক
শিকষক
##লায
##চিতর
হাসপাত
##মের
রোব
মাল
বযকতি
শতাংশ
লকষ
মিল
ছবি
বধ
গরে
মামলা
দবিত
পড
##পরণ
জেলা
তখন
##নদর
##গলোর
কোন
একই
সংসদ
##পের
সরকারি
##তয
বাড
তৈরি
হযনি
যদি
##গা
হওযা
সিদধান
গরাম
##in
নিশ
##ীতে
আবার
কারয
পারেন
##খনো
মঙগল
ইউনি
আরো
ভারত
জল
সিনেমা
সযোগ
হন
বযবহার
পৌ
##সট
নিহত
দাযিত
শিলপ
##রের
অনষঠান
বছরের
নেত
নেওযা
উইকে
পরতিনি
পাক
বলেছেন
আলোচনা
সোম
##সং
মানষের
কারণ
পরযা
##বরত
##েলি
বযাপার
##াকি
দবিতীয
বধবার
##বেদন
এলাকায
ঘটনা
মযাচ
রোববার
##খযা
খব
##িনার
দটি
জনগ
চেযে
##মনতর
##বাব
দেওযার
বহস
##াব
বহসপতি
##জাত
##es
সেখানে
হক
আহমেদ
##টায
##থায
##পতার
শিশ
জানিযেছেন
মহাস
পরশন
উপসথ
##ভায
##পকষ
এটি
গরেপতার
##সর
অনষঠানে
২৫
কষেতরে
মঙগলবার
সংশ
সোমবার
সনধযা
##দিকে
ডটকমকে
##বী
এরপর
পেযে
গতকাল
বাডি
##সন
বহসপতিবার
লেখ
পাকিসত
মিনি
কেউ
মোহ
##মনতরীর
শনি
থাকে
কমিটির
আলম
পরতিষঠান
##ঘট
ফে
করত
##ময
ভারতের
দকষ
সাল
বকতবয
বস
১৮
এন
##িট
ফল
সিদধানত
##জজ
করবে
মধয
##হণ
ফর
##উদ
বাহ
কারযাল
কাম
##ষয
নিরা
##িতা
সথানীয
১৪
করিকে
##াইল
বঙগ
সো
আনতর
পরিস
##টিতে
চলচ
নিতে
দলীয
##ারি
শনিবার
দাযিতব
##হে
ঠিক
##েরে
##মল
৫০
ভর
সামনে
##লেখ
##গম
##ামমদ
বিশববিদযালযের
ছেলে
যকতরা
০৫
এগ
##শীল
##াপত
তদ
এবার
রেখ
দিযেছে
##দধা
করছেন
##শা
শেষে
শি
মর
ডিস
##দী
##on
শধ
জয
##আর
আহত
হযেছিল
আলী
##কম
##লাহ
বিদয
১৩
উললেখ
চেযারমযান
আহবান
##িকিৎস
পরিচালক
পরতিনিধি
##en
##জাতিক
সাত
দরঘট
##াযন
##ফা
##েনে
করমসচি
হাতে
##শয
##at
রায
##াইকে
ঘটে
চিকিৎস
নেতত
শকর
কারযকর
##ছাডা
১৬
দিযেছেন
শো
বাজার
পরো
##চছ
লোক
##দধার
বো
শন
চলে
##াযী
##an
রাতে
পকষ
পরসতা
পরযোজন
নিজের
সবার
জানা
অধযাপ
আনতরজাতিক
পরধানমনতরীর
##জঞ
৪৫
অনযায
ো
ইতি
সড
সাংবাদিকদের
ইং
বিজঞ
##সার
উপসথিত
হরত
##বহ
চলচচিতর
ভে
সরাস
##or
সরাসরি
শকরবার
##ীতি
##েশন
##জে
বিষযটি
অধযাপক
an
সমস
সমরথ
গরতব
রেখে
গণত
মকতিয
বঙগবনধ
তাল
উপজেলার
সাডে
পরকলপ
নিশচিত
থানার
থাকা
##াসন
##শে
চেষটা
বিনি
বোর
যকতরাষটর
বের
করি
সবাধ
জামা
ছয
##খে
##বোধ
##াজে
পান
তত
পরব
##রাষটর
##াকষ
সাংস
##পরাপত
##ফিক
বাই
বাহিন
পরণ
মনতরী
ফলে
রকষ
##গার
আশা
৪০
করবেন
##টিং
নামে
মস
তল
রাজধান
বযাপারে
০৭
##শাল
ii
উৎস
বই
হে
##িণ
নিরদেশ
২১
১৭
হলেও
দিনের
রাস
সট
পরিষ
উননযন
##যাস
##উদদিন
##জীব
পাশাপা
##ou
অগ
নিজে
##কো
পাশাপাশি
তাহ
বিশবকা
উদযোগ
যারা
সকালে
এছাডা
##োদ
বরি
রি
অপ
পযেন
পরিসথি
উদধার
সমভব
জামাযা
অবশয
in
যেতে
এগিযে
##টস
যাওযার
তদনত
সতর
সমাবেশ
অনযাযী
ভাই
##ানতর
পো
সাহ
সকল
##িকলপ
##বন
বিভাগের
পরীকষা
থাকবে
০৯
নিরবাচনের
##re
শীর
বাসতব
হাসপাতালে
শীরষ
যাচছে
##টন
##ামান
শরমিক
কোর
নিরাপত
নর
মোহামমদ
##ালি
নিরবাচনে
জাহ
বিশববিদযালয
হযেছেন
বিকাল
দকষিণ
যখন
##ভে
সদর
বযাংক
সমমেলনে
কমিটি
ঘটনায
পলিশের
পকষে
আরে
২২
নজ
##কস
##মখ
সবচে
দেখে
ফট
##বাহী
উদদেশ
উচচ
##মপ
উপদ
##মিত
ডিসেমবর
##টাই
দশমিক
পন
সবচেযে
সমযে
ফের
ওযা
বিদেশ
বিস
##মার
জানযারি
##যদ
##তেই
সবা
নেন
##ডাই
##াযোগ
##পোর
##রিযা
##কদের
দাম
আট
পরিকলপ
##বিষয
##ধার
জানিযেছে
কাল
পরাথম
সহযোগ
আকর
চকতি
##বিধান
ছোট
সৈ
কত
বাংলাদেশে
শে
পরাথমিক
##ীকে
২৪
##খান
##বদ
একস
পরতযা
কন
নিউজ
অবসথান
অভিনয
সভায
##it
উঠে
##গের
লে
নানা
খা
টেলি
গাডি
পরচার
##দলীয
##াসের
##ing
যাওযা
নভ
মনত
চলছে
বিপকষে
আনদোলন
জানতে
##যনের
গলপ
চা
অফ
ভাষ
##রাহ
নমবর
উপজেলা
ওযে
##বরতী
##দান
মির
জাম
ফার
উদদিন
চেযারপার
##বো
কেনদরীয
আগের
লাশ
জীবন
মারচ
to
এখনো
##চছেন
বাণ
জে
সেনা
বন
সমপরকে
##ডিযা
আযোজ
পযেনট
বাদ
থেকেই
গডে
ভো
##om
##ed
বেডে
##পক
ফেবর
হাসান
##জনের
বিদযৎ
নভেমবর
বৈঠকে
জানায
##বাল
##ar
##োবর
অকট
আযোজন
জো
##েলায
সপার
মনতরণালযের
হাত
জিযার
করলে
সষটি
##িউ
গরহণ
আতম
অকটোবর
নিযনতর
সিনেম
জাতি
বিমান
পরসতাব
##মর
উদবোধ
গল
সনতর
সমাজ
আরেক
##াসট
ধারণ
কষতি
যেন
##নিক
দেযা
বদধ
of
মহান
আলোচ
বেলা
##ানতি
সংঘ
##পটে
সী
করমকরত
##ীদ
##েনদ
মাতর
লাগ
##এই
মনো
শকতি
অনম
ওসি
২৩
নারী
চরি
উইকেট
জায
##াযের
০৬
জানানো
ঘণ
মনতবয
অবর
উপদেষটা
নেওযার
সবাস
মাঠে
##িসি
রাখা
নিজেদের
##শের
যোগাযোগ
##রম
ঢাকার
ততীয
পালন
ভমিক
সেপটে
শরে
সংখযা
মযাচে
##থার
মহাসচিব
সেপটেমবর
##িজঞ
নিরাপততা
##লক
##সা
আটক
##োপ
পরারথ
মারা
গরামের
উৎ
টেস
##পরের
##হের
##as
##ঠনের
##থে
##ীরঘ
তাহলে
দিল
##সিড
জর
সেটা
##াসে
মিনিটে
মতয
মৌ
##কেই
সমপরক
##চর
মাদ
এখানে
দীরঘ
বাইরে
আসাম
সপতা
মেড
##ততি
অতি
বলতে
সংগঠন
ফিরে
সাই
##এফ
##ভিশ
##পরে
ভি
##ণয
শা
মামলার
গবে
জনম
অপরাধ
আবল
##সী
##এইচ
সবাসথয
##রাফ
জলাই
##োভ
##িরা
সবি
##কল
##কষণ
পরিবর
সন
বাণিজ
আদালত
কঠ
সনতরাস
##জজামান
৩৫
সতয
জড
হম
##পেকষ
ইনি
কযাম
##শল
করিকেট
লকষয
জনগণের
##লেই
বৈঠক
অথ
কাছ
হারিযে
কমে
পতর
##ভর
মোট
##কারি
অনষঠিত
##is
##শার
পথে
##ালা
রাষটরপতি
##ষঠান
সবাধীন
পানি
০৮
সমালো
##শেষ
বিদযাল
সমসযা
ততত
হত
ভরতি
##শিযা
নিষ
বিনিযোগ
##ছরে
মারক
মেযে
মনতরণালয
হরতাল
সংবিধান
রানে
০১
##চল
কমিশন
উঠ
##াকর
ভিত
শিকষারথী
##েলের
লেনদ
এত
সংলা
গেল
মালিক
নগর
খন
##al
ভোট
##হন
ভারপরাপত
রযা
হাসিনার
আবেদন
মেডিক
এলাকার
শেযার
##নীতির
##রিক
অবরোধ
সবাই
থাকতে
##বনদ
অযানড
সংসথা
পশ
##াঙগ
দরত
অধিকার
দেখতে
গলি
কষমতায
আসে
##িং
সটে
অনযান
##উর
জেন
ঘটনার
তাতে
কযা
##বিক
একে
পরেসিড
##ঙক
আদালতে
কারযালযে
বলেও
করতপকষ
ভাব
চযান
হল
চো
##লেট
গরতবপরণ
গণতনতর
##গরিক
##রোধ
##পদ
ভাগ
ওযার
চাপ
পায
অসটর
২৮
সহকারী
কযেকটি
##যানডের
এইচ
সৈযদ
কারা
##টিকে
##কষেপ
থাকার
ডলার
নিযোগ
পরমাণ
##বাসী
২৬
##লীগ
আপন
##িলা
বাণিজয
##ঙখ
পরশনের
মামলায
মহানগর
পরতিবেদ
বিশবাস
মজ
উপল
বিল
##মত
##টো
আইনজীব
সংশোধ
টাকার
সহায
ধরম
লেনদেন
চান
##েজ
বসে
##সম
কোমপ
পরিবারের
তততবাব
দরনীতি
পরযকতি
পরসকার
##শর
ছাতরলীগ
গঠন
অবসথায
মাঝ
##যেল
সেরা
##যোগয
২৭
অধিন
বকতব
এসেছে
##োলার
পরিসথিতি
বাবা
তিনটি
##ধযে
এলাকা
##শাহ
##াবে
রাজধানীর
চায
শত
খাত
যৌ
পররাষটর
সনত
অবসথা
গেলে
##গলোতে
##িকত
কষমতা
সফর
##উল
০২
শরেণ
সথা
ডে
যেমন
চালিযে
পরযাযে
বাজে
মেডিকেল
হামলা
সিটি
বেসর
ঢাকায
শির
শাস
সচ
সরবো
পরেসিডেনট
##লিষট
ঘরে
পাঠানো
কলা
সডক
নামের
##চাল
শহীদ
দয
করছি
##বাহিন
খেলার
মাসে
রাখতে
সমন
যার
হাই
কাজে
##াজী
কিং
and
বরতমানে
খল
বান
##গন
পরতিবেদন
আছেন
দরশ
নিরমাণ
##বক
সথাযী
পরিকলপনা
দরঘটনা
##সংঘ
ছে
##খি
##াৎ
##মণ
সৌ
##িংস
সমি
তর
##ডায
অনযানয
১৯৯
##ানির
বেসরকারি
##চয
বযাংকের
পચ
সারা
চেযারপারসন
##ধাযক
##খা
সাকষ
##াজিক
##ঙগি
জাতিসংঘ
##দিক
শানতি
সতরী
পাওযার
সংসদে
##le
আসা
##ion
রাজনীতি
মারকিন
##াসথ
সিরিজ
পরেস
সবী
##এসই
আমাকে
##গরহ
##জের
বিন
যকতরাষটরের
পরশাস
১৯৭
ফটবল
দপরে
সাজ
##েনি
ইতিহ
##চের
সংশলিষট
সফ
রাজশাহ
পরিবরতন
সাংসদ
২৯
সথানে
রানের
উপা
কের
##কয
নাগরিক
নেতাদের
বিতর
নীতি
##েমন
পরাণ
##মাধয
আগন
সরবোচচ
জবা
নৌ
বঝ
করেছি
রপ
তততবাবধাযক
##বদধ
##ৗশল
মজি
পরদরশ
লাল
##জল
অভিনে
পোশ
রযে
##উট
নেয
##ডিও
পশচি
চাইলে
খেলোযা
##ঙকা
এপর
##হীন
দিবস
##িকভাবে
বিবে
ফেলে
ইংল
##তরের
খো
ধারণা
একা
লাই
ইনটার
উৎপাদ
এপরিল
বাতি
উচিত
করপোর
##সিং
##াসা
##যকত
টক
রকম
##ছিলাম
জবাবে
##কতিক
অভিযান
##ভিশন
##পনা
দিক
##িযার
অধিনাযক
বিষযক
বছরে
গোলে
মহা
বিকষ
হলেন
##েনদর
ডাক
নিউ
পনর
সবিধা
##পরাধ
পরিবার
পরতিমনতরী
##ইন
নিরমা
মকতিযদধ
শাম
জোর
সামাজিক
##চা
পেছ
পাশে
##বায
কমার
জনগণ
পরতিবাদ
##এল
সিনেমার
ঘটন
##দিনের
মাহমদ
কখনো
নেতারা
বাহিনীর
চড
সেল
চলা
নদ
পাকিসতান
is
জনস
##ঞচল
অফিস
পারি
সল
##মিন
আফর
পোশাক
##বত
##রষ
নিরবাহী
নব
##নদে
জডিত
দিনে
পরতিযোগ
যগম
##াযণ
##পতরের
বাধা
##ভীর
কারযকরম
##েনস
নিরবাচিত
ছেডে
চিতর
##শিযার
হতযাকা
পরমখ
##এসসি
##টসমযান
বাকি
##ানতরিক
এদিকে
কামাল
যদধা
জার
রহমানের
##বাজার
পরভাব
##ডির
##তিরিকত
বেগম
নাই
আগেই
অধি
রং
বযাটসমযান
আসামি
ওভার
টরাক
পরবরতী
নাস
##রশ
##যাক
যদধাপরাধ
উইকেটে
কযেকজন
করেছিলেন
উপলকষে
পরতিষঠানের
যাতে
ভমিকা
চযানেল
ভল
টিভি
##ালী
সমমেলন
ঘটনাসথ
##করা
##াসহ
ইংরে
জররি
খাদ
##নদকার
নিযেছে
থানায
গাজী
হওযায
##েলো
বিপর
মানব
##চারয
পরসততি
ফাইন
জেনার
##ামত
ফিল
##ণডের
ফখ
রপত
##সিল
##বাদী
##গরে
কিংবা
অতিরিকত
রেল
পরিণ
##তবে
কেবল
আফ
সমযের
সমাধান
দাবিতে
সঠ
ধার
ভব
মখে
##োষ
বোঝ
সমমান
##টিযে
কমিশনের
নেমে
নজরল
ভারতীয
##০০
iii
শিকষারথীদের
##যকষ
চডানত
পেশ
ওঠ
পরিচালনা
বযরথ
##নাম
##েনের
খেলোযাড
##ঙগা
দলে
সনদর
পারটির
##োদন
##ঙখলা
সফল
আনদোলনের
জোট
##ীনে
তরণ
##েশনের
##মব
যত
মিযা
বিজঞান
##নির
যাযনি
আদেশ
##ফোন
পরকাশিত
##ইউ
কাদের
##ারট
কষি
দাডিযে
বেল
##কালীন
##কতার
পঞচ
##াদেশ
সাদ
##ধে
অধিদ
পরিষদের
সীমান
##বীর
ওযান
##গরি
##বিদ
সমপরতি
##টিভ
##বিল
একট
ইউর
রাখার
চিন
শরীল
জনের
##মাতর
তে
##পাল
##মেনট
ঘর
নযা
##ll
সংঘরষ
মলয
বিশবের
##াট
সহিংস
পাকিসতানের
দেবে
he
তারেক
জামাযাত
জটি
অসতর
##রকষ
##গঞজের
ভবিষয
##ঠি
সমালোচনা
চাদ
পাস
পরতিটি
মযান
বাজারে
##ic
পরতিক
পরিচয
বিব
##করণ
মাহব
##জার
পেযেছে
পারবে
##বিরোধী
পদকষেপ
নেততবে
লাভ
বিজয
নাট
সিদদিক
##ent
মিছিল
কাউন
##দায
##তেন
ধরা
হিসাবে
যদধ
থাকলে
বিরোধ
লেখা
বনদ
রযেছেন
##ve
পরসঙগে
##ডাতে
জেনারেল
পারেনি
##রির
আপনি
লডাই
কীভাবে
##রফ
পরযোজ
ডা
##নড
পরাম
##ভিত
##িসট
##গান
##িনের
##বাম
খে
অনতত
যাচ
##চছা
অরথনৈতিক
আনা
রব
থাকলেও
খর
অযাল
জঙগি
আসছে
অযাপ
##টিভি
কবির
এমআই
ফেবরযারি
উতত
অনযতম
আসার
ইউনিযনের
মাসের
নারাযণ
চাক
অধীনে
পত
মিরজা
দরকার
এনে
বিচারপতি
##কেরা
মসল
সঠিক
পদধ
##জনয
তোম
বোরডের
নো
আগর
মাই
##মক
রাখেন
জরি
অনযদিকে
##দরশক
দখ
আপনার
খেলে
সরকারকে
আইনজীবী
হযতো
##িকায
##ঙে
##কলা
বরা
##ঘাত
পরকরিযা
জমা
পরশাসন
দলকে
জিতে
বিদেশি
##নান
##ভকত
বরাদ
আসতে
বযাপক
যেখানে
th
##নয
পদে
মতামত
অগর
হোক
করমী
বাক
শহরের
মাঠ
##বছর
##পরিয
আনো
গেছেন
সহাযতা
ইনস
৩১
##তাস
করব
পৌছ
যাতরী
আনোযার
টেসট
##গরসত
সবাধীনতা
ডিএসই
বিকষোভ
করমকরতারা
চলতি
পণয
##িনদ
পরষ
দজন
##সির
লিখে
সবপন
জবাল
পরিয
থাকায
উপস
##ভিততিক
ভবন
আলোকে
আসন
সনধযায
##দরে
রাজশাহী
সামরিক
com
বিকে
পরিমাণ
কোচ
ফি
##াযার
ডর
হতযার
হতা
##দদ
পরিবহ
ফেল
##ভাবিক
ঘণটা
##াতার
##টারস
পরামরশ
সমরথন
মকতিযো
অবযা
যথ
০৩
##ধব
ইর
নাজ
##করানত
উপাচারয
##মো
##ফার
করেছিল
##কারীদের
পরতযাহার
সংসদের
কমিশনার
##ঙগী
আযোজিত
সভাপতিতবে
##জর
পরেম
মেযা
অনতর
করমীদের
ফরি
অধিবেশ
ইত
ফখরল
##হর
মাছ
এফ
টেক
বাডিতে
##ততর
##et
##সল
কাজী
##ণা
##চালক
সিলেট
##বিষযক
তারপর
আইনের
লিখ
অপেকষ
সই
##যনতর
রিযা
মিশ
##পথ
অভিযোগে
ঋণ
##শো
খবই
##শালী
##দলের
সেনাবাহিন
##দরশন
২০১৩
করিম
##ীনত
শবদ
পডেছে
মহাসড
ছাড
গণমাধয
ইউনিযন
সদসযদের
সভ
হামলার
সংগীত
বিশবকাপ
বললেন
ফা
টাই
নরল
ভাঙ
সদসযরা
নিযনতরণ
ভাষা
৩২
বিপল
##পনন
বেডেছে
##খানা
কঠিন
এভাবে
হযা
হাজ
সহজ
অবৈ
বাধয
পরীকষার
##ઘা
পরতিবেদনে
##গীর
আও
##oo
##মলক
ঈদের
সবরাষটর
##ামে
##ঠাম
সমভাব
জিল
মেযর
ইক
##গরহণ
খেলতে
পেযেছেন
সোহ
অথচ
শার
##িতার
এরশ
পেরে
নেযা
পরিণত
সাংসকতিক
বযবসায
ওঠে
পরও
দাযের
অনষঠানের
##নাথ
ইনডি
##টিশ
নিরযা
##জনক
##শিলপ
শিকার
বাল
##ংক
অল
চতর
গভীর
সমাবেশে
দৈ
হতো
গহ
জাপ
সহযোগিতা
গড
আদালতের
##তল
গঠ
গযাস
জোটের
##কতা
লো
খাতে
ছবির
তৎ
আসেন
পরারথী
জম
কারাগার
টযেনটিফোর
কবিত
##চির
মোব
উদবোধন
অবৈধ
০৪
ইংরেজি
পরতিষঠা
##গায
মাথায
জযে
আমিন
চযা
গরামে
পিছ
গানের
খেলায
##গো
কিশ
মড
পারবেন
পরশিকষ
##ফিজ
সচক
পথি
আহমদ
ফারক
##ot
সিরাজ
##যামপি
##নেস
দিলে
চারটি
বাহিনী
##যাপী
একাডে
জনপরিয
অঞচ
পডা
##ow
অভিজঞ
দোক
উদবোধনী
আমির
পরযোজনীয
জিজঞ
##ভত
সপারিশ
নিরবাচনী
পের
৬০
##ad
##েনড
##টিটি
সংগঠনের
ভালোবাস
ইউন
উৎপাদন
বাসতবায
আরথ
এদের
রাম
মেনে
কাউনসিল
যেসব
বিকালে
ভেঙে
আলোচনার
বিকরি
পরতিদিন
দঃ
##সনের
বযাট
মনতরিস
উপসথা
##ষিক
##বরে
ভোর
ফলা
অরজন
গার
কিশোর
বাঙ
মযাচের
গণতানতরিক
এসএম
ফোন
অনমোদন
গলশ
ছাতরলীগের
দবি
রফিক
সবীকার
চযামপি
গোলাম
রকষা
ছাডাও
বাতিল
লকষযে
অতিথি
ভিততিতে
থাকেন
ইনিংস
বাসায
পরের
বলছেন
সিং
দেযার
##ামের
জাযগা
সপর
করমকা
##লিযা
অত
বযস
আবদর
পৌছে
বিজঞপতি
চযামপিযন
হিসাব
পারেননি
অনরোধ
যৌথ
করমীরা
ফোর
আলমগীর
##িটার
দেবেন
##াইট
অসটরেল
##বযাপী
##াকিব
অগাসট
নিযেছেন
শিকষারথীরা
##ছ৷
##রয
##কৌশল
##ফিল
##গলোকে
যকত
সাহায
চালক
##সফ
কোমপানি
আলাদ
জবাব
িব
জনকে
আগসট
সাফল
পাই
##দয
চর
সরবশেষ
মধযেই
সবাভাবিক
করন
##গল
বযবসথাপনা
শরর
পেছনে
সনদে
##বাচক
দারণ
বাসতবাযন
সেটি
##নাল
বদধি
খনদকার
সংসকতি
রযাব
ডিজ
রম
কিছটা
জেলার
##পাডা
ভয
আলাদা
মানষকে
##হী
করলেও
##দিষট
তালিকা
মখোম
##িনদা
বলেই
কযামপ
##তাম
##ec
চতরথ
##ানস
বযবসা
##ফো
##কারে
চলাচল
ছিলো
চিহন
হাল
জীবনের
##বিড
কলেজের
আলোচনায
অরথমনতরী
পাবে
সেত
বযয
বযকতিগত
আমের
নিরধারণ
কষমতাস
কাজের
মাদর
ইনসটিটি
মিথ
বরণ
##পরা
এসআই
তেমন
##যাট
পরথ
গবেষণা
##শনাল
খাদয
করমকরতাদের
মখোমখি
গাছ
ইসলামী
বকতবযে
##ay
##ওযান
সংগরহ
এবারের
বিশববিদযালযে
ধবং
যব
করমচার
কান
অবশযই
শরদধা
আসাদ
পরকলপের
##তরাজ
আক
মোবাইল
পরীকষায
শিলপী
ইসলামের
পেটর
উপর
সংলাপ
পরতিপকষ
##দরো
##যনে
কমপ
নিযমিত
##েষট
বিকেল
ইনিং
##সভা
সবাইকে
ঐকয
##কষম
##িতি
চোখ
সমতি
টানা
কারযালযের
রপতানি
বিরোধীদলীয
আধ
হসত
উঠেছে
অসটরেলিযা
মতি
##ীরে
কাউ
আসলে
বিদযালয
এমনকি
##ওযে
বগ
বযবসাযী
ময
##কেট
শটিং
আসবে
জাযগায
##ভিস
নদী
##মধযে
##কির
##am
##লেক
বরং
আহব
অনেকে
আখ
##ut
##পতরে
চটটগরামের
অযালবাম
##ডিযামে
উদদেশে
##ীনতার
##পণ
বোরড
ছডিযে
জযের
##বাগ
লোকজন
##কারের
##পরতি
যকতরাজ
জাহাঙগ
দিচছে
##গঠন
২০১৪
বিবতিতে
##গিত
##ছন
বিবি
##পততি
##খী
##বাডি
##টেড
২০১০
রয
সটেডিযামে
২০১২
সশ
ভিনন
##াহি
হেল
##লর
জাহাঙগীর
ধান
পরকৌশল
সষঠ
মিনিট
তারি
ফিরিযে
##সান
##কোর
বিশবকাপে
সাকষাৎ
ইম
শরতে
রেকর
##কেও
৫৫
রকত
##োপা
কট
সনতান
আজাদ
গঠনের
২০১১
কয
##বাধীন
মোশার
বোমা
##রিয
আননদ
চাকরি
চরিতরে
ভোটার
it
আরেকটি
##বরণ
বনদর
ওযেসট
শরী
হাবি
অবযাহত
বোল
করায
##ফাজ
##িতয
পাহা
দাযী
##ur
##ধানে
চী
ধরেন
##বলিক
##সথান
সদসযের
##নযা
##যাণ
সমিতির
##েনা
মহিলা
বলেছে
অভয
বরষ
##মকত
##িনে
##পল
মডেল
ইতিহাস
গাই
একশের
##টোর
কক
##করমী
কষমতাসীন
সেলিম
বেরিযে
উৎসব
বিকেলে
##ামীণ
শিবির
##পিএ
সিরিযা
দখল
সংকরানত
কঠোর
##ভাবেই
পদতযা
চিকিৎসা
উদদেশয
আওতায
পেতে
চলবে
##িমি
শিশদের
##পনের
রাজনী
##গতি
মহাপরি
গরামীণ
কেনদরে
পরিচালিত
##জয
মৌল
##ld
##বাধিকার
ধাক
হাইকে
মকতিযদধের
পরথমে
তেল
##ষটির
##ac
কষতিগরসত
নেততবাধীন
হই
সেবা
করেই
সথগিত
##ফের
আপনারা
রোগ
##ভয
##িলের
##ঙা
##ধারিত
অধিদপতরের
জমি
##ষণার
##ামল
##উনড
শোক
অনেকেই
খজে
##াদার
##খয
দম
##হাট
##সতর
সফরে
for
##id
গোযেন
সামপর
##ঙকার
সমপদ
কণ
বদ
দী
##ষক
##ঝো
একশে
##হল
বলেছিলেন
জারমান
সমভাবনা
লনড
ওযানডে
উপজেলায
আনষঠান
হাসপাতাল
রিজ
দেড
দেখিযে
ওযেবস
ফাস
##াসিক
বিসতার
##im
##াইকেল
ঘটেছে
যনতর
##হিত
বাজেট
শহর
নন
##াজিত
পৌর
চিঠি
যদিও
নিচে
টপ
কিল
কমান
##বিশ
জানাতে
##াধিক
বাডির
শনে
মঞচ
মিস
মানে
সেক
##বযবস
মোকা
##কিং
সমঝো
ভিডিও
ইতযা
##উটার
নদীর
দমন
টরাই
##বেল
১০০
##টিক
##কোনো
সপিকার
নেতার
কবি
১৯৮
জানযার
পারটি
অসটরেলি
জযেষঠ
নজর
##মস
on
জিযাউর
##কালে
২০০৯
জারি
জিম
##লেঞজ
শিকষার
মানবাধিকার
ভেতরে
##খার
বলছে
নেতরী
িন
##ly
##পনথ
আরথিক
বিশেষজঞ
বিভাগে
এরশাদ
সেখান
##ঠামো
##াতের
কারখান
সরবরাহ
চরিতর
##তিহ
চযালেঞজ
##ফি
অনি
নেবে
##সিক
##থির
##িরে
##তনে
মহর
##জেনট
##ঞচে
করলেন
##ালেন
##াকত
##যাগ
বকতবযের
চিনতা
পারব
জাতির
রাশিযা
##se
বিসফোর
ভই
রশ
##ir
করমসচির
হোসেনের
শহরে
যাদের
মিলিযে
##েধ
বাচ
কাপ
সংসথার
পিছিযে
মতযর
কমপি
খলনা
কোনটি
দেব
আমনতর
যেকোনো
ঐতিহ
##সাম
সারভিস
শিকষাম
আশরাফ
দরঘটনায
চনদর
অরথনীতি
##est
##েনটের
আকরমণ
পরজন
##ডিং
ধবংস
হমকি
পরিষদ
re
##ীনদর
একমাতর
খারা
পজি
হমাযন
নিবনধ
ষড
বাধ
বরাজ
কালো
একাত
##যারিস
খরচ
সতরে
শকতিশালী
##লী
দষটি
##চছি
##েদর
মজিবর
আকতার
পরিবহন
এটাই
একাধিক
##াজা
কারও
কথ
রাজি
পরাক
পরিচিত
টরেন
ফেস
অথবা
ভবনের
শিকষকদের
বযসী
অনমতি
বরাদদ
আহবাযক
আবেদ
##চরণ
বিজে
চিকিৎসক
নাশ
সলত
আশরা
সবাকষ
মকত
৩৬
##খালী
বিসি
মলত
শাসন
নেততব
সবাধীনতার
##মাল
##ানী
##াতমক
কিছই
অরথা
উননত
you
মাধযমিক
সমপ
মামন
সংসদীয
বিশবকাপের
##কারীরা
মাথা
নিজেকে
##াদে
বষটি
সভানে
আইনশ
##াজন
বিজি
২০০৮
আত
রেকরড
মশ
##েত
বাছ
ষডযনতর
##োমিটার
দরনীতির
সপতাহে
ভাল
ইনটারনে
##চনায
শাহজ
বিধ
অরথাৎ
##টেন
পরিদরশক
বিদরো
পরশাসক
অরধ
##ভোগ
জানি
পরশিকষণ
কমপিউটার
be
##ak
বলার
নাকি
পরবেশ
আশরাফল
গঠিত
নারাযণগঞজ
রবীনদর
##কতির
মিথযা
টেন
গোযেনদা
##ধিক
সাথে
##জনকে
বাংলাদেশি
পকষের
কারখানা
দেশটির
মোল
লেখক
অযাড
হরতালের
খোজ
নিহ
ওস
##াকরমী
সরে
হাজির
মনির
কং
শাসতি
##নীত
পঞচম
জেকে
খারাপ
বযাটিং
পরসতত
##মালা
সংশোধন
আঘাত
মিলনায
৩৩
আসনে
পররাষটরমনতরী
##গির
বিধান
নিরধারিত
সকলের
দাড
সমাজের
এখনও
পদমা
অনযদের
বাছাই
তহ
বেতন
টরাইবয
হঠ
পরচ
উননযনের
আমলে
কাহ
পাচটি
সথাপন
শরমিকদের
##দীন
##চন
পাঠিযে
কারাগারে
মের
রাষটরদ
st
পডতে
##দবনদ
##েনর
##টল
করী
কাউকে
ইতযাদি
ইনিংসে
সাব
পালিযে
করেনি
জাতিসংঘের
৭০
##াহান
জামাযাতের
নেযার
##op
শামী
রও
বিদেশে
নিজসব
##গাও
ইকবাল
মকতিযোদধা
নিরমিত
বাংলাদেশকে
বরিটিশ
সান
##খযান
দিযেছিলেন
লেগে
কোথায
সবামী
কাটা
বিচারের
বযকতিদের
জবালানি
অভিনেতা
সপষট
অংশগরহণ
বিকলপ
বোলার
##হি
বিজঞপতিতে
দেখার
পরদরশনের
মৌস
নীল
বাংলাভিশন
শনানি
কংগরে
চলমান
বিদায
চীন
##st
##বসত
আপনাদের
সমারট
ভাষণ
##চেতন
বৈঠকের
আবদস
হামলায
সনদেহ
মিজ
হতযাকাণডের
##বধ
##গধ
পডেন
ইতিমধযে
পরতযকষ
##বারে
৩৪
পরপর
তারিখ
অপার
কারযালয
চেযারপারসনের
##ফে
পাবলিক
wh
##কান
##বেগ
হেরে
টোযেনটি
জিললর
মও
##রধব
কেটে
আলা
বঝতে
আনতে
তমি
সত
অতয
পযা
আইনশঙখলা
সিনেমাটি
##তিত
##গতিক
##ঘা
##জাক
টেলিভিশন
বিযে
সাংগঠন
আধনিক
##াতক
যাতরা
তাম
##কষা
পরীকষারথ
কথাও
জিত
কাট
##মণড
রাজধানী
বরিশাল
পরচারিত
সমরণ
##তরীর
##হিদ
##বাসের
খাল
##শোর
মহি
কিলোমিটার
বঙগবনধর
নিষি
##রিযার
উদযোগে
পরতিরোধ
পরতিশর
ইফ
সেনটার
যদধাপরাধীদের
##পিত
পরযবে
রযটারস
অসটরেলিযার
অনল
সবারথ
নিষেধ
কযান
লাইন
ছবিতে
৪২
বাবার
কারণেই
তলনায
নারীর
##ষা
তোলা
মখয
গতি
সহযোগী
যারি
নিরভর
নিষিদধ
##ষিত
মাহবব
##বরতনের
বিদযালযের
দঃখ
জাহাজ
উদদেশযে
সবাকষর
োদ
গরহ
##কিছ
সনতরাসী
পরশংস
দফা
বিশলে
এজনয
##নদন
দদ
বাংলার
##লড
রংপর
শরম
অধিকা
অধিকাংশ
চরম
সমসযার
নিরদলীয
সমপরণ
সাকিব
কোথা
মোশাররফ
এসইউ
৩৮
রাযের
বেশির
নিরপেকষ
রাজজাক
ভযা
আজিজ
২০০৭
উপসথাপন
সতযি
মসলিম
##নযন
দশয
সাংগঠনিক
হান
##রিযায
গরতর
লাগে
কালাম
তারকা
এরই
আকাশ
একদিন
##ণডে
একবার
দরে
উননযনে
চিহনিত
জামাযাতে
পরযাযের
মাঝে
ইঞজ
পারলাম
থানা
মিলে
##ge
##her
দেলো
##াকারী
মাইকর
আনদোলনে
আরি
রাসতায
বিবেচনা
দেলোযার
করিযে
##রাট
পয
যোগয
সারাদেশ
সমনবয
৩৭
সিনেমায
বিতরক
সঙগ
কলাব
##সতা
টা
করিকেটার
##তেও
মেঘ
দবার
ফজল
৯০
অতযনত
আনার
সজন
অযান
pr
চৌধরীর
সডকের
##ভো
কমিল
are
was
জলবায
চাহি
##ঞা
জনযই
fr
##ৈর
পরবে
##জান
মহামমদ
##ারে
নেতাকরমী
ডাকা
##জডে
##ডর
##বাদের
##ter
বৈশা
হঠাৎ
বক
হো
ans
৮০
মিউজ
মোটর
ইব
##শিকষ
##িতায
##চছিনন
মহাপরিচালক
সপতাহ
সমান
##বাড
##তিকর
করপোরেশন
রেজা
##শেষে
রানা
আইএস
পদধতি
ফাইনালে
নিউজিল
তরি
ভাষায
##মানের
বিশাল
৪৮
রাষটরদত
লতি
রাসতা
ইউরোপ
শভ
পরতিদবনদ
হাসপাতালের
সংগরাম
টযা
ইযা
আফগান
আইনে
##ছনদ
রাশিযার
মঞজ
আপিল
হবেন
ককসব
ককসবাজার
##দানের
রাতের
নিযেই
আশঙকা
পিল
মকতির
##ারের
মিলনাযতনে
তৈরির
সাহাযয
ফরিদ
বীর
উভয
অভিজঞতা
বায
বারতা
চোখে
ভারতে
সপতাহের
বাডিযে
হেফাজ
ছাপা
##শেদ
করতেন
ভাস
##ভী
##মকে
সমমেলনের
বিচারক
জামাল
ইতোম
ইতোমধযে
##নগর
পরদান
নিরমাণের
চালানো
ফেরার
##ীরণ
আসনের
ইংলযানড
খস
মাননান
আচরণ
একক
শোনা
সবে
পদতযাগ
সভানেতরী
মোসত
##ইল
ডেকে
সতরক
পডার
তলতে
##গামী
বাডানোর
মনি
সংকট
ঝকি
রাজনীতির
কমেছে
করণ
লিখেছেন
দৈনিক
সমদর
এটিএন
সাহিতয
মনতরণালযে
##ul
পরযোগ
কবিতা
ঘন
শনয
বযান
##োযার
বদল
সকষম
অগন
নিরযাতন
সাফলয
যাচছেন
ভিততি
শভে
আগামীকাল
লিমি
দোকান
শফিক
নিঃ
দরঘটনার
নাসির
জিযাকে
সবাগত
পাশের
করেননি
জিজঞাসা
মসজি
নিখ
অনপ
পির
মাত
আজকের
নিরদেশনা
রোড
আডাই
পরশনো
ধা
##কায
সরঞজ
হর
মাহম
ভমি
থাকবেন
বাঙালি
রাই
##লীর
পরতিবাদে
অঞচলের
বিভাগীয
কোথাও
সিলে
তোলার
মেলা
##চছিল
বিজনেস
সপরিম
##ভবনে
খোলা
আরব
##বলিউ
যথায
জিপিএ
ঈদ
খনি
গযা
সচিবাল
##বোর
সিনি
মনোনযন
##সিসি
পারলে
##ith
বযকত
ধরমীয
##টেই
অবদান
##পনথী
##মখী
মহরতে
##বরধ
##টনে
ঘোষণার
চীনের
যশোর
##ive
##সক
##ation
টরনাম
বযাখযা
যথেষট
সবাগতিক
নিরমাতা
যকতি
সকালের
##সিটি
সাঈ
মেযাদ
মিউজিক
##নর
যেভাবে
##হান
##কষিতে
অসসথ
জঞ
জাল
জীবনে
আহম
সডকে
একসঙগে
অযাস
পরদরশনী
##াধীন
গানে
দটো
সিনিযর
##ডেন
কিনা
ওভারে
করতপকষের
দেখানো
পাব
জনসভায
শিকষামনতরী
এগলো
পরশনোততর
নিচের
ভাইস
##ঘর
ফেডার
োস
কিউ
তাজ
জাফর
ফলাফল
তালিকায
সংযোগ
অবসর
সেদিন
ধাককা
অঙগ
চালায
শিরোন
পরাই
গণতনতরের
পরতিবনধ
##চেঞজ
##শবর
পাবেন
করীডা
উচ
কৌ
##ver
টার
##োগান
খাবার
বদলে
শভেচছা
ওর
##দানি
কাগ
##টিন
সারবিক
ভইযা
##াপন
খাতের
সাভার
পরকত
পরিশ
##পরয
সালাম
এশিযা
মোড
নিরদিষট
সোযা
সবস
##ীবর
গৌ
পোস
##wer
গম
দলটি
শব
হায
কোমপানির
বোধ
ঘণটার
##থেক
দেশকে
জেলায
মহিত
দরশক
চির
তেম
মতে
এরা
রহল
জানযারির
##ানষঠান
##োজা
##সকে
১৯৫
দিযেছিল
ভাডা
পরেসকলা
পতাকা
##াজি
দপরের
##েরি
করপোরেশনের
ভবনে
সহিংসতা
##বযবসথা
##মতো
##িকশা
কলযাণ
পরবদধ
##েয
শানতিপরণ
কযারি
তীবর
##সয
মখপা
অনসার
খানের
পরিবরতনের
with
##যাত
এমএইচ
যানবাহ
মাতরা
অভিনেতরী
যথাযথ
জনসং
আবদললাহ
অসা
আবারও
একসচেঞজ
##ীক
আড
ধনয
োথেক
অপেকষা
শরীলঙকা
বোলিং
কেমন
ঘা
##নিযা
লতিফ
##সারণ
গরহণযোগয
রফিকল
তেমনি
নিশচয
দারি
তৎপর
দেশগলোর
##দৌ
ইতিবাচক
সাগর
মালযে
নিষেধাজ
চত
নষট
##িলি
উদয
সাময
আগরহ
answer
his
##নাকে
পশচিম
##ঞচলিক
িবিড
##জিত
পরই
বযকতির
ফো
পরতিনিধ
##েলর
মাযের
বিসতারিত
গলিট
দারিদর
তান
দলটির
অধিবেশনে
ফযা
ইমর
চকর
বযে
সরিযে
রাষটরীয
আঞচলিক
##জঞান
নিযনতরণে
সংবিধানের
##মির
অসবী
আদায
তোমার
##বযা
##চনার
মযমন
মানিক
বযবহারের
পরিসথিতির
##il
সচেতন
সামপরতিক
৭৫
দরবত
we
কৌশল
##োসিযে
##শত
জটিল
##লযানড
##ig
সেমি
মাসদ
দরবততরা
আহসান
বিতরণ
এসএসসি
বিপরীতে
গরাহ
পছনদ
সবর
ওসমান
সংখ
মিজান
ভেবে
শিগ
##েদ
##ঘন
সফরের
জরিমান
কষে
এযার
দোষ
সকলে
পরতিবেশ
নগরীর
দরবল
আটকে
ইউনিভার
মধযরা
##যম
সংসকার
বোন
কখন
##ামার
##াকালে
সীমানত
ঘাট
লিখিত
##শনের
হাসিনাকে
শিগগির
জব
##িনউজ
বযসত
সবকিছ
##টারি
পৌনে
হাট
পাকিসতানি
এলে
খলে
শট
তব
##পিকে
##ভতি
মযমনসিং
##িসহ
নী
পরিদরশন
##ষটরে
দশম
দিলেন
মহাজ
মেন
##ীগঞজ
দীরঘদিন
মখপাতর
মনদ
পালটা
পণ
সটক
##হেত
পিডি
শামীম
##শী
##কেনদর
আউট
মাদরাসা
অপরাজিত
মম
##নীয
##জির
তিনজন
মোতা
##খযাত
বিবেচনায
কপ
##েরর
পরথমবারের
হামিদ
দৌ
সেম
দো
##বিন
নান
চলতে
সাক
##পরিষ
এএফ
##বনদর
খালেদার
ইউরো
আদরশ
##তনের
উনি
খবরে
সংঘরষে
িবিডিনউজ
আনিস
মাছরা
শামসল
ভবিষযতে
মশফিক
উড
আফরিকার
সিস
জনপর
করো
পরশাসনের
ঘটনাসথলেই
##ভেল
শরীলঙকার
##ারক
সোন
শান
৭১
##ગা
##ালির
সাডা
যাবেন
মানসিক
##বাসীর
ইনটারনেট
সমাপ
কারি
ঘটনাসথলে
পজিবাজার
সেগলো
টেসটে
উৎসাহ
দীপ
কষমতার
পথিবীর
ধনযবাদ
মিরপর
চালা
ইংলযানডের
গরপ
সহসভা
বেধে
১৯৪
হাক
সটার
সিদদিকী
শতাধিক
গলিটজ
ইঙগ
তাপ
##যযার
বলি
কাঠ
##েট
আমদানি
খোক
আলীর
wor
সবলপ
নিরাপততার
চাপা
খশি
৪৩
পরবাসী
৪১
আশরয
সহসভাপতি
##হির
বেচে
মঞচে
মাছরাঙা
##ৎকার
##শিষট
বারবার
শেযারের
##বলীগ
##িতব
##নিরবাচ
##ab
এড
অধযায
পরপরই
গরেপতারের
জের
গেলেও
চাওযা
নীতিমালা
তহবিল
চাহিদা
আললাহ
পেটরল
ইসরা
মেরে
মোসতফা
করমকাণড
বিনা
নিক
##ch
##জায
as
শপথ
রাখে
পডবে
##শিলপী
##াইটে
আরজেনট
##ধীন
৫০০
সংলাপের
িনে
##শিদ
পরোপরি
৩৯
নিযেও
ঢকে
টকশো
শরীর
মরযা
আকরষণ
sh
বেন
##ডিযাম
পরতিষঠানে
অযাপল
যবলীগ
মোর
ভেতর
অটোর
সমপরকিত
সংক
##মযে
##িযাল
হিনদ
##ইট
পথক
জানালেন
দিচছেন
শাখা
##যোগী
##ারস
পরিপরে
এসেছেন
বযবহত
বাসের
ভযান
৪৪
টে
৬৫
কোরট
দপতর
##ct
##সটার
সবজ
পরান
##িকের
ইঙগিত
২০০৬
টরে
সমপনন
ডিজিট
বযবধানে
##એઐ
##বারষিক
বাডানো
টরা
জামিন
তথ
২০০১
##পী
##ঙগের
শঙখলা
পরকাশের
##ਡઙ
ফেন
পরতিকরিযা
পানির
##ীতের
##চিতরে
সীমা
নযায
বাজ
ইনসটিটিউ
আনষঠানিক
অভাব
##িও
নিযম
সোনার
##িপ
ডেম
সকরিয
রেখেছে
চটটগরামে
##টরি
##পরধান
সাহে
##দেশের
অবরোধের
##তিতব
যাতর
অযাক
##টিযা
মাশ
##করম
থরি
##পোরট
বাসা
##িকিউ
পরতিষঠার
সামনের
##হতি
##উস
শরত
এসইউএম
##সচিব
পাট
অরথবছর
পরতিযোগিতা
হসতানতর
তাক
করমসং
অগরগতি
যিনি
##ধিকার
##থর
তাৎ
রহমানকে
রেজ
১১টার
আফগানিসত
পরিপরেকষিতে
মামলাটি
##েশনে
##তাই
নিহতের
হতযাকাণড
বাসতবাযনের
সালমান
জিমবাব
পরতযেক
কলাস
দষট
শের
নেবেন
পাসের
মনতরি
সেনাবাহিনীর
যবক
ছযটি
চকতির
##নতি
লিগ
অযাসোসিযে
কেনদরের
##বেও
পেল
ইউসফ
আলোর
বাব
মদ
সনদ
সৌদি
গরহণের
বলিউ
বিনিময
দলগলোর
su
##িনট
কলক
কিছদিন
##যেছ৷
পেলে
আকরানত
##ংযের
১৯৬
##েনটে
খসডা
শীরষক
##ap
আমনতরণ
সবেচছ
মহিউদদিন
##িনারে
ডিজিটাল
নবম
জডিযে
##িসের
li
শীরষে
খায
নাক
হানি
জযা
বিষযের
পরসঙগ
ভোটের
##থান
উৎসবের
উঠতে
ধীরে
শাখার
আহমেদের
কারখানার
পরতযকষদরশ
মনতরিপরিষ
##ill
ডলারের
বিচছিনন
মেজর
##ষণের
আশপা
অপরি
##বাসে
##দো
হাফিজ
##বিনি
সদ
রাষটরের
পরশংসা
হোট
অনেকের
সাধ
##নতরীণ
ছাতরদলের
আযোজনে
রঙ
পরদিন
যাব
দরদ
##মনা
নিখোজ
পরতযাশা
চম
##িপত
##িকস
পরযালো
গোপাল
বোরডে
এসময
রাসতার
ইউরোপীয
সযাম
##ew
ফাযার
##ষের
১৯৭১
বিজযী
গাডিতে
ইট
জাস
##নতে
ফজলল
##রাম
ইলিযা
পরভা
bd
একথা
হারে
মতোই
কণঠ
মযাক
গোষঠ
কষদর
যাওযায
পরকৌশলী
যাই
##টিভির
##খযক
##যানট
থাকছে
বিপরয
কযলা
মানববনধ
জরিমানা
আবাহ
##ডো
জনগণকে
##এমই
বৈশাখী
বઘ
##oun
বযারিস
অশ
কাদ
আসথা
##যালি
সতত
##ce
ডিগরি
সবারথে
উপায
সবীকতি
সোহেল
রবীনদরনাথ
অভিভাব
নাটয
##েষটার
করমসচিতে
তৎকালীন
ভালোবাসা
পাত
পাহাড
##মহ
নিরম
##তিন
##ঞচিত
সেনাবাহিনী
সিরিজের
সাদা
মনতরিসভার
এমপি
বহি
বযারিসটার
##পথে
কষণ
##যাতরা
জগ
রিট
##ess
বোঝা
রযাবের
পিলশ
ভট
##সরণ
##াজের
পরদরশন
বৈধ
লিগের
পশচিমব
সশসতর
সাঈদ
গাজীপর
গোপন
হাযদার
রাজনীতিতে
##নন
পরযাত
রিজভী
ছিট
আসছেন
চিকিৎসার
অবসথার
ওরা
তদনতের
আফরিকা
মনের
at
দরযোগ
পরেকষ
নাহিদ
ঘিরে
খাতন
ইমরান
সজনশীল
কযারিযার
ধাপ
কাশ
মেল
অসবীকার
সিরিযার
উননতি
##বোমা
মজমদ
সসথ
মেগা
গি
রোধ
##ফিউ
##নিং
##ামম
এসএন
##যব
বিডি
সংরকষ
##মাতরা
সমরথক
##উললাহ
##পটি
##ফট
করল
অবকা
##ফাযেল
পরিষকার
৪৯
পাচছে
no
##ন৴
আশবাস
টন
নিষেধাজঞা
ওব
বিবিসি
দাখ
টান
##ভাই
রাষটরপতির
ফান
সালা
কামরল
তাডা
##এসপি
মঠ
আলোক
টাঙগ
গজ
##িযাম
আযের
নিরাপদ
চলচচিতরের
হাইকোর
দেখি
মিলন
মাটি
এদিন
##ণী
ইনটারনযা
নযাশনাল
ঊরধব
##মবে
আসি
ছাতরী
পট
মেলায
রবি
হতাশ
৪৬
##ডিপি
##চারের
আরএ
রস
খোকন
টিআর
গিযেছিল
বাডছে
সংলাপে
মওদদ
বাডাতে
সমঝোতা
ইঞজিনি
ডিডি
পেন
সটর
##িমের
উর
দিনাজ
অনশীল
মাশরাফ
দঢ
##শকতি
##ফায
১০টি
৪৭
ঘরের
ছো
ধরতে
##ফোনে
৭২
বদধির
পতরিকা
কথায
সোহরা
নক
খোনদকার
নদীতে
অনতরভকত
ফেরত
হজ
ওপরে
বাসিনদা
বারষিক
মরগে
শরতেই
এনড
মযন
টেলিভিশ
কানা
আসাদজজামান
##াজয
ওবামা
করেত
পারফর
োন
মতবিনি
সনধযার
৫২
##দেহ
ছবিটি
মেযের
অভিযকত
##জনে
##দির
পরতিষঠিত
সমিতি
##োপাধ
লঙ
পরশনে
নিজেই
আদি
##ডস
##িনির
বাচচ
that
উজজ
##৩০
পেসার
এজ
##হাদ
অনসন
পরণযন
অভযনতরীণ
পরেকষাপ
চোর
##নিষঠ
পরযোজনে
জেনে
সযার
তরা
উপহার
করমকরতার
পলা
##চছেদ
ওঠার
ইনসটিটিউট
যগ
ভী
সমদধ
জানে
সবজন
জাক
নরসিং
অধিদপতর
সততবেও
হযেছিলেন
পরতিশরতি
##বাডী
##ংলা
গরন
অসম
বাগ
দাযিতবে
##শিযান
##গঞজে
টিকে
সমপকত
জযন
জানেন
এনামল
৫৪
ভাং
পরিসথিতিতে
ষষঠ
নিচছে
মীর
থেকেও
উদবেগ
বারস
##েব
সংবাদপতর
রাসেল
গযাল
রক
##নযাস
ইনদ
ডান
##িব
১০টার
সংকষ
সারাদেশে
পরবের
##উদদীন
পডিযে
##চক
জনতা
শরেণির
সালাউদদিন
ইচছা
মিডিযা
পাঠানোর
আছি
জাদ
বগডা
ভযাবহ
ভকত
শিগগিরই
অজঞ
বলব
অঙগী
কষট
জাতীযতা
জঞান
ছক
not
##ds
সংশোধনী
সরঞজিত
তোল
নায
উৎসবে
৫১
বিগত
কারো
কাটিযে
##ঘাট
##সিম
গরপের
৬৪
##ওযযার
##যেত
িদে
অনপসথ
##হারা
জমির
অলপ
বিশবে
এবি
পলে
কষোভ
কলেজে
মিজানর
সংর
নারীদের
ভাষার
২০২
সভাপতিমণড
রেহ
সেঞচ
অধযকষ
১২টার
অসাধারণ
পরধানমনতরীকে
##িনী
##টেলে
উততরা
##ain
ইউএন
বিকা
সঙগীত
##িকান
পরতিবেদক
মাদক
রচনা
##তিযে
দিযেই
বাসে
##খাল
ছটি
##যাপন
##িসং
মিযান
পরোনো
##বছরে
অরথবছরের
##শাসন
ইফতার
মহাসডকে
সকোর
##রিদর
যকতরাষটরে
সিরিজে
২০১৫
te
টেনে
ছিলাম
মৌলিক
করাই
বরে
লট
ওদের
ঘম
##ামলক
অধিবেশন
##এমইএ
সপোর
আগেও
যেহেত
ধরেই
ভোগ
আইনি
sp
সিঙগা
চিকিৎসাধীন
ঐতিহয
তালক
রশিদ
মোকাবে
পরাকতিক
রওনা
মোটরস
বইযের
রিযাল
##ডন
##বণ
মেধা
they
বাম
##ওর
উললাহ
নাযক
অপহ
##কেল
তোফাযেল
মিযানমার
করিস
এসকে
শোভা
রকষায
দাডিযেছে
ঐকযবদধ
##ানিতে
কযামের
করমচারী
গেম
মঠো
৫৭
মধযরাতের
হানিফ
ককষে
গরি
কোনও
অভিননদন
মোহামে
দেখেন
করিকেটে
জিনি
সতরা
সাকষয
পষঠ
দারিদরয
মেটর
কোরটের
শহী
মাটিতে
ফরম
##ol
কারাদ
মযানেজ
##ঞজন
বিযের
১০টায
জজ
ভলে
অঞচলে
##াতন
হয৷
ইসলামীর
শিল
##দদিন
হচছিল
##পরযা
অদ
##পো
##লির
সালাহ
##রী
ইশ
সেসব
তণ
দফায
শাক
জযী
নোযা
কবীর
##যস
জনি
পরিশোধ
আবেদনের
পারথ
অবসথানে
বাণিজযিক
দিযেছি
কারিগরি
কলপ
পরচল
উপনযাস
আগনে
বিএনপিকে
রকষার
do
কবর
অংশগরহ
অরথবছরে
সেতর
সংকষিপত
ইজ
৫৮
তদনতে
মোললা
নাজমল
তালকদার
অঞচল
সষটির
মনতরিপরিষদ
৫৬
##তিকরম
জোরদার
##ষধ
দাস
qu
##হতযা
শিরোপা
নাসিম
মোহামেড
বহন
কতটা
চিঠ
রকষণ
অম
ইনডিজ
এএল
##বতত
রাজসব
একাদ
##যারা
বাজারের
##গাদ
যাতরীবাহী
ডিএসইতে
জাপান
ওযারলড
বিরোধিতা
শীত
##িযাস
হোসাইন
সবত
##ang
ইনটারনযাশনাল
কষক
বারসেলো
ভগ
মোদি
সমমিল
সমরথিত
নাইন
##ঙগার
##এসবি
##টেক
অবল
অনষ
##নীতিক
সমারটফোন
তফ
সংরকষণ
মহাসডকের
ইমাম
নিনদা
বরাবর
##ভেন
##টাকে
##জো
##সঙগে
ch
কমিযে
বরগ
পরসতাবিত
শতর
বাবল
লিমিটেড
লঞচ
উললেখযোগয
রাজধানীতে
গলশান
##দনত
##টনের
কাউনসিলর
আখতার
##ফিন
মেগাওযা
উততে
অপরাধের
এইচএ
পরতিযোগিতায
ককট
##িলে
কাযে
লিগে
al
মধযা
##গণ
আবারো
কমিললা
রোজ
খেযে
আনত
##িকর
##টাও
সথিতি
সটেডিযাম
অপারে
রাননা
##টারে
পশচিমা
অভিষ
বরাজিল
গাডির
হাইকোরট
অপহরণ
উদাহ
অবিল
##পেন
পরতিবছর
মিনিটের
পারবতয
##লস
##টাতে
যানবাহন
অবাধ
দজনের
নিমন
অনধ
শাহর
মানবতা
পাখি
মজমদার
সামান
চলচচিতরে
##রাই
গণমাধযম
গভর
অবিলমবে
কষমা
##ততম
যকতরাজযের
me
##ীবী
ওবায
##দাযিক
লাগবে
করবো
অযাম
টিম
অনেকটা
মতবিনিময
##ালাল
শিকষারথীর
ককষ
সপত
সাইফল
##ফাইন
হারিযেছে
পণযের
িতিন
##ললাহ
সমভা
মিড
অভিযোগের
মযনাত
সভাপতিমণডলীর
সিই
##শীলতা
##বিধানিক
আকবর
কাগজ
উনমকত
জনমদিন
তামিম
অগনি
টেলিফিল
পদধতিতে
বলেছি
##পাট
বিজেপি
##শিং
অসং
##ভোকেট
##করে
বসবাস
আহতদের
তৌ
কযামপাসে
কটনীতিক
শিবিরের
সবেচছাসে
শহীদল
ফাউনড
সঞচ
##যাযন
পরিবেশন
রেখেছেন
ফাইনাল
মযমনসিংহ
সেজনয
রাজা
তখনই
##গডা
দেযনি
পারছে
অসথির
##বলিত
##বৈ
পরবণ
পরবদধি
হোটেলে
##জাদ
##িকো
সমারক
##পরেস
##নাট
অরথনীতির
ছাপ
অি
ইবরাহ
বাডতি
##ষকার
##age
জাহিদ
কাহিনি
সমাপনী
জেল
ডবে
##িতিতে
অধিক
মসলমান
সেমিফাইন
ইলেক
১৯৯৬
সমভাবয
নও
ফেলা
৩০০
সভার
##ave
ইসলামিক
উপসথিতি
টাকায
##বলে
১১টা
যকতরাজয
কারড
##সংগ
ইতিহাসে
##ছিলো
গোলা
বহনিরবাচ
পনঃ
পরতিদবনদবিত
দরিদর
##িদল
করতেই
টরাইবযন
অনসারে
মোজ
অভিনযের
সেটাই
##ass
অবি
নেট
আবহা
আকা
সপিনার
খনের
বী
নারাযণগঞজের
কায
হকের
অভিনীত
ইউনিট
দেখেছি
দরশকদের
বিটিভির
শাহজাহান
বযানড
একিট
সিল
১১টায
পরতীক
রেডিও
বরাত
ইযর
অনসরণ
উপপরি
শারীর
সতরাং
ইসি
তারাই
কখনোই
পরযায
পরাপ
উপে
উদাহরণ
বেছে
দবারা
আটটি
##াময
কংগরেস
ফজ
##করণের
বযসে
পডছে
দণড
##ভাস
##াযনের
তাৎকষণ
অজ
##ছান
কোযার
অভিযোগপতর
গোলের
তযাগ
অষট
ঢক
নই
হযর
পারিবার
শরি
ছাডাই
মেযেদের
so
পদক
তিস
রবেল
সখ
সবচছ
দিলেও
##লগন
জাপানের
োক
৬১
##কালের
বাগের
অঙগীকার
সামানয
ওষধ
##ন৷
##াইদ
##গઝ
পরতিরকষ
##বযে
ফেরদৌ
করতবয
আে
##শিকষা
বরাহ
##রফে
আগরহী
বসত
বজায
পরিমি
go
##টিই
বিভর
কামনা
বহনিরবাচনি
আবাসিক
##দীপ
পরকলপে
অযাডভোকেট
আলাপ
োপ
সথাপনের
মাঠের
en
ইসয
সামযিক
##তাকে
বিমানবনদর
শকত
মারফ
সলতানা
রেস
##েকা
করমসংসথান
##যানা
##গরণ
বাতিলের
শযাম
সটেশন
##un
শরেণীর
from
তালে
মনা
##ফেন
সলতান
##মীর
##সপ
দাখিল
৬৭
এমএ
বাফ
বিদরোহ
মাও
হাকিম
হোটেল
তি
##িরো
মৌসমে
৫৩
রকষাকারী
বিদযতের
নিলে
দশকে
শামস
সিসটে
সংগীতানষঠান
পডাশো
ওযেবসাইট
সমযই
গণমাধযমে
##ood
##কমিশ
ওঠা
মরযাদা
বাডবে
হদা
মতযদ
নাটকের
টরাকের
##টিও
পেযেছি
শনতে
সভাপতিতব
মাসটার
খেলবে
টরাসট
লযা
##পরেম
চলেছে
##আপ
পালনের
ওযাশিং
##বিহীন
##িসির
গিযেছিলেন
সনির
নিউই
শরীফ
পরযবেকষ
বিশলেষণ
জিজঞাসাবাদ
ইউনিভারসিটি
মযনাতদনত
ওবাযদল
man
রোনাল
হচছেন
##সভার
##চীন
আমান
নিবনধন
##িদের
##িড
পরবনধ
সমাজে
##এনএ
বেঞচ
সাহা
সমমিলিত
ইলিযাস
রাযে
অতিথির
সাতটি
জহির
##যানস
সমপরকের
করিকেটের
সংঘাত
পরিমিযার
আপততি
করছিলেন
চেম
উততোল
পরতযাহারের
কিনে
ধারায
সের
বিলি
ওরফে
##ডটকম
##াইযের
মেলার
শাহবা
টরাইবযনাল
এএ
##তলা
##মোহন
হাবিব
নিরবাচনকালীন
হিন
যেত
নিউইযর
##রাও
লডাইযে
এইচএসসি
মাদরাস
অনলাই
পরামা
পরতিযোগিতার
##ers
খেলোযাডদের
মারাতমক
মালযেশিযা
##os
##um
ভমিকায
দতত
##দারি
##দম
মহল
##ভিড
##যাজ
বলের
একসময
##th
##িরভত
জনযও
পেটরলবোমা
৬২
চালানোর
##iv
ভবিষযৎ
এএইচ
শও
অবসথিত
পরতযাখযান
বেলন৴
এশিযার
ছডে
নিল
কাঠামো
অপেকষায
পরবা
গেলেন
পরতিবেশী
সিনেমাটির
ভোরে
তাও
যদধাপরাধের
অনসনধান
সাহেব
কোযারটার
বিনিমযে
নিযোগের
সফট
সেঞচরি
এএন
০০০
##એ੪
বযবসাযীদের
##tr
একর
ab
সমভবত
বিদযালযে
গণভবনে
পানিতে
আতমীয
রশীদ
##থের
বৌ
সরবস
ভাংচর
পলাতক
##ওযারড
১০টা
২০০৫
অনমোদ
হেফাজতে
সাজে
##যাতর
যানজ
বিনোদন
শোন
ফিলম
োম
##সেন
মাইকরো
##বিজঞান
শরেষঠ
হাউজ
টেসটের
কাই
##লেকস
উতথা
চারজন
সমাবেশের
পযান
ফেই
মদর
##করমে
গোলরকষ
সমর
by
ইযাস
পরতয
ওযেবসাইটে
জাতীযতাবাদী
মিযার
পারিবারিক
মোডে
শতক
গগল
বেসাম
শাহবাগ
টেলিফিলম
আপাত
##বাজ
আলোচিত
পরিচালনায
পরাঙগ
কাছাকা
সিনেমাতে
##পকষের
চক
বিরাট
নিউজিলযানড
ভীষণ
৫৯
##বিদধ
ছেলের
ভযে
শফিউ
টিপ
##মলয
পাননি
##ফিজর
পরতিপকষের
রনি
শিখ
##ওযাত
দরবয
মহাজোট
##কষিত
আজম
ইতিহাসের
##বনের
করেও
সিপি
##দেশিক
শওকত
##িষট
##চিন
একদল
এরকম
জানানোর
মিউ
একেবারে
ঘাটতি
পরিবহনের
কাছাকাছি
##রো
pe
কলম
দাডায
সলোগান
মঈ
বৈদেশিক
রণ
মিটার
কলিন
ওযাল
রাশেদ
##জিৎ
##াসি
সনাম
অবকাঠামো
গলা
নেতাকে
পরকরিযায
বিশববযা
নত
##ডিতে
পলিশকে
##ীবন
শিশর
বষটির
##বরতিত
হাসি
৬৬
পারক
উততীরণ
চলাকালে
পরমাণিত
কেরে
জনসভা
##ঘরে
##িকদার
বিশিষট
তেজ
##পরচার
গেই
##সীমা
জিন
জেম
দান
ফাইল
অনিশ
##ালেও
সাধারণত
বিজিএমইএ
চাম
বযবধান
##মোচন
ঝল
৮৫
##ডাক
অভিহিত
##ীম
হোযা
##দশ
##শরে
##ভাগয
আতমবিশ
নগরের
সচিবালযে
দাবির
পরিচালনার
২০০৪
গলশানের
জানার
##তবের
পরজনমের
ধানমন
##িসংযোগ
she
এখনই
দরদানত
মেগাওযাট
সনিরদিষট
গবেষক
অবসরপরাপত
##মবা
কামর
আরিফ
ex
হারায
টাইমস
অগনিসংযোগ
১২টা
নিহতদের
পাযে
হোসেনকে
একষ
বহাল
কমিটিতে
ডেভিড
নিরযাতনের
ককটেল
un
de
##াজনক
পরতিষঠানটি
বরিফ
বাজেটে
বাসতবাযনে
বেসামরিক
her
পরিসং
##ii
##ews
##ht
সংবরধ
tr
ঘোষিত
সহযোগিতার
পরযবেকষণ
পরচর
বকততা
##নামলক
নাটোর
পারছেন
হাবিবর
অনলাইন
দতা
সাউ
দশকের
শনানির
পযেনটে
অষটম
##বিনদ
ছাডিযে
লনডন
সিলেটের
পরচলিত
আনষঠানিকভাবে
se
পরিসংখযান
অধযা
সাজানো
আরা
নীর
বাসটি
##মনির
নৈতিক
সঙগী
তফসিল
অভিজ
##ামমেল
##নট
##বাসীদের
ফিলিসত
##ant
অপসারণ
অফিসার
##সেনস
পাযনি
ঢাক
পরশাসনিক
কারাদণড
বযকতিরা
ডেপটি
ver
বিনিযোগের
যোগযতা
মনতরিসভা
দদক
পিক
পরীকষারথী
ইচছে
ডাই
হেযেছ৷
আযোজনের
বলল
##বাই
মানবিক
##ীকষা
ওযারড
োজ
পরেকষাপটে
মৎস
নরেনদর
পরযকতির
অংশের
করমশাল
এনটিভি
##ake
শাহরখ
##ort
ইউনস
জলা
##ies
##ামীর
সোনা
অনির
##েনেড
বাইরের
তারপরও
উজজবল
মমব
একষেতরে
শকতির
রোমান
আরাফ
##বিতর
বৈষ
কপিযে
##rit
রহিম
শারীরিক
##আউট
িক
শরিক
উদযাপন
মতযতে
করেছিলাম
মিলি
সমমাননা
হারা
ফরানস
মাহমদল
##যো
আশপাশের
তোলেন
সচনা
গলিতে
মজিব
পরোগ
নাচ
পরণাঙগ
##ome
ভাবনা
তরাণ
##ওন
নেতি
করমরত
পতরের
নৌকা
শিলপের
কলাবের
হি
শানত
হোম
ধরার
অংশে
ভাইযের
বরাহমণ
তোর
বযবসথার
সহিংসতার
##োপাধযায
নেটওযার
চাদাব
যাচছিল
ফেসবক
বযকতিকে
মেসি
দিনবযাপী
অসংখয
উদযান
ভাঙচর
কমপলেক
##শব
কণঠে
৬৩
##কারস
##ডিযার
সংগঠ
পাচছেন
বরণনা
লকষমী
সফটওযযার
##ঘয
##কারীর
##art
সবৈ
ইংরেজ
এখান
##যানডে
সবরাষটরমনতরী
পলটনে
গઝ
##লানা
##ধઘ
বিবতি
মঞচের
মোতাযেন
sa
কবে
গাযে
উলটো
বনযা
একাততরের
সিদধানতের
ভরতির
বিদযমান
জিতেছে
রিকশা
যোগাযোগের
##বনদরে
দিবসের
ঘটনাসথল
সষট
##জাল
##যত
##ould
নেতিবাচক
ছি
##হনের
মানববনধন
ঊরধবতন
তণমল
এতো
##ধন
আবাহনী
কমিউন
সোহরাওযার
টই
সাতকষ
##াকের
বাদী
সারক
নিরাপ
হরতালে
##েমে
একতর
##ওযাজ
চিতরনাট
ইলেকটর
দবী
বনধের
চমৎকার
দেশগলো
বরজয
ইনডিযা
নাকচ
বেদ
ইসরাযে
ফরান
পেরিযে
নাটকে
গণিত
হদ
মলযাযন
হলের
লাইফ
মমতা
সামরথ
মনোভাব
যাচাই
##ষণায
উডিযে
তারই
গণজা
চোট
বিবরণ
রাজাকার
দাযে
ইনড
ইনডিজের
##লাইন
মেযাদে
বকে
বাঘ
রাহ
কাজটি
জাহাঙগীরনগর
iv
কলার
৭৪
##যেড
সেখানেই
সেকরে
এফবি
##শাস
সংশোধনের
সিরিযায
সটরাই
সপোরটস
কস
বিখযাত
##বরতন
##যেনটিফোরডটকম
হাওযা
##মপদ
মাদরি
৬৯
##রেট
রাজনীতিবিদ
গৌর
##উনডার
অফিসে
মাশরাফি
৭৭
পরবাহ
ইরানের
##াকস
তাদেরকে
যাচছি
ধারার
হাইকোরটের
গোলরকষক
##োষঠ
গানটি
কযাচ
কাপর
কেননা
বিষযগলো
জিনিস
our
সাে
নমবরে
ফটবলার
##োত
নাশকতা
সপতম
করনেল
নিচছেন
মনতরীর
অভিযানে
বিসিএস
##৫০
সবাদে
##বযের
চালাতে
আনতরিক
এগো
আযার
ভাগয
নগ
একমত
##দেশে
বরিশ
পরতিষঠাতা
কারখানায
বরিফিং
বানিযে
জালে
কনসার
পরিবরতে
চতবরে
জাকির
মোজামমেল
নিকষ
পবিতর
রীতি
একদিনের
চেক
সিএন
মাধযম
সাজা
or
লক
##েপ
##লিপি
পতরিকায
comp
ইরান
লনডনে
পরযালোচনা
অক
উদধ
সায
পরামাণয
মাহফ
মানবতাবিরোধী
উপাদ
গরেনেড
##কিট
তোমাদের
মাইকেল
সঙ
##তানতরিক
বঝে
নবী
পারিনি
মোসতা
সিএসই
শাহরিযার
##কিল
বিধি
লাইসেনস
এশিযান
মইন
##নদের
##੯দ
##যোগে
আপনাকে
মিন
##ওযাল
িনেয
দরজা
অংশী
লাগিযে
চাকর
মিতর
তথযপরয
রাসাযন
কের৷
আনসার
ঘনিষঠ
সারব
এসেছি
সবরণ
ভাতা
সংগর
বৌদধ
ঘরণ
##ছল
কিভাবে
পথিবী
##ফোনের
সংখযাল
##২০
##ীবাজার
নোবেল
রাজনীতিক
পরাইভে
peop
##যাড
বাংলায
তৎপরতা
এমএসবি
সহাযতায
কষেতর
পরতিদিনের
##পকষীয
আওযার
##পনে
##বারষিকী
ধরমের
##পরযাযে
people
##চারণ
বৈশিষট
ঠেকা
##টাল
দবনদ
##ষী
পরনো
এলাকাবাসী
সাফলযের
পারফরমযান
##েরও
সঙগেও
দোযা
ফেনী
দেননি
can
ভরা
৯৬
##জনা
তথযমনতরী
চালাচছে
চারদলীয
টিভ
##ওযের
অসহ
অরজনের
##পরাণ
লেনদেনের
গাইবান
ঝিন
মেশ
##দাযের
কিছকষণ
১২টি
##হাব
অজঞাত
##শবিক
উপভোগ
সমপরচার
মৎসয
সদয
##মেন
সতযতা
ওএস
##কষেতরে
অযাকা
মকতিযোদধ
নিশচযই
ফেইসব
কলকা
শৈ
বিজঞাপন
বদধিজ
মহাসডক
কমপকষে
##যারস
আশাবাদী
বরাজিলের
জনপরশাসন
সবেচছাসেবক
সমরথকদের
রাজয
বেগ
ছাতরদল
সতরের
যৌন
বিপরীত
জযাক
৬৮
এবারও
আকরম
পরেমের
গণমাধযমের
আতা
সকটল
আলি
মাইকরোস
দগধ
##গপত
##পততির
যবলীগের
ফেরদৌস
বাশার
বিমানবনদরে
##24
সাংবিধানিক
সোহরাওযারদী
অরথের
চোখের
##মাস
নেপ
##টরনি
সংবাদমাধয
##আইযের
##মযের
ওযাজে
সীমানা
শানতির
সেলি
পনরায
উপপরিদরশক
৭৮
##ud
গেযে
ফাই
সরকারে
গলশানে
কমানডার
সংখযালঘ
##নীর
কনস
##গাজ
##তাব
আউ
উইলিযা
মনমোহন
##ভের
নাটকটি
সমপদের
রাসাযনিক
খতিযে
সেনানি
পডলে
bdn
##িশন
##নাই
নিযেছি
উদভি
তাকিযে
পরদ
নিচ
বণ
##পরকাশ
##যোগাযোগ
মধযেও
চলার
হইপ
bdnews
হিম
শারমিন
সিরাজগঞজ
ঐতিহাসিক
আববাস
লেখার
হাননান
cl
##বাসন
পরতিনিধিদের
সঙগেই
ঠিকানা
সমাধানের
বঞচিত
পরযটন
দশক
##তনা
##ারী
আমদান
পেটরোল
সবসময
আবি
চাদপর
রিযাজ
ডেমোক
উননীত
##ছডি
##মাকে
বদর
আরটিভি
আবহাওযা
bdnews24
আসল
জাগ
পরতিরকষা
নিরবি
##িযায
অলিম
সেকরেটারি
ইসলামকে
##out
হিল
পরিন
পৌছা
ভেসে
##if
সবয
অযাটরনি
দকষতা
বইম
হযেছি
একসপরেস
জিততে
ওমর
##চযাল
পরজঞ
থেমে
জানিযেছিলেন
পরতিষঠানটির
পযসা
হরি
দেওযায
পদারথ
##বদল
তারাও
এসেছিলেন
আনিসল
পাচজন
ইউনাই
৮২
৮৪
কোনোভাবেই
সতযিই
##িকেট
##দাতা
রহসয
এছাডাও
মঈন
ne
সংযকত
মতিন
পরাণী
##ংকর
সাদেক
আসেনি
হারন
শিকষকরা
##সই
বিআই
পারস
##োকতা
সবাকষরিত
##টেও
##যাযিত
ফলাফ
রাজীব
ইউকর
হাতি
গাছের
পশচিমবঙগের
খজ
হদয
বলছি
তাহের
লঙঘন
con
৭৬
৮৬
there
এরশাদের
োব
১৫০
##বাহিনীর
রঙের
জিমবাবযে
একের
নেতরীর
হযেছিলো
##and
সমালোচনার
##পরতিষঠান
পরিত
বেশিরভাগ
দার
##টিজ
বিডিআর
##ডানো
##ডেট
##লিউ
##তিনি
চেযেও
শিব
আরাফাত
সটা
##ate
ইবরাহিম
##ire
সরয
দিনাজপর
শফিউল
গণজাগরণ
কলকাতা
##us
##বাডিযা
পাও
বদলি
হলেই
মতিঝ
মযনাতদনতের
have
##ডবলিউ
মনোনীত
ডেভেল
মকতিযদধে
পরতিকরিযায
িদ
৭৩
##িযান
##যারে
কাচ
##োজিত
চেযেছেন
সথল
আশঙক
খেতে
আমেরিকা
৯৯
পডেছেন
জাহান
##গতির
শিম
মেহের
রাখবে
ওপেন
দষণ
ভেন
##যোজন
সিড
ফযাশন
চিঠিতে
সহাযক
##ঞচলের
পিসি
সবই
টরেনের
খাওযা
ভিড
##কলযাণ
আপাতত
মরত
what
##নীতিতে
অযানডর
ইসলামি
ছাতরদের
পরারথীদের
১৯৭৫
কাজেই
##জিং
একইসঙগে
##estion
ফকির
##ঘাতে
১৯৩
ঠেকাতে
##িতভাবে
এএফপি
মতযদণড
বিলিযন
বাজেটের
গভরনর
ডেমোকরে
pl
সোহা
ইউপি
২০০৩
তালা
ইউনাইটেড
##নাজ
##গরী
##কষেপের
আতমস
সাকষাৎকারে
টাঙগাইল
চেল
##od
ডটকমের
তাগ
##লিং
##েসর
আধা
ঠাকর
##াসত
##মাতে
থাম
##যদা
##ণঠ
##ww
এসএ
কলযা
শরমিকের
আমিনল
মখযমনতরী
জানাই
দলগলো
আইসি
জনগোষঠ
অনশীলন
মক
##বকে
##যেদ
গবেষ
চিতরনাটয
##িসা
##জিও
বৈশবিক
গোটা
অবসথানের
পরকাশনা
চাপে
##বতী
অবাক
গানধ
নাগরিকদের
নিউজিলযানডের
তথা
##উনি
সিআই
www
হবি
##ংকের
আমীর
ফিরোজ
ইংলিশ
আমেরিকার
পরবল
ভাষয
##যাংশ
পাচার
নিযেছিলেন
ভাবতে
নাশকতার
শেরে
পরবরত
কষতিপরণ
সামপরদাযিক
মেনন
অটোরিকশা
বংশ
পরিকলপনার
কযানসার
শবাস
নিরদেশে
পতরিকার
##ish
রেলওযে
অপরিবরতিত
বৈষময
ঘষ
জবান
শেষের
মালিকদের
করমকাণডের
৮১
সমপরদাযের
আদেশে
বিসিবি
question
অনলাইনে
পরাইভেট
নৈ
ফলের
দাও
##কমিশনার
very
ঝড
##পট
বাপ
##বাসীকে
গরামীণফোন
পরতিবনধী
এডাতে
খাযরল
##ীষ
হাও
করমচারীদের
আরোপ
আতঙক
সেবার
মনস
হননি
সটি
##বরষ
সাইফ
৮৭
##ভেজ
যদধের
ঠেক
পরজ
##টিস
ভোটে
নিঃস
চেতন
ফেলতে
শিরোনাম
কাফ
পাকিসতানে
অভিষেক
উদযোগের
এমনি
##our
ফেবরযার
অতীতে
পরচণড
ঋণের
##ধের
বাসার
অরথাযন
লকষযমাতরা
পরতিনিধিরা
ইনসটিটিউটের
কলকাতার
পারথকয
##বিধ
##বনদি
অকষ
উপযকত
দেশজডে
##াহা
আগামীতে
##যী
পরদায
দলই
ঘটছে
গাজীপরের
অযাসোসিযেশন
কই
##মহল
##ঞচি
কযাপ
##েননি
সনতানের
সমমানের
সংরকষিত
অংশীদার
##যেনস
শাহাদ
এডি
পরতিফল
ঘোষ
##ook
সনদরবনের
তোমরা
ওযাজেদ
তোলে
হসতকষেপ
##হাতি
##বাংলা
##বাজারে
পরাযই
মতিউর
রেজাউল
##খালীর
কাতার
##মমদ
নেদার
পৌছান
যৌথভাবে
ঝিনাইদ
নতয
পরথমার
সথানানতর
পেশাজ
হতাশা
বাঙালির
নেতাকরমীদের
কডি
##ডিস
পাওযায
মাহববর
পোর
##লাই
বিতরকিত
যাক
##াদা
##ানার
একাডেমি
বিসফোরণ
পষ
শম
##ামাল
জানাচছি
সংবরধনা
##যনির
পরযাপত
শবদের
নরসিংদী
এসি
ঘটনাটি
কাউনসিলের
##তামলক
##ভিন
বিএস
বলগার
##আন
ফখর
সামরথয
কিম
ধসে
লিটন
বিপদ
##ame
ওবাম
সচি
পারছি
জরিপ
শলক
গরিন
টিআই
##ous
##ity
ডযান
লৎ
আইসিসি
নিরমাণে
টরাস
কখনও
খালি
থিযে
৮৩
পચিত
উততরে
গলপের
বযানার
দিত
##পিং
ইচছ
জনে
ফরে
কেনার
গণপর
মযাজ
সোবহ
আখযাযিত
but
গডা
টিকি
৮৮
##সনে
সিএস
জারমানির
ফেডারেশন
ফোনে
পেনাল
খার
##রাব
দাডা
হাতের
ছটে
মিনারে
করয
কবিতার
টিক
শরেণী
সিরাজল
আসিফ
দযা
ফটে
##িসে
সমাধানে
সনদরবন
অযাকশন
উততোলন
##বহার
১৯১
##পাডায
বাকয
অলি
##শিপ
ফোরাম
ভাষণে
৭৯
##বিলে
##ণার
বিচারে
শক
##চাপ
##ংকার
কষবধ
##াকরমে
ঘরণি
##পকষে
জনઘ
তললা
নিযনতরক
কযামেরা
সরা
সাঙগ
মাযা
মাটির
আইপি
মযদ
##লযানডের
রাজশাহীর
কথাই
কির
বাডে
##মাংস
রপানতর
নিরব
বিরত
হারের
পরজনম
##চারযের
মতিযা
##ien
অবহ
সারভিসের
একাততরে
অতযা
নাদ
##এর
করমকরতাকে
পডাশোনা
ছিন
সজীব
বরজন
হামল
us
##শির
ইউনিটের
ডাকতার
কযামপাস
সমঝোতার
##ামপর
##টারের
অবসান
বযবসথাপক
সৌনদর
করমীকে
one
মঞজর
রেজিস
কমপলেকসে
##সভায
জলিল
হেয
মোললার
মোটরসাইকেল
হিনদি
যদধে
দেখাতে
শাহজালাল
জেলে
##ag
##পতয
কারযকরমের
৯৫
##শনে
##রাধিকার
অনেকটাই
অবরদধ
সাপ
সেট
তালিকার
বিজিবি
day
##চিং
টরানস
মজরি
আরজেনটিনা
একানত
ফিরতে
মযাচটি
কযাল
ছটির
পরভতি
অগরাধিকার
জঙগিবাদ
মেহ
সেনগপত
আসামিদের
ইযার
একসচেঞজে
নেদারলযানড
৯১
দবিপকষীয
বিজেপির
রিস
##তপর
এমডি
অসথায
ডিফেন
পাবনা
পজিবাজারে
##ਠઙ
##বারেই
মেহে
গযাসের
অসথাযী
অনা
##নতম
সংবিধানে
ফটবলের
আললাহর
দরবতত
##ভাগের
পোসট
পরবরতীতে
##মাবেশ
হারানো
উপসথিতিতে
ফাকে
পরাপত
দেখছেন
আইনজীবীরা
শিরিন
গরা
লমবা
সংখযক
বিরাজ
সঙকট
সংলগন
মাগ
শনানিতে
লই
বিকরির
মালে
জনতার
সবগলো
দেশীয
পরচেষটা
ছিনতাই
has
##ail
একশ
কেজি
##ফন
##িকযাল
##ততব
মধযাহনের
বারাক
বিনিযোগকারীদের
বযবসাযীরা
ইউএনও
পরচারণা
সনতরাসীদের
জডো
##াও
##নিযার
কংগরেসের
চেমবার
##oll
পরকতি
পারত
সংঘরষের
টরলার
ডিপ
ঠিকই
অসমভব
এএনএম
him
##ভমি
বেই
জগন
##াইলের
পেলেও
এনবি
##চযত
চরচা
ধাককায
পটযা
একপরযাযে
সাফ
দেশি
সংখযাগরি
##যদধ
##মেদ
বিরতির
নিযোজিত
টেলিভিশনের
ফেলেছে
নাও
শল
পরিদরশ
২০০২
বসার
অরডার
পরবণতা
##াযনে
আইনগত
সীমাবদধ
একাদশ
মিলিযন
##দীর
খালেদ
সতযিকার
ফানড
পাখ
##গাছ
মারচের
ফাসির
সংখযাগরিষঠ
##থিত
শিকষকের
অরথে
মলযে
##উনডে
দিললি
বযাটসমযানদের
আনে
ভিল
##থন
করছিল
ফরিদপর
##able
writ
পরভাবশালী
##েনডল
শফিকল
জেমস
উচছ
খযা
জডে
কমગ
পাঠান
সথানীযরা
সাহস
##ents
সযামসা
পরাজিত
২০০০
মরদেহ
অসতিতব
ফেরি
সৈযদা
##বাহিনী
অলিমপ
কচ
হাছান
গোলটি
কৌশ
পরেসকলাবের
শাকিব
পরাথমিকভাবে
মনোযোগ
সৌর
সহজেই
আকারে
শিলপকলা
মালিকানা
অনিযম
কলাম
বলযাক
##ধরনের
বসতর
একেবারেই
##দদীন
ছককা
##যকর
##াজাহান
মনীর
আবেগ
মানের
ভাবে
লকষণ
বযানারে
বৈশিষটয
কদ
##োসাই
রেড
##ore
গরাহক
উপাদান
##ভাষা
দোকানে
ফরানসের
##বিলা
##িযেল
##বসথা
বারন
ফোরামের
##ect
মোসতাফিজর
নং
করলাম
হেড
উপদেষটার
অবযাহতি
আকার
মমিন
অনবাদ
বিপলব
অটোরিক
গডার
১ম
উপেকষা
৮৯
পরিচি
১৯২
পরিবেশের
##সিন
নাঈ
পালিত
কটনৈতিক
চীনা
দাত
##াবাদের
ঘরণিঝ
তারক
##বলি
লাঠি
কেউই
নামিযে
একইভাবে
পরিবারকে
বোলারদের
কতিতব
##শিত
মারধর
ফেলার
##ভিল
অনযের
অবলমব
##লিশ
##াযিত
সকযার
সটোর
জগননাথ
অতিকরম
তেলের
##ah
ভাবমর
অযাপলের
টস
মণড
সাইট
োকা
সোবহান
##৪০
রাব
বাধযতামলক
টরনামেনট
১১টি
##েকট
শরেণি
ছাযা
মধযপরা
সাহাযযে
নাগাদ
মারকে
##ঞচলে
কনযা
পেশা
এমসি
সেমিফাইনালে
##েষটায
শতকের
শতভাগ
লেগেছে
কযেকদিন
শতাংশের
পরতিষঠানকে
রমজান
ওযানডেতে
সঞজ
শরণ
চেতনা
আকরাম
বযরথতার
মসজিদ
##ীযার
বিলপ
সীমিত
চরিতরের
পরযোজনা
নোটিশ
বাগেরহাট
করতবযরত
সাউথ
##ঞজের
উনমোচন
তরণদের
ar
##০টি
##বোরড
রকি
নাছ
জনপরিযতা
শোধ
##একস
##াসী
ডিসেমবরে
লাগছে
জারমানি
নেতাকরমীরা
শোভাযাতরা
পরোগরাম
##টিত
বনধে
শাসতির
বরিফিংযে
তাগিদ
whe
##োকত
এমএম
কেনা
পরতিদবনদবী
পললী
মোহামেডান
##বীতে
##বেত
রিপোর
ফাডির
ধাওযা
সাহিত
বিধবসত
ইউরোপের
পরবী
##াসক
রাতেই
ওঠেন
##পরতিষঠ
##চিৎ
উঠবে
তথযপরযকতি
##টিমি
মনতরিসভায
রোধে
জামান
কযাডার
জযনল
##চেসটার
ভালোভাবে
বিধিম
##লিতে
##মেযা
পরযোজক
নীরব
সটরাইকার
মাননা
বডি
িশ
পদোন
বযাংকিং
মদরা
বিকাশ
পকর
শাহীন
যানজট
কমিউনিসট
জঙগ
বলবেন
আইফোন
৯টা
মযাগাজ
ঝকিপরণ
সবতনতর
##ানায
রাঙ
শাকিল
মমবাই
নজির
অরধশত
মাইল
হলিউ
৫টি
##mp
নিপী
পরতযে
##েকটর
শাসক
পেরেছে
মাদরাসার
ঠেলে
পরকার
সমপততি
##চারী
ছাডার
আসনন
দদকের
পাযের
শাজাহান
সশীল
##াদর
সিডি
পলি
সেমিনারে
আবে
৮টার
##াইজ
##বিযা
দেরি
মাওলানা
সথাপনা
অভিযানের
সেখানকার
ইভ
##াজযের
হেব
সতরীর
চযামপিযনস
লিমিটে
মেজ
হোযাইট
নথি
ওযারকারস
নিহতরা
##ight
##ঙকের
নাফ
উপকল
বরধ
##ong
পরতিবেদনের
spe
হাউস
জিএনএ
সাহারা
পরতিষঠানগলোর
পৌরসভার
বাচাতে
সিসটেম
টেল
টেনডল
একদিকে
দেখেছেন
চালিযেছে
গারমেনট
একতরফা
পরিচিতি
পোল
এসেছিল
বাডতে
জেড
মনোনযনপতর
নযাপ
##দসহ
নেযনি
৯৭
গলায
মগধ
##ঙকর
কিনতে
অসকার
হারানোর
উদধারের
উততম
গোষঠী
##বই
##াসটরি
ভিক
their
নাজিম
all
##েকের
পৌছানোর
pro
চাকরির
my
৯৮
দাশ
##কিউ
সপেনের
দবিতীযার
কাস
ভালোই
তদার
পাথর
তাছাডা
কমিউনি
রিমান
বনদরের
কাপের
মসতা
সীমানতে
বহিষকার
থাইল
সবামীর
চলছিল
নযনতম
বযাংকে
ফজলে
##ছেল
##ছিলে
আদাযের
উইনড
হমকির
##ist
টাইম
##শরেষঠ
বাত
নেতর
অবদানের
সঞচাল
gr
##মিতে
##পরিক
তিনিই
বিডিনিউজট
মহমমদ
মযানচেসটার
তাৎকষণিকভাবে
পরাঙগণে
ডবলিউ
শিলপীর
এনেছে
অনদান
অভিম
অবমান
ধরন
##পনার
##ure
পরিবেশে
যোগাযোগমনতরী
বযরথতা
অগনিকা
ধাপে
পতন
যমনা
##িমা
এমকে
কারযত
আফগানিসতান
রবার
লর
##যেছ
সরবদলীয
জনসংখযা
অভাবে
##যারিং
৪০০
##শায
কাপড
কথিত
সেমিনার
চিল
যাতরীদের
এখ
##গাল
যেটা
নীত
ভারতকে
দাযিতবশীল
সনতোষ
বাফফে
রিক
##গলি
দেযাল
চাষ
সনধান
নীতিমাল
আমেরিকান
জনিযর
সজা
##াইড
দাডাতে
অনিয
রওশন
শরীরের
মোদির
সারকিট
বাণিজযমনতরী
এভাবেই
অনচছেদ
এএআর
এফবিসিসি
লিমিটেডের
##নেতা
##বরের
যাকে
অবরোধে
মনাফা
অরণ
ননদ
##ডিত
টেলিফোন
ঘটিযে
##oy
দরভাগয
হাউ
##জেন
ফরহাদ
পরসতাবে
যাচছিলেন
গলিটজকে
অংশগরহণে
বেকার
তলনা
টারমিন
বটে
৯৩
উপযোগী
বিশববযাপী
বিদযৎকেনদর
পরেসকলাবে
মযানেজার
এলো
একজনের
##িযেছেন
##দেব
পরাধান
জঙগিদের
দজনকে
সাববির
বানা
ভঙগ
৯টার
##জরি
গণশিকষা
সিকিউ
জোরালো
মসজিদে
হরাস
পালটে
জবাবদি
sent
ডেই
ধনী
রোকে
লালন
িনব
অপারেটর
বিডিনিউজটযেনটিফোরডটকম
le
ঈশবর
দটির
পরোযানা
জাসদ
##িনিউ
তােদর
উদবি
পরকাশযে
##আরসি
অসহায
অনত
হতযাকাণডে
ইনডাসটরি
সোহাগ
নৈর
পিকে
ধরণের
তলেছে
##ভবন
এনডি
চকতিতে
ছোটট
##ালার
##বিযার
মেধઘ
টরেড
নগদ
নিকষেপ
মিনার
##ওযেল
##সরা
##ঝি
##টরিক
রোনালদো
ডেস
আসরে
সহজে
অচ
না৷
ওযাই
আযোজক
পরষদের
বৈধতা
বিলপত
সিকিউরি
pass
নাসের
সপে
##চাত
সমপরসারণ
শাখ
গবেষণার
সমনবিত
অতীত
বরষের
উদবিগন
মেলে
সংসকারের
##all
অবলমবনে
আঙ
গী
অধিনায
অযাকাউন
কথার
সবপনের
তানভীর
উচিৎ
ডাল
ধো
##ীহ
খেলেছে
সিলেটে
১২০
##সথানে
শতকরা
চলাচ
মোকাবেলায
তেজগাও
অবৈধভাবে
নাযিকা
মিডফিল
দপতরে
বলেননি
পারলামেনট
উদযোকত
কডিগরাম
##ষার
##পাশে
অযাট
##চিতরয
সংশয
যথাকরমে
##াতায
নেব
কতজঞ
পারসপরিক
##জজা
চেযেছিলেন
যনতরপা
৯২
##বিধা
বযাহত
##োনেশ
ওযাশিংটন
অনিশচয
মকতিযোদধাদের
কোরটে
জরজ
আদেশের
অরধেক
কষটিযা
চালান
##সংখযক
বাহিনীকে
অভিভাবক
তললাশি
##ঘরের
বিহার
সংসার
##ারথী
আদিবাসী
সিঙগাপর
##তারা
##যেজ
##টেবল
মেম
আলমের
হালকা
মিউচযাল
জোন
##৪৫
ভারসাম
পাঠায
হাসানল
সহাযতার
##ভীবাজার
নেততবের
চাপাইন
মোকাবিল
ইনদোনেশ
পাতা
নিযকত
গারড
পরাধানয
গলো
মফ
##লিক
মোযা
আজও
উচচবিদযাল
ডিফেনডার
পরতার
কারবন
##েমর
উপাচারযের
সপরশ
সংসকতির
বিদরোহী
২য
শনাকত
সংশোধিত
কলো
##রাস
আলতা
ভারী
##ind
লাগাতে
সনতরাসীরা
জিজঞাস
মৌলভীবাজার
গরিব
##ানীতি
সমতা
উলটে
টেলিযোগাযোগ
##চালিত
নাইজের
আজিজল
ডেভেলপ
নড
বেঙগল
অসনত
রিপন
সদরের
খোকা
অভযত
সাইকেল
আগাম
সাকষাৎকার
চালর
পরকরিযার
পরারথীর
অনযানযের
বগডার
নজরলের
your
চেন
ডাকে
##চী
আরসেন
রাজযের
থাকতেন
অবনতি
কষেতরেও
##one
যৌকতিক
দপতরের
করিনি
বলক
পারমাণ
আইস
লোকের
পরীতি
মেকস
বিরতি
##োজাহ
নোযাখালী
উততেজনা
খারিজ
ফিন
সহকরমী
##ছাতর
##গোষঠ
ফেডারেশনের
তিসতা
এডিযে
##চছিলেন
##যানের
পরসিকিউ
##বেদনা
বালিকা
দমপতি
উৎসাহিত
পরতিদবনদবিতা
ওবামার
চাপাইনবাব
ঢো
হিসেবেই
ডিসেমবরের
সবিধ
দরশকের
অপরাধে
মাহববল
উদযোকতা
নেটওযারক
ফযস
সোসাই
কোটা
কোরিযার
পরদরশিত
বীরশরেষঠ
আচর
##ণি
হাসানের
রিটার
অযাসোসিযেশনের
মিডফিলডার
মেইল
##ভেদ
খলনার
অনষদের
বকষ
##৫৫
##যেম
##েসন
অযালবামের
জিমবাবযের
লেখো
রিপোরট
উঠছে
টরাইবযনালের
ঢকতে
ইলেকটরনিক
##কাজ
চিৎকার
মহাসমাবেশ
##েনদরে
গলিবিদধ
##নকে
করিযা
দিনটি
নামতে
সনতষট
পেশাদার
ভালোবাসার
সনতানদের
হিউ
উৎপাদনের
ডিএসইর
ঘোর
##িকপ
নযটি
পদতযাগের
কষযকষ
দেখলাম
জানায৴
লাগাতার
গবেষণায
অলআউট
বকস
৩টি
##বিধি
অননত
নামাজ
ধরিযে
##সথলে
একাডেমির
কমানোর
অবশেষে
ধরষণ
সভাপতির
কোরিযা
##ধারী
মাঝামা
##ীকরণ
আমল
##দাযে
পরভাষক
##১০
##কেত
তথযের
সৌনদরয
সৎ
শরটা
সমিথ
পরবীণ
উਤ
অনভতি
মোটেও
লিখতে
পরতিশ
হেলিকপ
আহমমেদ
আবাসন
তলেছেন
মযনা
পেনালটি
মোযাজজ
রাউনড
কেডে
আইনমনতরী
ছেলেমে
জানযারিতে
গরনথ
হযরানি
শিকদার
িবি
##বাগত
##সেস
##ment
নেপাল
গরত
##গলোও
রহমত
##হাটের
পরষের
করিকেটারদের
মশফিকর
##দষটি
আসর
কাশেম
উইলিযাম
পারমাণবিক
সটিভ
জনযে
নামার
সামগরিক
পরতযকষদরশী
নিরাপতত
##বেলা
নিকট
খণড
লাইভ
চাদা
নোমান
ইনিংসের
আরজেনটিনার
##োশ
##াজায
##াইলে
বেডা
বিকরয
একজনকে
মিশর
ভাবমরতি
coun
ফটক
##োড
##োলা
বললে
আবততি
তৈরিতে
##ছনদের
##ফামার
##খানি
##যারের
জমে
ডেন
পিতা
নিষঠ
পাঠক
একেক
সহিংসতায
গোপালগঞজ
ফিউ
##যাযের
বনধদের
দৈর
শিরোনামে
পরদানের
আমরাও
চাইছে
বিসময
বিপরযয
##গলের
পরগতি
##াযান
সমবেদনা
নিরসনে
বলেটিন
ওএসডি
10
ৌ
তােক
বনধতব
যগে
##াইযা
পরতিহত
কারযনির
##সথানের
লেখাপ
পরসতাবের
পরাইম
সিইসি
তলা
রচিত
##পদের
##ial
নীলফামার
খোল
৬০০
অসথি
ঘরোযা
থরিডি
দেশটিতে
অতীতের
##রোর
দরপতর
##গলোয
দের
বউ
হিট
সেভাবে
বেক
োগઝ
সমরথকরা
বনাম
কনসারট
তীর
এনজিও
বাসতবতা
সটেট
শাব
আসবেন
মারচে
টরেনে
খানিক
একাডেমী
কারযনিরবাহী
##du
নামা
##পাঠ
##ere
সিএনজি
পযারিস
##েও
অনষঠেয
##owing
সাজেদা
চমক
টের
##িযেছে
১২টায
১৫টি
আরোহী
বাদল
সচেতনতা
br
বিটি
আরবি
হতেই
মাধযমেই
গহীত
টেলিভিশনে
উতথাপন
ডিম
মারকেট
পরদরশনীর
সমরণে
উইনডোজ
bang
গন
৮টা
অনভব
কষতিকর
জনপরতিনি
সোজা
##বারগ
কাছেই
নেইমার
ডিসি
জিজঞেস
##হিক
অনেকগলো
শামসর
করণীয
মোযাজজেম
স੬
##গি
শরীরে
পলিশি
##দেক
করমকাণডে
কলযাণে
এজে
মলযসফ
ভোটারদের
stud
মযাজিসট
##ভাজন
দরভোগ
পেছনের
রল
সাখা
##দিবস
##বানধব
##জীবী
সিংযের
পরিতযকত
##ভিযে
##তক
সিদধ
##esh
শিরীন
ছিটমহল
মিযানমারের
দেশটি
অভিনন
পথিবীতে
তালিকাভকত
বিশলেষ
বারসেলোনা
##গড
সংকটের
set
পাঠাতে
সরবনি
ছাডতে
##জযী
##টেইনার
সথিতিশীল
অমিত
##ভিনিউ
ফৌ
##oug
রবিউল
bec
কাক
২টি
একদম
লিড
পরিণতি
ফসল
সઃ
##িকেশন
নিযেছিল
টেলিফোনে
হলদ
অলরা
পাইল
বযাল
ইসম
মনসর
##ast
দিচছি
খেলাধ
নিজেও
##ছন৷
read
ইসরাযেল
আলতাফ
##বযবহার
চালকের
বারের
লাগানো
টরনামেনটের
মনদির
বিআর
অননয
দিনই
কনটেইনার
ইফতে
সবাগতিকদের
বলিউডের
এসএনএল
##তরিক
সরদার
পরিযা
থাকি
পরাণহ
জরিপে
ফাসি
কলকাতায
টেকনো
জালাল
িনবગা
অমান
##টিযেছে
আননদের
শিলপীদের
অকস
কডা
বট
লং
##fe
নিতয
কোরআন
কনফার
পলাশ
টিকিট
রেজিসটর
বরযাক
ঘটেনি
করতক
বসতে
this
কাইযম
make
খসর
নিবেদন
উদদীন
হতઘা
আবেদনে
অনপসথিত
সালাহউদদিন
পরহ
পলাজা
অসবা
বিভকত
পোডা
আরেফিন
নকশা
অমিতা
কমিউনিটি
পরজা
ভেঙগে
আনদোলনরত
ফিলিপ
বরিশালের
senten
বিকরে
সেনটারে
ছেলেকে
দঃখজনক
সাতকষীরা
mo
ইপি
##িৎ
২০টি
সংবাদপতরে
ধারাবাহিকতা
শাসনের
পরীকষারথীর
উডোজাহ
বদধিজীবী
af
ফতল
স¤
কমলা
বহততম
##এমএস
তখনকার
ফলাই
ভৌ
উপক
আমিও
হাজারের
পেছন
একাডেমীর
পারভেজ
হাইওযে
ওদিকে
##ভান
##পাডার
কলপনা
about
বোম
পরিমা
মিঠ
নিরবাচনকে
##other
তালেবান
##ডানোর
পলটন
##গেট
পেযেছিলেন
মোকাবিলা
মনিরল
হাওলাদ
ফিট
বযবসথায
##ভারড
##শনয
বিমানের
৪টি
##টেল
##বারতা
আজকে
লেখালে
কমিশনকে
frien
মহাজো
##াতাদের
আগস
ইউকরে
পালনে
পাঠা
বযকতিতব
তলনামলক
##ary
পাঠিযেছে
countr
##যাব
বলন
নামক
পেযেছিল
জযপর
##ard
ফাউনডেশনের
ফলযা
ভরমণ
পরণযনের
শীরষসথান
আসামির
ওভারের
কাহিনী
পেশাজীবী
দেহ
যাতা
##ানেক
অরথনীতিতে
জিডি
অরজিত
হেলাল
দষটানত
##মহাদেশ
শাহবাগের
foll
লেন
##সলি
এটাও
আইনজীবীদের
লটপাট
অসথিতি
তিনিও
রাজপথে
মাননীয
আসামিরা
১৯৭২
রপতান
রোকেযা
##ধযকষ
পরিচালকের
সনতরাসের
who
ইইউ
##ডাম
জনা
কষতির
মিছিলে
পদকষেপের
পরতিনিধিতব
উদভাব
শিশরা
তরটি
হতাহ
এমএইচসি
রেশ
বিচারিক
এমপিও
ইঞজিনিযারস
জোগ
বেতার
রেখেই
উদদিনের
জটিলতা
ঘেরা
পদের
বললাম
ধারয
নীতিনির
পছনদের
রপি
বাডা
সংহতি
বহততর
জমিতে
জানাজা
##টিফ
বাবর
ভারসাময
কমাতে
ঝাপ
বকততায
পরশনপতর
আতমহতযা
জসিম
পরিষদে
অফিসের
ছাডপতর
তলায
পরেই
নিষপততি
টরাকটি
িনহত
মযাগাজিন
##ততির
##তেহার
চারজ
১৯৯১
##ঘাতী
ককসবাজারের
পিরোজ
অভিজিৎ
করেতা
সাকষী
লনডনের
জযেল
মমত
##লয
শহিদল
ইফতেখার
এহ
##ue
আইটি
আইডি
মহাকা
বাসতবাযিত
##ult
এতি
সকা
লোকজনের
চকরবরতী
##পস
##শীয
শিলপীরা
আনতঃ
ফৌজ
##ফরম
৯৪
সদসઘ
ফরোযার
দখলে
পৌছাতে
ইহ
জাকার
মোবার
সিনড
পরকাশে
পেলেন
##েনসি
অবহিত
ঘটতে
ইতালি
ডেভেলপমেনট
##সিকে
##ther
উপমহাদেশ
উদদীপ
বিরপ
মরাদ
পনরবহ
জিজঞাসাবাদের
ঈদে
দেশবাসীর
উইকেটের
রংপরের
দবনদব
এমনই
সমনবযে
ইশতেহার
মালেক
কাটার
ঘটবে
পাঠয
##ভৌ
করলেই
##ool
পাতায
cr
##ইনের
জনসম
ওইদিন
সপেন
বারতায
ফরাসি
মাইকরোসফট
অসবাভাবিক
એઐ
কাকে
সটডিও
অতিথিদের
মৌসমী
আইএসের
পরযাযকরমে
##lad
থাকছেন
লীগকে
নভেমবরে
উਤার
মানতে
আজিম
ঘণটায
বানদর
পেশার
শিকষিত
চেপে
সিংহ
সেনট
হযাম
##are
অসতরের
জনমত
##ech
একসচেঞজের
কেরেছ৷
নশ
সিসি
কষেতরেই
পযানেল
৩টায
হাশ
রপতানির
পেরেছি
শনেছি
উগর
কিস
##মেট
ডাকাত
ধারালো
রমজ
োমা
##চচার
##১৫
##রাতে
জামিনে
##মেনটের
##বিজঞ
আযকর
ভাঙা
মেধাবী
##ভঙগ
বাহাতি
দেওযান
নীতির
উদভিদ
নোট
রদ
৬টি
##ઍট
বসেন
হাইকমিশনার
তারিখে
মালযেশিযার
ফাউনডেশন
##পষট
একযোগে
দেখছি
বরখ
রোডের
ডিবি
বযাপারটা
##ace
মাকে
পারবো
##সথল
সমরথনে
জেতার
অলরাউনডার
দাপ
গোবিনদ
লেগ
খেলেছেন
কমিললার
##যাতরার
##ডাঙগা
আলোয
##ative
পঞচদশ
##ice
ইরাক
gre
মবিন
##উড
মেঘনা
শরিফ
নিলেন
অরথাযনে
##েইন
নারীকে
পিটি
ফেলেন
টরাকে
রেহানা
কোচিং
উদার
##াহিদ
চিফ
এটাকে
পিপল
সবাসথযমনতরী
সস
দেশবযাপী
দরগ
বরিট
চযানেলের
এখানকার
লড
সংগঠনটির
কযামপে
মাদরিদ
পরতিফলন
ভিন
##শੴ
পাঞজ
পারায
১৯০
পরতিষঠানগলো
সেনাপরধান
গডতে
##েযর
##ces
##ানীগঞজ
পরম
##ালয
##িলার
নিরমল
কলারক
##লিন
ধারাবাহিকতায
হব
##কযের
##িতক
অনরধব
সাইফর
কমারস
সবাগতিকরা
মী
##মতে
উদদী
সংসকরণ
সিদধানতে
মযাককাল
##ound
ঘরণিঝড
আলে
শিন
##নতরের
জেগে
পাহাডি
মোরশেদ
ভিযে
##৩৫
সমাধ
আফগানিসতানের
িদেয
tim
ছযে
চৌধরীকে
ইউনিটে
ind
বনদয
সবৈরা
আঘাতে
উডে
পিন
##ীতির
##ঙগিক
সটরি
##শিলপের
উচচারণ
সবজনদের
দত
এলকিউ
রাখবেন
মনসি
##াকিবের
লৎফর
োয
সংযোজন
মোনাজ
##এসসির
##হারল
সহযোগিতায
বিশেষজঞরা
টরনামেনটে
তাপমাতরা
সাখাওযাত
ad
ডায
সটল
সারবভৌ
নশংস
ঝা
##শিবির
বিজযের
চাকমা
সংগরহের
মনসীগঞজ
##তিষঠান
টরান
সারাদ
##পরিবহ
##াইকেলে
কারযকরমে
পরারথনা
মিশন
যনতরপাতি
একধরনের
নারীরা
বিদাযী
সেটাও
মাদারী
লডাইযের
কযারিযারের
২০২১
##ওভার
##সকের
##ঞচার
##াজির
দেশপরেম
##োলি
কিশোরগঞজ
মাঝামাঝি
sch
ঈদল
পারতেন
থাকত
রিপা
সবিধার
অসথিরতা
ঝিনাইদহ
টঙগী
যো
সকর
##ামেলা
সহয
একাংশ
গেট
সােথ
চিক
ভরত
##উক
##ks
##াহার
পলিশে
এলেন
সংশলিষটদের
পরতযকষদরশীরা
##হাত
##ধারা
##কটর
পরানত
সনাতক
জবানবনদি
নমনা
ভরাট
##ছার
##যেট
সাহিতযিক
সযামসাং
গরেপতারি
হেটে
মজিদ
ডাউন
শামসজজামান
দীরঘমেযা
বিকষবধ
দাডানোর
সরঞজাম
রীতিমতো
ঢাকা৴
##াবনদ
সোচচার
সাংসদের
খাগডা
জারির
অংশগরহণের
অহ
##পাযার
বযাক
দিবসে
আলাউদদিন
সোনালী
শীতল
পাইলট
kn
##াযতত
বরিগে
বরাবরই
শাখায
তখনো
শিকষায
বযার
লার
৬টা
নিলেও
dr
ওকে
জিরো
নিলাম
উননযনশীল
ভোলা
টেকসই
ইনিংসটি
life
চাদাবাজি
মযদানে
ছবিটির
উললেখয
জামাত
আতমবিশবাস
কপি
চপ
ইসমাইল
লস
৭টা
##বিকে
##তলায
োফ
অনমোদিত
টেকনোল
school
ফাহ
##হাজার
##বধি
চেহারা
দিই
১৯৯৯
বিরোধের
মাহমদর
##সংগীত
রবারট
লযাপ
##সচি
করক
বললেও
##ডিট
তিনজনকে
সেনানিবাসের
কলি
জনক
রোডে
সেকটর
রবীনদরনাথের
তৌফিক
ওখানে
##িচ
##গযে
##ামতের
নববই
ইঞজিন
গাইবানধা
অমিতাভ
সীত
##ফির
##੩ট
উঠেছিল
এমএইচবি
রোমানটিক
হামলাকার
টেই
তরিক
##ামটি
##যানো
আসছিল
জডিতদের
বনদরে
অরথনীতিবিদ
ইউনিভারসি
দৌডে
পরানতে
মঠোফোনে
টরাইবযনালে
নিউইযরক
col
##যজঞ
##der
##তোর
হযান
জিহাদ
##বনির
##ition
নারাযণগঞজে
জনসংযোগ
জযনাল
সও
##করণে
তাণড
বইটি
##েসট
গাওযা
মনিরজজামান
কেম
সপরি
বযবসার
ডরাই
হতাহত
সারবভৌম
##ভির
##খযার
##বহিরভত
রবিন
##ফাজজল
মইনল
পারশব
দরতব
বাসতবে
জাতিকে
বৈদয
পরাতিষঠান
পালা
আতমসমর
অমর
দদিন
##og
##ামি
কেলে
পডেছিল
ধরমঘট
পরবদধির
##ladesh
সীতাক
গযে
বিবাহ
পাঠযব
এখানেই
লালমনির
রઔ
মহরত
বিষযটিকে
এএস
জটিতে
জবদ
##িনিযে
বলছিলেন
কোষ
বিপদে
এটিই
জেতা
নিশচযতা
টেবিল
টিপাই
গবেষকেরা
থিযেটার
পদোননতি
পাঠযবই
ফরা
করস
চেযেছে
অধয
##বলের
ভরাময
অপহর
দিললির
সভয
সবসতি
আতি
৮০০
##so
সরবা
পরধানের
##সেবা
মলধন
উপলবধি
মিসবাহ
অপারেশন
ছর
##বসহ
মতদেহ
##বিরতি
বকতারা
বানানো
আকরমণাতমক
speech
কারাবনদ
##পিড
##ভাবিকভাবে
দকষি
রিচার
করপোরেট
পদধতির
বিবিসির
দেশবাসী
মামা
them
শাহিন
মজার
আনোযারল
যবদলের
ইঞচি
গতিতে
গিযাস
ভরে
মাজ
##পাতা
নবীন
চোরা
অধযাদেশ
নেতরকো
লযাপট
##রিন
নিরীকষা
সনদেহে
সাভারের
রণবীর
##দাদ
##িসমপদ
মেসির
পিপি
ভরসা
bangladesh
রিপাবলিক
ঘটাতে
দেশবাসীকে
##েখা
জানান৴
ছেলেদের
মোটামটি
vii
##নীল
সদসযকে
##মিং
শিকষারথীকে
মযাচেই
চোটের
সচল
##ীপ
##উফ
কমন
লিপত
ইযরক
বিশববযাংকের
রতন
বছরই
ভাগে
মারটিন
ডিভাই
দজনই
following
edu
উষণ
১টি
##পোষ
##চনদর
জেএসসি
নাগরিকের
মেহেদী
other
ডিন
##ামানের
##ভাষ
নেতব
গরম
কযেকবার
মধযবরতী
রমনা
শাহবাগে
রোজা
##শান
কামার
কমানো
অনিচছ
অপারেটিং
were
ঘটিযেছে
মছে
বাডার
পাডি
উপেজ
চিকিৎসকরা
বোনের
দজনে
রন
কারটন
ছাতরশিবির
##বহল
সচিবালযের
পরিশরম
রকমের
আলাম
শঙকা
সমবায
##কষট
কোচের
ঘটনাকে
ইতালির
some
##টোক
কাপে
বিষযেও
কতটক
সাকষাত
হজরত
বিভরানত
##ked
অনযরা
পরতিরোধে
##দিযা
##২টি
মোস
কিছর
পরতিষঠায
করতপকষকে
যতটা
বাধযবাধ
আধি
##মিনি
মানষদের
মেযেকে
সথিতিশীলতা
গানধী
নগরে
বযসের
##োলায
োশ
সমাজতানতরিক
মরতজা
কানতি
নিজামী
খেলোযাডরা
লাভের
হালিম
ওসমানী
নযাযয
ভেনয
গরযানড
গণহতযা
##সটাইল
inter
লেবার
সটেডিযামের
বিশববযাংক
ধীর
##কন
অনযদষটি
পাচছি
জোডা
সাজজাদ
খেলোযাডের
বিবেচিত
খেযাল
টরাফিক
শমসের
অনিযমের
পরতিশোধ
মংলা
লজজ
##পয
##ep
নিরীহ
রাহল
তরণের
অসতরোপ
ঘনটা
কিউএইচ
অযানডরযেড
খযাতি
##তরিম
আকাঙ
কদদস
মমতাজ
অঙক
বিচ
তারও
##বাচিত
সিটির
বযবহারকারী
বনানী
পચধান
বনদকয
টাইগার
নাশকত
ফরোযারড
বশ
হংক
সেগলোর
আশবসত
সালেহ
লেখেন
মঠোফোন
নিঃসনদে
টেনডলকার
মশি
কাজল
চেযারমযানের
বাবাকে
সাংসদদের
সইজার
আতিক
##মায
পারলেও
আহমদের
ডেমোকরেটিক
ছডা
নিরমম
ভটটা
ফখরদদীন
কিসের
ডো
ਊিল
হারড
রেফ
পরযোজয
পেরেছেন
শেরেবাংলা
ডেইলি
সঙক
বাতাস
হযেই
বযযের
বযতিকরম
অযাঞজ
সচকে
বিসফোরণের
হাওলাদার
রোম
সিক
৪টায
##নিবেশ
পডল
ছযজন
আটটার
##ઘাে
হতাহতের
good
##ke
চাইতে
মালামাল
কমেডি
তাজল
লঙঘ
পষঠপোষ
পারফরমযানস
মেশিন
সরবনিমন
নিবিড
##ভিচ
##জেড
কলাবে
তরসকের
লাইনে
নযাযবি
মযাজিসটরেট
##ালাম
বাউল
দেখায
বরজনের
হতઘ
পারলামেনটের
অপহরণের
কৈ
কবরে
##সচক
সংবাদের
সিএম
উদযাপ
দবিগণ
মোকাবেলা
##লত
##২৫
##াকারা
অধীন
##পারে
সকষমতা
গઝা
বেলায
মাইন
##ঙকিং
##াসতর
##সতক
কিংবদ
সশাসন
শবশর
চামডা
উপকলীয
##ডিশ
##থী
করাতে
পিটিযে
অগাস
দামে
আউযাল
এলেও
ঢেলে
##বিদের
কোতো
দেখলে
ফেরেন
মলযবোধ
পোসটার
পরাতিষঠানিক
গদ
পাকা
##৫টি
উপনযা
বরকত
সথাপিত
আকাশে
অনমোদনের
উম
৯টায
দরশন
অবকাশ
##ভাগে
সমমখ
সবাভাবিকভাবে
আতমার
কাগজপতর
আকরমণের
ভিজ
##পণয
পরভ
বযযে
অরপণ
অযানডার
সংগরামের
উদযানে
জহ
##એ੬
##রাগ
জনপদের
খবরের
এনআই
ফলাইট
এগলোর
গনত
তিত
##বাজি
বিগ
শরোত
নিজেরা
বসানো
##এফের
বরাদার
গজব
ইজতে
মোহামেডানের
লকষমীপর
##গোল
##১টি
শতাংশে
সটেশনের
আটকা
বাধাগরসত
কযাপটেন
অজয
##নাত
বলবে
নওযাজ
বচচ
বততি
##িকাকে
সরল
দেখানোর
বাসিনদ
বাণীতে
##পরিবহন
po
টরি
##দবী
##ਹর
##টিসট
লিভার
##সপষট
ইসরাযেলের
fl
##ফত
##ঞছ
রাউনডে
##শিযারি
বযাপারটি
পরতিদিনই
পরভাবিত
অনধকার
৮টায
##সৌ
বিজঞাপ
মাতভাষা
অদভত
পরতযয
নাঈম
wat
জখ
ਠઙ
##েনার
শরমা
অসবিধা
অনষঠানটি
শরেণিতে
সংশোধনীর
মসজিদের
said
নাছির
সেরে
##দন
##াদি
বাবদ
রাগ
পেট
বসিযে
বিষযটিও
বিনোদ
অধিবেশনের
how
১৮০
ফারসট
মৌসম
খলনায
ইঞজিনিযারিং
বিদরোহীদের
সরবসতরের
ভরামযমাণ
পরদেশের
##টিযার
জযো
কেরন৷
গঠনে
শাপ
##েছ
##বীয
##ণায
অকটোবরে
চাপের
দোষী
বণটন
সাঙগাকারা
অসনতোষ
অকার
পণড
রউফ
জনপদ
দেশেই
বিনিযোগকারীরা
রযাঙকিং
সেলিমা
সসপষট
##আরের
##੬ী
পরকতির
##গরন
পনটিং
সংঘটিত
লোকে
দরবযমলয
গেইম
মহাজোটের
ছরিকা
##োকতি
পরাজয
১৯৯০
মোকাবিলায
খাই
তাস
মগ
অবয
বনধর
মসকো
অপবযবহার
পরারথীরা
জিমমি
ধাচের
আযারলযানড
হশিযারি
##লাস
করানো
##পরবাহ
##লাতে
কোহ
বাসসট
##হতযার
মললিক
লেখকের
সটেশনে
আডডা
বীজ
অধিনাযকের
পরটোক
##বাদে
হাসিন
কেএমএস
সামাদ
খনিদের
মানি
দেখছে
করারও
##জঞা
সমালোচ
যবকের
ইমরল
নিঃসনদেহে
ac
নিম
বলবল
রাঙা
##ফোরড
সৈনিক
দীরঘদিনের
যতই
পৌছালে
গগলের
পীর
##পলে
পরণে
অনভ
##িকষণ
পরসপর
##বিতত
ঠিকাদার
অপরাধীদের
মেডিকযাল
##বযবসথার
time
am
অনশন
##কাহ
ইসির
মিষটি
##পাশের
মসতি
িবশੴ
আবাহনীর
নেপালের
বিআরটি
অবিশ
শচীন
##িন৷
##মানিক
##নতী
##গতভাবে
সঠিকভাবে
পাইনি
বারসেলোনার
রઘ
##মেক
সমযসীমা
বেআই
সমসযায
ফোনের
মতিঝিল
আমপাযার
বিনদ
##নিরভর
পাখির
আংশ
বাধার
সিভিল
কলিক
১৪টি
বঙগবনধকে
যদধাপরাধী
বযবসাযিক
কমপলেকস
মেলবোর
ধানমনডি
কামরজজামান
উদধত
সানি
##জজনক
এসবের
##সমমত
বযাটসমযানরা
দমনে
##ডান
##ঙকষিত
##pp
তারেকের
##চছেদের
গেলাম
সমতিসৌ
ফযসাল
দবৈ
##ভোজ
##পতিকে
বসতি
১৩টি
##সাধারণ
vi
ফেরা
##ডক
সমসত
আইযব
২৫০
বরধিত
will
টায
আমলা
সরের
##জনিত
দাযরা
##েনটাল
সারটিফ
বযবহারে
উৎপাদিত
সতীর
ঢে
হিজ
##থানের
দলিল
কমল
জিএসপি
বঝি
বরাহমণবাডিযা
ঝাল
দষণের
##হযাম
##াতত
আগনের
পরাচীন
বাণী
lo
৪টা
৮টি
ফিলডিং
আমনতরণে
had
ধন
##ৈন
##েনসের
অনপরের
বরো
এরপরই
বিতরকের
খাদে
দৈন
গযালার
পাউ
লেনদেনে
ফলাফলের
##উই
এসবি
পলাস
##েমধযে
১৪৪
মাঝেমধযে
শহীদদের
বযেট
মধযপরাচ
রাঙামা
up
২টা
আশার
খানকে
অযাওযারড
বিপজজনক
সেপটেমবরে
সচকের
পরেসসচিব
ভবিষযত
পরশিকষণের
গোষঠীর
শিমল
রઘাব
did
অচল
আযে
##েণ
##রপ
##ভਭ
পাপ
##জজামানের
ঠিকমতো
হাতবদল
মহাপরিদরশক
দবীপ
পরোট
জানালা
পারা
মেতে
খালেক
রানার
অকটোবরের
বিকেএসপি
should
সটাডি
সঞজয
##গাহ
##বাদীদের
##তিকা
গণয
খেলেন
বঝিযে
মাহমদললাহ
খানিকটা
হিরো
বিটিভি
বঙগোপ
পতনের
নিঃশ
সারাদিন
ইমন
এজেনট
খোলার
ঝক
পজা
সনি
বযরোর
শিকষানীতি
কিবর
পডায
নমবরের
ভোটক
ভমিকার
অধিকারের
চতবর
##েদশ
তবও
আবিষকার
##ানট
মানা
ছাতরীদের
সাংবাদিকরা
মিলান
জেতে
ফিরেছেন
বেলাল
মিথযাচার
ডেকেছে
টেবিলে
ফানডের
বঙগোপসা
চডা
চনদন
বদি
সষ
োহা
##ইসি
আরট
তোমাকে
##irect
নৈরাজয
রনির
##ণন
##ia
##ied
##পরক
কোষা
২০৪
ঘটানো
বসনধ
চাপায
বিনামল
চলাচলের
ফাকা
লাক
##ib
##খিত
সিরাজগঞজের
সবীকারোকতি
শাসনাম
ইতিমধযেই
ফেইসবক
ever
জট
মাথার
অভিশ
থাকক
কমিশনে
##চরচা
এমআইআর
তাৎকষণিক
আতাউর
res
হিংস
িম
##খের
কাজটা
নযটার
উতথান
সাততার
ইযাসমিন
আইসিসির
আনেন
পৌছায
##ওযানা
টযাব
এশীয
##কতরা
##বরষের
সরেজ
কোট
হাইকোরটে
৭টার
##ফটের
বিশেষভাবে
চিনি
তাত
##বোম
নাইট
মাইকরোবাস
সরেজমিন
আবর
আকস
এআর
সরকারবিরোধী
গেজে
সামাল
অরজনে
দাযিতবপরাপত
সাহসী
##ঠামোর
রিজার
ডিপলো
ভিলিযার
know
ফাতে
##াসনের
সেদিকে
এবারই
রাজশাহীতে
ধানমণ
##ach
শযামল
জনাযেদ
##বিতে
##লোড
দেখবেন
কোরস
খাওযার
ফিচার
অভিজঞতার
ভকতদের
বিআইডবলিউ
fe
##চরের
সংকেত
করমীর
লাউ
ফরনট
বইযে
খনিজ
গৌতম
হদযে
মেমোর
ইযে
উনার
রপর
##এসের
বসনত
বাণিজযের
##করমীরা
তম
##চেল
##ip
##২২
গরপে
##কষেপে
অসবস
এখনকার
পরাণের
পরতিনিধিদল
১৬টি
দৈরঘয
লোভ
শী
##ચা
সবাদ
চাইছেন
ওযাট
অসথিতিশীল
রপতানিকার
অযোগয
ভিসা
রপক
কোসট
মানবস
সথির
আশায
চারটার
কলাসে
রোববারের
কবিতায
পযাকে
এফবিসিসিআই
ag
ভদর
##োতে
নিবেদ
বাশ
পরতিহ
আসত
নিযনতরিত
তাপস
কানাডা
সমারকলিপি
হারাতে
সকটলযানডের
মোবারক
অঙকের
মৈ
একটাই
পাডা
কমিটিকে
বনধন
টিউ
এনটার
অধিকাংশই
এনবিআর
country
##ৈরয
পরদার
দইজন
গানগলো
জোহ
পাসপোরট
মাইক
##তলী
মণডল
লেখাপডা
তীরে
নিন
৪টার
##সথা
##ষকত
পরভাবে
সরকষা
উইল
পিটার
বসা
আফজাল
ষডযনতরের
জামালপর
নৈশ
বিআইডবলিউটি
শযা
সনে
িবে
##েটর
##au
##োরে
যাবত
##িমন
সপেশ
জামিনের
উঠল
than
নেতরীকে
ফেসবকে
মেযেরা
নবাব
৩টা
বলাকা
রাজার
বিরল
সেনসর
মনতরীদের
বিজঞানী
সিদদিকীর
বনদি
জালিযা
শাহাদাত
উদযোকতাদের
বরখাসত
##সবর
গযেশবর
কানে
##সেল
নাগ
লিওন
অপপরচার
##সমপনন
আকরষণীয
উচচবিদযালয
রেফারি
সাতজন
রাযহান
চিকিৎসকদের
পোষণ
অপরাধী
কানাডার
বৈদযতিক
##তী
সমবেত
এসএইচ
##বাসথয
গঠনত
বযাটিংযে
গযালারি
হিউমযান
বিশবস
বোলড
বিসফোরণে
সমগর
আসলাম
দিবসটি
গারমেনটস
আখযা
##iz
রাশে
পরযটক
##হাতে
মনজর
##ঞচলীয
সাপতা
##ning
বিএম
আমীন
##নিতে
##িযাকে
জিযাউদদিন
দশচিন
টিউন
খাবারের
##ich
মকতিযোদধার
##েনডেনট
মানেই
পারলামেনটে
মোডক
তিসতার
ডাযের
৭টি
##দৈর
##ংকা
##৮টি
##াইটের
##ভােব
রোমা
উপাযে
খালাস
এযারলাইন
করেতাদের
part
খযাত
##সিস
তারকার
##যানডার
বযবহারকারীদের
ওযেব
১৯৯৭
ছিটকে
আমদানির
টম
##রকম
##িਡઙ
সেਔ
সিআর
উদবে
##াহিত
পরকাশক
সিদদিকর
মলতবি
ছোডা
উডোজাহাজ
if
হির
৭০০
আহমেদকে
পরচারের
সনদেহভাজন
many
মফতি
এদেশের
গপত
ডট
##দিল
আইপ
হাফ
দকষিণা
ছোটদের
সারটিফিকেট
কালি
সিম
দাফন
২১০
পৌরসভা
পরবাহিত
গটিযে
পারকে
বেডাতে
আশে
বিচারপতির
সততা
কযামেরন
টরাসটের
অলিমপিক
চেষটায
ঝরে
##ডনের
##তাদের
উদবদধ
##পাশা
আননদে
সংগঠনটি
নিরভরশীল
মানিকগঞজ
পরথমারধে
সপেশাল
mu
উজ
ঊর
ছড
আসছিলেন
##পাতের
মজাহিদ
জাতিসংঘে
ইয
ছতর
মজা
শিকষাপরতিষঠান
সৌজনয
এফএফ
হেফাজতের
ইদর
বনে
পরকলপটি
পরিকলপিত
পনরবাসন
দখলের
আলোকচিতর
অজানা
ধৈরয
##ঠিত
##োপযোগী
কাটাতে
দরবলতা
ইউকরেনের
write
খোর
খরি
পযাট
##কনযা
##তরি
##লেস
কোকোর
##গরের
##াহিতয
জনগোষঠীর
বেআইনি
অমী
ফটিযে
ধরষণের
হতযাকারীদের
১৩০
লাশের
সাঈদীর
আেগ
লগন
কারচ
ঢাকাগামী
যায৷
ছযটা
জনসভার
ভবিষযতের
বিদরোহের
বেগমের
অটোরিকশার
সতীরথ
সਠ
পরণের
বিবরত
কোনদ
পরিহার
মানস
ভাবা
ইউএস
পথের
বিজঞানের
##ঙখল
বিপরযযের
টিকেট
দতাবাসের
পটযাখালী
##থিল
##িশা
দেশগলোতে
ছাতররা
শিকষাপরতিষঠ
সটাইল
ডেটা
ভাঙার
দাযেরের
ইটভা
অটিজ
তির
##ভাল
আমজাদ
বহৎ
টরফি
ফিরতি
পঞচা
##জোটের
জনপরতিনিধি
অযার
জেরে
৩টার
##ber
##ওযালা
##ীযমান
বযাগ
বিএনপ
পরিচছন
সমপরদায
এগার
শিখে
words
also
আংশিক
সাকিবের
##াকাল
পরসার
সালমানের
শোনার
##ধারার
১৯৯২
যথারথ
ভালবাস
চেলসি
ঘটা
ফিক
জনশকতি
রহমানসহ
পরতিনিযত
নিযনতরণের
ফিফা
পৌছেছে
জখম
টেম
টহল
পী
##সঙগ
হযত
হযরত
এরমধযে
আইনটি
গানটির
জযাবরধ
ভিযেতন
বসনধরা
তই
মিনট
##ঙকে
বযথা
কথাটা
মালদবী
উপসচিব
জাপানি
সাভারে
টিভিতে
হশিযার
##ie
##তিযার
##াকরম
##নোর
গেছি
মারে
কালিযা
মেরামত
সপেস
তরিকল
মভ
নিট
আইএম
পলযান
আলীকে
অগণ
##ise
ভাসকর
গোলাপ
গলোবাল
িবিভਭ
অনিচছক
out
চনদ
##াতারা
জিডিপি
মালি
লেফ
আলাদাভাবে
যকতরাজযে
ইরা
এপরি
কতি
ডার
নরথ
শাল
##মতা
##খণড
##বাং
বাংল
বিশঙখলা
##াপাের
##ings
বাংলাদেশিদের
অঙগনে
এসএনডি
সজাগ
পরজাতির
সবদেশ
হিসেবেও
পোশাকের
ধবংসের
আশপাশে
ভিকটোর
রমজানের
কઓ
গনধ
মসত
হকি
##৭টি
##xt
বাট
##করমীদের
গরাহকদের
নওগা
সকটলযানড
সমমখীন
চেষটার
কোকো
সাংবাদিকতা
সচিবের
বিদযত
তরসক
দিকের
বোঝাতে
হযাট
বিশেষজঞদের
হেফাজত
লকিযে
অমীমাংস
ডেল
থর
মাজার
লিযা
##হাই
##গযের
##ગর
জনসন
করমেই
বনদী
ইনডিযান
লেফটেন
এভার
জটির
থার
##পাস
গতকালের
##বিরোধ
##ভিউ
শিশকে
শাডি
সনাত
সরবরাহের
জবাযের
বহনকারী
চাপাইনবাবগঞজ
উস
ফাট
গরতবের
##খানায
##ide
অধিকতর
ডরে
৭টায
##বাগের
কারযদিবস
শিলপমনতরী
গণপরত
কোতোযালি
##পরিকলপ
সমমতি
মধযম
বযাংককে
বিকষোভের
ধাত
লভ
##৪টি
পরাস
বিলে
১৮৫
মধযকার
মনতরণালযকে
রসাযন
ইসরাযেলি
জহরল
মযানড
করমা
##যাৎ
গতবারের
জীবিত
শধই
অনতরবরতী
যশোরের
সংখযার
আচরণের
তষার
ফাল
ভত
সনীল
সমযও
হারান
দিকেই
##সংকরানত
ঘরবাডি
শবদটি
জগতে
টাঙগাইলের
কইন
পরথা
জানালে
##জিট
সমাজকলযাণ
খোজে
চাহিদার
সাপতাহিক
ভোটা
আতমঘাতী
আরেকটা
মহাসচিবের
বরাহমণবাডি
ধোনি
ডিপলোমা
লী
বলেছিল
কাবয
এটিএম
ওযাহিদ
জামিল
নভেমবরের
মানববনধনে
ফেবরযারিতে
রিপাবলিকান
ঐকম
কতরিম
রখে
##ভঙগি
ভাগা
সামি
সেনটিমি
শরমিকরা
পরসকারের
মসলমানদের
দবিতীযারধে
বিদযা
বাদে
পরেসিডেনটের
নযাদিল
অগরসর
বઘাপাের
ঐতিহযবাহী
অচলা
কতজঞতা
যগের
##কষী
##লাভ
##যানি
বরযানড
আবদিন
##পাতে
মজিবল
সেলিনা
বনদক
জনসংখযার
##রন
##fer
মাসম
গাডিটি
একাধিকবার
পিপলস
আধিপতয
বিনামলযে
##দৈরঘয
##ীকার
##দণড
##te
##ানীর
বাশি
নিরদ
কাধে
গরীষ
গণগত
লিবার
##কালাপ
টরযা
ওপরের
বিদাযের
ইউনিযনে
শোযে
##বদধতা
মেটরিক
পরজঞাপন
লইস
##পরায
মযাকস
##ree
মাতরায
কযাটর
##বিদয
বাকস
পরবেশের
অকসি
ফলাইওভার
লযাপটপ
এপরিলে
ঋত
বোস
##টিউ
##বাণ
তারকালাপ
মোটেই
দরের
চেযেছি
ওযারডের
উপলকষ
পরেমিক
উদবেগের
আভাস
োদেশ
##সেজ
##ধরী
নাটকটিতে
শিকষককে
অবসথানরত
বরাদদের
জিলযানডের
শিরোনামের
এবিএম
রিটারনিং
সেনটিমিটার
চডে
জযাম
##েগর
##চডে
##কণঠ
বরবর
ধারাবাহিকভাবে
১৯৭৪
কেরানীগঞজ
আশঙকাজনক
খেলাধলা
sentences
ইউনিভারসিটির
উভ
খিল
##বকের
কারওযান
দেখবে
মনজ
মোহন
পতল
গরতবার
মহাকাশ
বনদযোপাধযায
ডন
##দোর
বিপনন
পলল
##পাড
পিঠ
বঙগভবনে
গাডিবহ
পরাপয
অযাকাউনট
তারিক
বারী
পিটারস
সতরপাত
মহানগরের
কষিমনতরী
নজরদারি
ইতোমধযেই
চেতনায
ইযান
১ঌ
##ানতে
উপকরণ
নিজেরাই
##জীবনে
বসেছে
১৯৯৮
রিযাদ
questions
নযাযবিচার
##চীর
পলাসট
##তমক
চিং
##ামানয
##মারী
বনযার
কেরি
গাজীপরে
বোঝায
world
অনপসথিতিতে
মযানেজমেনট
bl
ওজন
কটি
৬টার
##পরবে
পারট
উপাতত
##বলী
রাখছে
পিট
নবাযন
মযাককালাম
লেফটেনযানট
ছেল
সিকদার
##লবার
বডযা
গাইতে
শেরপর
ফৌজদারি
উপেজলার
অবিশবাস
গরতবারোপ
গাযক
রট
৩০টি
অরথমনতরীর
আনডার
পেশায
হেলথ
বাযার
##লাল
সাযেনস
রোহি
##োদিত
শীরষসথানীয
খানেক
নকল
োল
আমলের
মোকার
এলএইচ
ভিউজ
১৯৭৩
টপটেন
করণফল
কষেপণ
নীতিমালার
শাপলা
লভযাংশ
ছিনিযে
৫টার
##ઔে
কেক
##পারট
বযবসথাপন
রানী
১৬০
মসা
চানদ
এএফপির
গৌরব
অযে
ছনদ
বতত
##মপনন
##ফেল
##থગ
মহসিন
##াইকেলের
##ans
##জীবন
শরমিকেরা
নানাভাবে
পরশাসকের
নৌপরিবহন
অগরগতির
##aka
যাবজজ
যাতাযাত
ফলোর
সলো
##সঙগী
##ষটক
১১০
পরতিবনধকতা
যথাযথভাবে
more
পরাজযের
হযেও
তাদেরও
গেইল
সমমত
মখের
##ভবনের
১৭টি
বিসতত
আফরি
মযমনসিংহের
সোহরাব
সবচছতা
ঢেউ
ভাত
রোল
##ful
অনઘ
অতিথ
মমিনল
কযার
ককর
##ild
##৩টি
করততব
##কষের
আসরের
##নতার
দেখান
দিলাম
দিলীপ
শরীলঙক
যথাস
দেখিযেছে
ডাকাতি
মাগরা
ছরি
যবর
আইও
এমনটা
সমপাদকের
##াতেই
সটযার
উপদেষট
দবিধা
আননদিত
শোনাবার
বইমেলা
হেম
##੧ছ
পরহর
বাগান
##কতিকে
##োকো
সবাধীনত
##বযবসথাপক
কষযকষতি
ঐকযের
খাম
গালি
ঠাক
##ডল
##ধবে
##পরদ
তাদেরই
সতরীকে
ভযংকর
বিসিবির
শানতিপরণভাবে
পাওনা
দবাই
লিজ
চেযেছিল
করতাম
ডলারে
পরিবারে
ডিএসইএকস
ঐকযজোটের
বলিউড
নইলে
পিকআপ
পরফ
##ঙগাল
##বাসীরা
তিনটার
পরকটর
যাননি
ফেলবে
দেখিযেছেন
কযানটন
বিধিমালা
টারমিনাল
কালে
##king
লোকমান
মিরসর
ভাগই
খলিল
বচচন
কড
গতির
বিঘন
##িশর
শরট
বাদশা
পরতিবেদনটি
জবর
ঝকির
ফাসট
তিনবার
##আইপি
সাইবার
সভানেতরীর
দিতেন
সতযিকারের
মলযসফীতি
মশিউর
কীর
গায
সলি
৫টা
পরদা
করনার
একাই
##ডিযান
উততরের
সারি
গোলড
হবিগঞজ
ভাগাভাগ
ছেলেরা
সদের
পরচছ
মাহাব
লেবান
বিলটি
অপসারণের
আকরমণে
খোদ
ফাদে
মটর
##যিং
##তিকে
পরজাত
কােছ
আসায
রাজযে
তিনজনের
শাহেদ
১৭০
পতিন
রাজনীতিবিদদের
অতযাচার
সিনডিকেট
বেলার
রযাম
বেপর
নামাজের
ওপরই
গিযেছিলাম
োগ
জোরে
##বাজারের
জাসদের
eng
পরদতত
##াবের
জনসাধারণ
লাফ
তলিযে
শরেণীতে
দাডানো
ফজলর
জবলে
সাহেবের
টিভির
দরভাগযজনক
great
12
বনের
হট
আরবের
বরড
বেঞচে
ইসট
আবশয
আজহার
পেলাম
##ঞছিত
imp
ইউজ
কও
চোপ
লজজা
##হাম
পরথমত
মাসেই
উদবোধনের
শামিল
চাদপরের
পাঠযপ
রিচারড
এনা
এডিপি
দধ
বাি
আসলেই
উততরটি
পডেনি
ফাইনালের
চরিতরটি
মঞজরি
গঞজের
সানা
িস
##উটি
##ামপ
##করমের
দলাল
##িমলক
পরেও
আজীবন
মনোযার
##ally
বযাটসমযানের
টেকসটাইল
সমনবযক
পাবনার
জবাই
জহিরল
বেপরোযা
পযার
inf
গলপে
বিসফোরক
বকসের
মানসিকতা
োনতা
চকলেট
##যদধের
নিষঠর
##জী
##েশবর
আলাল
সালমা
কযাটা
জবালিযে
ফিফ
পরথমেই
হাটতে
##োপাধযাযের
passage
পিরোজপর
কশল
শয
##ডিসি
##ফতার
সমপততির
আসামী
আঘাতের
ফলাফলে
সাহিতযের
ছট
##ঞার
##ious
পাের
বিদেশের
সংসথাটি
বরাদারস
দোকানের
বানাতে
দীরঘমেযাদি
##iver
##মেই
##লামা
নেওযায
১৭৫
পরিকলপিতভাবে
গণতনতরকে
সাকষাতের
কাগজে
ধানমনডির
এমনিতেই
নেদারলযানডস
অনপরাণ
রােত
নিজাম
সদসযপদ
হযালো
কযটি
মাহফজ
কনসটেবল
হেব৷
বাধযবাধকতা
কালিযাক
পষটি
যাদ
রটে
##ঙগনে
সেস
মাহফিল
োভা
দিললিতে
পরতিপকষকে
পেশাগত
ছেলেমেযে
যাবজজীবন
উচছেদ
##পালা
##লতা
সিমেনট
সমযসচি
কযাডেট
ভাবছেন
দরনীতিবাজ
মলযবান
রকতের
বাযতল
মেকসিকো
সোসাইটি
দালাল
সখী
##বানের
##ানবিত
ধরমনির
রাষটরপকষের
শিথিল
১৬৪
সংগঠনগলোর
ভাঙন
বিচছিননতা
every
food
আঙগ
োরা
##হাল
বিলের
##নেক
##নাশ
বৈচিতরয
দিবাগত
সনতরাসবাদ
বেলজ
সেকেনড
মামনর
মৌসমের
বরগনা
পরযবেকষক
ঢোকার
হেলিকপটার
গাল
##মিতা
##োরা
টিএসসি
ধরেছেন
মখার
তথযচিতর
জিলযানড
সপিকারের
নীলফামারী
লালমনিরহাট
pre
##oc
মাওযা
মারশাল
মখোশ
বারান
জানাবেন
ভিততিক
সংসথাপন
ইকোন
ভাষণের
করমসংসথানের
পনঃপরচার
class
সরবাতমক
পারার
বাসভবন
##সেরা
সোভিযে
##end
ফারনান
রোগী
বাচিযে
বিজিবির
আযারলযানডের
রিপোরটারস
কারাবনদি
ঝগডা
ঠান
ফাকি
##av
##৯টি
##ীবিত
এলবিড
পরিবেশনা
আশাবাদ
চাচা
যবদল
পাহাডের
সোনারগাও
পরগতিশীল
দষিত
পিসত
সেকষেতরে
##দসয
নানক
##app
ইনদিরা
যাবতীয
অঘট
ওম
মকল
##বাক
##lish
মাংস
সরকারই
বেবী
লোকদের
চিনতার
নিরধারণের
অসটরেলিযান
সবকিছই
জাদঘর
কযে
কিক
গোস
মরিযা
যতো
##িਣ
##৬টি
অনমান
কোল
কাণড
করতেও
জাগর
মাঝখানে
১৯৯৫
খালিদ
ভটান
বাচচা
করাইম
সংগঠক
রপরেখা
বઘা
##খবর
দেবী
নাটকীয
োগে
কনভেন
আলামত
অযানডারসন
রিজারভ
mar
চাকা
সয
##াবি
পরদীপ
একদলীয
পারতাম
পরসপরের
সারচ
মযাচটা
মধযাহন
use
উসক
জবল
ভোজ
##el
##পরস
বাচা
দইটি
আশির
উনম
বিশেষত
বিশবাসযোগয
পরষদ
##ays
ধরমনিরপেকষ
##মবন
##মমত
##বিশিষট
পরসততির
##দিষটক
ঠিকানায
##গারের
সংগঠনগলো
সনাকত
##alth
পরেসকলাব
করমশালায
ইংরেজিতে
হোল
##রগ
মারতে
খেলছে
বযবসথাপনার
পানিসমপদ
খনন
রেলওযের
জিতেছেন
ওযেবসাইটের
দতাবাস
টইটার
সাতকষীর
মালিকানাধীন
when
after
অডিও
গডিযে
দরা
##মিল
দেখন
নাটকটির
লেখায
##লাহী
ততী
রকতকষ
দমকল
তানজ
par
গের
রেম
##চিহন
২০৩
পিএসসি
##োপলি
জনমগরহণ
##বনদী
রকতাকত
rep
যাতরীরা
নরসিংদীর
পরিদরশনে
অটিজম
টযেনটি
##ঘণ
##রাত
বহল
যোগদান
পদম
বিলবোরড
রেলপথ
অযালবামটি
সবসমযই
চৈ
##mail
##তান
গতবছর
থাকাকালে
##বযকতি
##টিতেই
আরেকজন
আডালে
চিঠির
টিপাইমখ
এমইউ
গলির
সংঘাতের
ঝাপিযে
অকারযকর
ভযাল
রই
সরবাধ
পাগল
সবভাব
দাগ
বাসভবনে
হেযেছ
চযানেলে
লাভবান
সমভাবনার
অভিভাবকদের
ইযরকে
নেতবনদ
গঞজন
রেফার
##orm
##ory
##acher
আনিসর
বিমানবনদরের
ভরতকি
আকসমিক
দেলর
##িতির
##যাতরী
##টিপি
বাউনডার
পরোকষ
##সমহ
গাইড
সচিবালয
পরতিহিংস
িজ
১টার
##হো
##বনে
##রাজ
##ামনতরী
##োগরাফ
সাপে
পারভ
সথপতি
জিযাউল
##তোষ
খাতা
বিশবাসী
পরদরশনীতে
ককষের
শোনান
খজতে
আদৌ
শরীয
বরেনড
##ীকষার
ডিএম
সিনেট
পরশনবিদধ
যখনই
অধিকারী
ফেলেছেন
একাডেমিক
বযকতিগতভাবে
ওপেনার
শরোতাদের
গঠনতনতর
ফিজ
##qu
ওপরও
বাংলােদশ
##বরতনে
মৌখ
তেব
চাকরিতে
ইযাজ
exp
মরে
##ীনের
##মখে
##িলো
##বাডির
মতের
হাড
##লিখিত
মারার
সোমবারের
২২০
পরিকলপনায
ডাবল
মাছের
কযামপাসের
হোটেলের
বিকাশের
পরতিদবনদবিতায
ভটটাচারয
কতো
ডির
নবনির
##াকথন
##বারথ
হবেই
মেই
কোনোভাবে
ঘটায
মাসিক
শাওন
হাবিবল
সেকেন
পরিনস
ধসের
বাউ
পারতো
মোফাজজল
রানারস
##গারে
ফটবলে
তরফ
পাকিসতানকে
ফেডারেল
গোপালগঞজের
মেলেনি
সঙগীতানষঠান
বিভরানতি
আদাযে
কাসট
হাদ
##বঞচিত
বলতেন
মহলের
ছাতরছাতর
জীববৈ
উচচতর
এতদিন
##পালটি
পরযোজনীযতা
সংবাদমাধযম
##রাবততি
কমગকত
তারকাকথন
fill
##জগ
সাশর
##লোক
থাকব
আবদ
##বদઘ
লাশটি
মালিকের
এসএমএস
বষটিতে
কৌত
আচ
পরবাসীদের
পাশেই
১৪০
পনরাবততি
সচিতরা
দাডাবে
সপরিবারে
টিন
##হম
##দগধ
বিএফ
##কষার
উপনিরবাচ
চারকলা
##পেক
অপহত
আফরোজ
জরিপের
পরামরশক
করমচারীরা
does
বরিটেনের
আকারের
ডিক
দাল
দোস
##বઘ
##কাতর
আবহ
পনরদধার
comm
আমেরিকায
১৯৪৭
লঙঘনের
dh
বযানডের
হস
##ডেনের
রাজউক
মখর
মনসী
বাদি
োপચ
সংগঠিত
উদধতি
সোভিযেত
mother
আছ
শদধ
সসম
িবর
িতন
##ঘি
##বারই
##কষক
##দরোগ
##লিযার
কাময
হেসে
হারিযেছেন
পরিচযপতর
আমিরাত
সিপিবি
কেযার
সৈকত
সফলতা
অগরণী
##ঠামোগ
পালটাপালটি
পারফরম
ফেবরযারির
টেলিক
অভিমত
বেকসিম
৬টায
##গতিতে
সিপ
সবারই
োচ
সংসথাটির
teacher
আতমসমরপণ
গেজেট
অনপরাণিত
ঘাতক
বকর
লবণ
শঙক
##ষটা
বলগ
পরতিমনতরীর
সরকারও
সমযমতো
বরিস
বিষযটা
দাবিও
চাপিযে
মাঝারি
উৎপাদনে
বগি
দেডটার
ইযাহ
ঘাটে
নানান
শিলপে
রিসার
অনপরেরণা
ধোযা
ফাক
হদরোগ
##করি
আরাম
##পনথি
অসটরেলিযায
##বাডিতে
মিসরের
ইনটারনেটে
টাওযার
ঘমিযে
রেজিসটরার
জাজ
ঝর
পিত
##ামকত
আসক
মহী
মহেশ
বাসত
জিএম
##গাওযে
পরচারণার
জেএম
বিনিযোগকারী
##হীনতা
আফসার
টেকনা
ভাসমান
যবককে
পরসঙগত
অনিশচিত
##শাসনের
পরামাণযচিতর
তরল
##৹র
##কীয
##ਉা
বিবেক
পরিপরণ
##arm
মিছিলের
সনামগঞজ
ফিলিসতিন
ফিউচার
পারভীন
তমল
##কলে
##েনসে
পেপার
দাতা
সোনিযা
জঙগিবাদের
পরতিবনধীদের
উপনযাসের
দীন
করতো
পারল
কথাটি
##িমির
অবએઐ
সেখানেও
ফেটে
বরিজ
রিযালের
টরেনটি
অসাং
হযরানির
রিমানডে
বাতাসে
ততীযাংশ
আধার
খাযের
##শকতির
##উজজ
##পিট
গরব
বিশবজডে
বরযাড
##ather
দেখেছে
তততবাবধানে
শানতিতে
রঙিন
লিওনেল
ইটিভি
##েড
##ডেড
##তবক
সংগীতের
মনতরীরা
##মরযা
হালনা
##নীতিকে
তহবিলের
পরাপতি
পাদ
##মলের
##ঢয
অনন
##রিং
সবজি
বিশরাম
কাভারড
সমযটা
কেজরি
নযসত
চলেছেন
এতটাই
বযাপকভাবে
কোষাধযকষ
সাপেকষে
ধানের
বোঝার
ইসযতে
એઐান
বরিগেডিযার
মেগ
সামগরী
মিসর
শাবনর
মাদারীপর
##িরি
##নেতরী
সরকা
কথাবারতা
বহিরভত
বিষযবসত
পরতগ
২০১৬
নজরে
মজত
কযেকজনকে
তাৎপরয
আশঙকায
নববইযের
টেইলর
ঝালকা
fam
এভিনিউ
ওটা
টঙগি
৯টি
##em
##ear
##টেইন
##সেব
সিনেমাটিতে
##ated
বিমানে
হেরেছে
োগઝਮ
নযান
##১৬
সেভাবেই
এলি
##লিটি
সেইসঙগে
##হাটে
এরপরও
ফরমাল
any
টেকনিক
ফেসবকের
অিভ
ফিলিসতিনি
দবৈত
শাসনামলে
পরিচছনন
লাহ
##কাম
##ઓন
ইউনেস
##বানী
হককে
লেভেল
too
থাইলযানড
##ough
িনবગাচন
বলবো
চাইবে
অপমান
তামিল
নিউইযরকে
জী
বকের
চারজনকে
আনমানিক
শহিদ
রাসেলের
বরষা
form
কাটাকা
দিনাজপরের
অবলমবন
পরতযেকের
আঙল
করণফলী
dhaka
now
অটো
একটার
বললেই
পরতিভা
আবির
##মনড
গোলডেন
##উনডের
সমসাময
উঠেছেন
কফি
দিযেও
আনদরে
লোড
সমঝোতায
মেঘের
পশচিমবঙগ
সংখযালঘদের
##ঠামোগত
সমসামযিক
উপরে
পাহার
কাও
এসএস
ঘণা
শবদে
সমাপতি
বহিঃ
বযবসথাপনায
##োপলিটন
কাত
শারট
##চায
পরিজন
##যাযী
এমনভাবে
টিএইচ
শতাবদ
বনয
বিমানটি
সফররত
আরিফল
তথাক
নিলয
##যাতরায
টইটারে
জঙগিরা
##টিসটিক
ph
ওজ
##পণের
জানালেও
ভাগের
অভিযোগপতরে
পরযাস
দরঘটন
২১৫
২১৪
খেলেছি
আওতা
ঘেরাও
ঠাকরের
তডি
##াতেন
দেযায
তিনটায
##কমার
সষঠভাবে
শিকষামলক
দশযমান
পনরবহালের
পঙগ
ফাসের
ভৈর
হাজী
##জানা
##যেই
তিনদিন
গণসং
জাহাজের
পদতযাগপতর
পরযোগের
অনিরদিষটক
আগসটের
জযপরহাট
##বিদযৎ
তথাকথিত
##টকা
নামবে
সরবতর
পরণীত
পোডানো
##চরয
পৌছানো
নিবনধিত
##মালিক
রেহাই
co
শীতের
##গরাফ
##ফাক
##tain
##তাডি
নাত
শিকষকেরা
কলাসিক
শধমাতর
দরশকরা
ডিজি
উচচার
জগতের
মদরার
টিআইবি
লরড
সরেজমিনে
কষেপণাসতর
এটিকে
##১২
##ry
##ানতরে
##কেদর
অনৈতিক
##িশে
ভরম
কযামপের
##গলোতেও
লাইনের
ধবংসাতমক
রাজজাকের
কবরসথানে
নাটোরের
সটযারট
চেনা
টাসক
ধাম
শেন
##যি
সাগরে
সেটে
কিংস
##চারজ
পলাজার
লাগার
তিনশ
বারসা
লাখো
মধযসথ
বযাংকগলোর
বোঝাই
##ution
আলোকিত
ঠাকরগাও
লেখালেখি
tw
ববি
ভান
##নতির
##রার
##ঘডি
##বারতায
নিরণয
বিশবাসের
##সথাযী
ফিরবেন
২৫টি
১৩৫
চিকিৎসকের
শতকে
বানানোর
মহাবযবসথাপক
জারসি
টাইবরে
##ংকরিয
আদিবাসীদের
সেমিফাইনাল
ফজিল
বিজিএমইএর
িক੫
বডিগ
book
জেস
ঠাই
নস
শভর
##বગ
নিচছি
##ফলক
বিপণন
পরতযাশিত
মজাহি
সাজঘরে
খরিষট
বেকসিমকো
অটিসটিক
তবক
মঙগ
##চনামলক
##ঘোষ
বলেছিলাম
##চিতে
কষকদের
২০৫
##ীবীদের
জািনে
মনতবযের
ডরামা
দষটিতে
করমশালা
সেলিবরে
ডাযেরি
##১৪
##কাটা
পরেকষিতে
##সেট
##ডারের
বধবারের
ভেতরের
পরণব
নৌবাহিনীর
বালয
বলিউডে
আতমবিশবাসী
##১৩
##ালায
অভযনতর
##চারে
বিচারকের
সপিন
উললিখিত
নেননি
সীমানতের
##ভোগী
গতিশীল
সিএসইতে
চেতনার
পিটিআই
পরটোকল
অতিথিরা
##ফফর
সমবলিত
জনবল
দেই
নিরসন
মোটা
পলট
##বযসত
কিছতেই
মাধযমের
##ভাবনা
রোবট
পরতিকার
##কষমতা
মহরতের
আবেদীন
ইনসটিটিউশন
অপরিহার
রোনালদোর
নেশ
##ডোর
##োকে
উপনেতা
শেখার
পরণোদ
মোহামমদপর
##সীম
আফরিকান
কাশমীর
সংরকষণের
সবজনরা
কযামেরার
কাফকা
উকতি
##যক
পাগ
মিট
লিংক
##যামার
##তমলক
hel
বিচারপতিদের
কারাগারের
বযাটালি
আডাইটার
নিরাপদে
##੯দચ
বানদরবান
মকতা
সেশন
আসছি
আসবাব
মেট
নামেন
১৫৩
দিতেই
ফলযাট
বাইরেও
পরশাসনকে
##act
মিসটার
পাঠিযেছেন
সেনটারের
কটনীতিকদের
সঞচয
মীমাংস
water
কোহলি
অপরিহারয
ছটিতে
বজল
সধ
কাচা
পিলে
দকষতার
উৎসরগ
##ouse
উদধারে
পনরগঠন
দৌড
দষটান
সবতঃ
অনিশচযতা
হবার
োর
##পরব
সংকর
##াপতি
অবসরে
অরাজ
ওযাক
মিরপরের
কোমপানিগলোর
রাইটস
নীতিনিরধার
dif
দনিযা
বকল
সংকল
উপার
কাঞচ
সাজিযে
নোটি
মডেলের
সাবিনা
আচরণবিধি
সবযংকরিয
সিদধির
পরাণহানি
এটির
ঐশবর
তলার
##হাস
##বনি
##ঋণ
করতা
##াকাটা
যেদিন
আইসিটি
চালিত
সেনটর
বাডিটি
সমযেই
ভালোবাসি
বাফফের
ঠেকিযে
মসতিষ
অচির
চমকে
মিম
শযে
শটে
করাটা
যেগলো
সহান
ইউটিউ
তলব
ইরাকের
গরহণে
পযગ
বৈশাখ
তাডাতাডি
বংশোদ
সিকিউরিটি
english
বরেনডন
সদরে
২টার
##ub
দলগলোকে
সিবি
পেস
পরশানত
তিনটা
মিলাদ
মহাসা
উচচতা
##মারক
মেযেটি
সেলস
সেলিমের
soc
বরিশালে
friend
মোনাজাত
শীতলকষ
সেলিবরেটি
গিল
পিস
পযারা
##া੪
১৮টি
দেযালে
কাছের
জেনি
করেছিলো
##oth
একাততর
কমপিউটারের
করিকেটাররা
অভযতথান
##গোষঠী
কবলিত
বখ
##ণডা
কিমি
কেভিন
কযেকশ
উননতির
আপিলের
রেখেছিলেন
ভাইরাস
বিজঞানীরা
##বিদযা
ইমতি
ছোডে
মাদরিদের
চীনে
টইট
##day
বিএসই
##াতো
অনধা
হারনর
সারওযার
সারোযার
২১৩
বনড
লাগানোর
গেলো
##শরমিক
নীতিগত
যানবাহনে
ঊরধবে
ডকটর
দেল
দেখিনি
সহসরা
আলিম
##ঞজে
পরীকষামলক
ডিআই
আটজন
নিরমাণাধীন
ইউনসের
অযালবামে
সিঙগাপরের
সটাফ
সিকিউরিটিজ
বংশোদভত
জোগান
মদদ
রড
সযা
##োলো
এসপি
সিগন
পলিসি
নারগ
##িসতান
গোলটে
১৮৩
মরনিং
চাওযার
উৎখ
মিশে
##সফাযার
১৯৫২
মেটরোপলিটন
োকান
art
মাজহারল
##ৈনিতক
মিরসরাই
##উজজামান
খালের
##কেনদরে
করসিং
##িনর
##াপে
১০৫
শিকষাবিদ
আদালতকে
উঠলে
liv
অবহেলা
জযাবরধনে
এজল
##িকল
##বেলের
##বেলায
কোড
রোদ
গোপনে
আপডেট
##সংখযা
চলচচিতরটি
মেযাদের
গহবধ
মোশাররাফ
সংকটে
আইপিএল
জবাবদিহি
লিযাকত
অযেল
##লভ
##কারিতা
##দসথ
গরেড
##িনারি
তরিপরা
ঘাটি
গরহণযোগযতা
রেমিট
##কষণে
হাযাত
বহমখী
চাইলেও
বিসমিত
অনপম
সাঈদী
নিষেধাজঞার
টানাপ
ফিটনেস
যবরাজ
gmail
নযন
মণি
১টা
##00
সরকারপরধান
##তিকার
##ীগলো
বিষযটির
আনাম
উইক
মিলনের
আনদোলনকে
হিলারি
গযালারিতে
শপিং
আমানত
ছাতরা
সথানীযদের
পরচারে
করপোরেশনে
which
সটিল
দষটানতমলক
অচিরেই
জলি
মফিজ
##নস
##ণর
করসফাযার
##বেষ
পাডে
আসাদের
মানিযে
দাউদ
আশলিযা
রাজনৈতিকভাবে
##ine
ডিসিসি
##ভেদে
##ভরতি
ওযারনার
পোরট
তারকাদের
আকাঙকষা
পণডিত
এএম
িহে
##ঝরা
মধর
##ততবিক
কাছেও
সপযান
##মনতরণাল
মধযবিতত
ফারম
বাদশাহ
অংশগরহণকারী
শনযসথান
ডেমোকরেসি
কযাটাগরি
সজল
##চরি
##ঠাক
সেচ
কমবে
বিষাকত
বিরকত
কাজও
হামিদের
রেখা
কিশোরগঞজের
োদওযা
দরবততদের
সঙকটের
করমাগত
রপা
মোজা
মলযের
বোযাল
বিদেশী
জেএফ
বিতরণের
রংপরে
পরতিকতিতে
##পরযাযের
আরসেনাল
help
ev
আদর
##খোলা
##ঝাই
নাহার
##াতল
বযবহারকারীর
ইনটারনেটের
সমারটফোনের
##বাডীর
পরেকষাপট
ডিভাইস
অসতরোপচার
want
আকষট
মরণ
##োততর
পরেকষা
##ারথক
##োননত
পরিবরতিত
কষমতাযন
##সমেনট
like
এতিমখ
কমনওযেল
পরেকষাগ
19
গনি
##মালের
করেডিট
চারপাশে
ফিরছিলেন
১৮৪
##কানদি
অসসথতার
where
ছাতরশিবিরের
মৈতরী
##ঝা
##টেম
োখ
বিনিমযের
অপচ
ফেরান
ইবনে
মাইকরোসফটের
সমালোচকদের
ইমতিযাজ
act
জহর
##বরা
##ভমিতে
##ানগ
অভিনযে
সচেষট
পষঠার
ঝলিযে
জযাকসন
তপন
##কটি
##িকোর
##তরণ
##াইনের
মোশত
আমাদেরকে
এলজি
বাসসের
##লিপ
হাজারো
লাখের
উইকেটর
৫০টি
##ange
১৯৮৬
বযাটিংযের
সবারথের
বেনাপ
কযলাভিততিক
ডযানিযেল
োকােনা
হংকং
ঠানডা
ছোযা
##les
বিমা
মিলিত
##জজিত
একেএম
ফাইনানস
দষটিভঙগি
সংগরামে
অযামবল
ঢাকাসহ
ওযাটসন
বরাহমণবাডিযার
ইলে
কেল
চারা
টকর
##পতন
জনই
ইনভ
আনশ
রেসিড
##সংবাদ
দবিতীযত
১৭২
রপালী
শটিংযের
আশরাফলের
##িপચ
গযালাক
হযানড
ht
##েকর
নিত
##াসচিব
##রিম
এমআর
##ংশে
শেযারবাজারে
##ঙখলার
নেমেছে
আগরহের
লোকজনকে
##হিদল
অনসারী
কৌশলগত
ফেইসবকে
খাগডাছডি
ভাগাভাগি
ধের
পপ
##ডিন
##পলের
বিচিতর
##যেরা
মহেনদর
বনধরা
সাংবাদিকের
মালা
সংসদকে
দরশনার
১৯৯৪
##মাতরার
শরীম
ইবতে
আডাল
দৌলত
িদেক
বিকরেতা
ধম
রশি
##দরা
রাজপথ
বযাটারি
মতামতের
##hed
রোহিত
শতাংশই
মিরপরে
ওযারডে
সফিযা
অভযরথ
ভিততিপর
most
টরানজিট
চিকিত
তবর
##হয
##এব
##কষণের
জানতেন
অনপর
##তততব
ঘটল
পিঠে
অতএব
টরেনিং
পেটরলবোম
মেটরো
রেসতোর
উদভিদের
লাঠিপে
স੬াসী
##পরিকলপনা
ro
ওভ
মায
হেকটর
##কারড
##বিট
পরিপনথী
পরতিপাদ
##বসিত
কাঙকষিত
পেলেই
কথাগলো
অসীম
দিগ
##কমকত
পরসতাবটি
মোটরসাইকেলে
শিলপা
আতিউর
অযৌ
চকরানত
হযায
##েতর
##ઍপিত
##কাঠামো
পেই
টিএ
সেনাদের
##পরিচয
রাসল
##খানার
সংসথাগলোর
বিপলবের
কাননা
পরীকষারথীদের
শবাসরোধ
সাহিতযে
সনাতকো
রিসারচ
cor
দেলা
দাদা
##ীভত
##েফ
##িটি
##১১
##tp
মোদী
ঘটলে
বহઍপিত
১২৫
##ছাতরী
শোষণ
সমরথকেরা
পચা
ভোররাতে
বোলিংযে
##জঞানিক
এখতিযার
##ভাষায
হাসিনাসহ
চিত
পরাতন
করিসট
রাষটরে
চারদিকে
সথাপনে
দীপিকা
সবৈরাচার
এএসআই
পিসতল
হালনাগাদ
রেলের
##ভন
পরমা
পরিসরে
অপচয
পরতিষঠাবারষিকী
রোগে
অগনিদগধ
দণডিত
তদারকি
িহেসেব
আেলা
##জাই
##োভে
##ামারি
কারলো
##মেজ
অপরদিকে
মানবতার
কিশোরদের
asked
ফেনীর
উপমহাদেশের
বিচারা
পারটনার
কসম
ছনদে
ছাদে
দনিযার
ভিকষ
ভাইকে
##দাস
সরমা
লিটার
কযেকজনের
ধরেছে
##েনেজ
উপসথাপনা
বযসক
দখলদার
##ঘাটে
ইউরোপে
করেতারা
রকিব
কযাটরিনা
পাঠযপসতক
দেলাওযার
ঝামেলা
মਔ
ষা
##ঙগন
কোত
অনযরকম
ইনফরম
পরিকলপনাম
পনরগ
আফতাব
##টিভিতে
বাধের
অিভে
মাদরাসায
গোর
দবাদ
িচ
##জিতে
##ফেস
##ily
নেভ
বাংলাদেশী
অভযাস
মঙগলবারের
বাংলাদেশেও
আমিরাতের
রামপাল
ডিজাইন
ভাসানী
মধযরাতে
অনধকারে
জিজঞাসাবাদে
নিপীডন
পিনট
##চছেদে
ছাডে
##বলম
রাখছেন
কামালের
সাতটার
এতটা
টেনডার
বযেটের
text
কিংবদনতি
টযাবলেট
##াকালীন
খামার
সদি
##হীনতার
##নটের
##ডী
##পোল
##মীন
আরমি
##মানে
মহস
বরযা
হাব
কনট
বিলীন
পনরবাস
কযারিযারে
##খালীতে
চাদাবাজির
নডাইল
students
যথাসমযে
ভিততিপরসতর
দবাদশ
রোক
##বদর
##han
পরেষ
##লোকের
মোমেন
মিচেল
দশযে
সটেইন
খাতায
অলস
সবামীকে
নোযাখালীর
ইউকরেন
নেদারলযানডসের
সংখযাগরিষঠতা
অগনিকাণডের
দজনেই
অকসিজেন
তন
রঞজন
##কথা
দেশগলোকে
দিযেছিলাম
দেখব
আইজি
বিকত
পডন
করিমের
সথগিতাদেশ
রাইফেল
আফগানিসতানে
উততেজন
ছাপিযে
কিবরিযা
##পদধ
##তনতর
##পরণের
নযটায
গাবত
পাঠকের
পিপ
##ack
পরজনমকে
সানতব
সবাভাবিকভাবেই
সমতিসৌধে
চিংডি
mat
বটেই
##থযের
##োটা
সমতির
চিতরা
উদদিনকে
সবাধীনভাবে
##শরী
যতটক
কমানড
সিঙগাপরে
অদকষ
রকষণাবে
মালযেশিযায
বাংলালি
উসকানি
মসি
##িহ
##ভেনট
##lf
##কেশন
##পতির
মিডিযার
খেলাফত
ঘটেছিল
মিনিটেই
জনমনে
তাণডব
বনদকযদধে
ধানমণডি
એઐানীয
বিচারাধীন
##বাইট
##যাির
বাহার
বযরো
বিডিনিউজটো
##নদিন
আলিযা
আদান
then
##আরডি
ফটকে
দামের
নিযোগে
এলাকাবাসীর
ফরিদা
বগডায
সাগরের
কাযসার
বহઍপিতবার
live
চকষ
ছাদ
##েগ
##িએઐ
##ণযের
##কাই
##াসং
##সিলে
পরেমে
বৈজঞানিক
আদম
গলযামার
নগরীতে
পরতিকতি
চরচার
ঘাডে
মমতার
রেহমান
রোজার
থামিযে
মকবল
অবমাননার
ডিরেকটর
িবরઔে
অনপরবেশ
অએ੬
কালের
সযাট
িপ
##উডা
##বেই
বলেট
আজমল
ঘোষণায
সারিতে
বাডায
১৩২
িবষয
বিসফোরিত
টযাংক
অসথিরতার
পরজেকট
শোযেব
এও
এপি
চালের
ডব
##জমা
##বানি
##ঙগীর
##নাহ
দিনেই
সহকারি
বহির
আলমকে
জযদেব
সমমানিত
গারলস
আকাশের
সামযিকভাবে
উততরাধিকার
কাযেস
সৌরভ
অনিরদিষটকালের
িবরઔেਤ
over
ঝলে
িছল
##রীন
নিই
কোপা
পাডার
পরধানত
##াহী
বরডার
সংবাদপতরের
ইনজ
সরকারিভাবে
পরচারণায
হাজিরা
সমরণীয
work
শহীদললাহ
পরবণতায
পরবাভাস
বেদনা
দাতবয
অভযনতরে
##লান
##তੴ
সমীকষা
নিরবাচক
অনেকদিন
মামলাটির
পরারথীকে
আসামিকে
পোশাকশিলপের
বিদেশিদের
১৯৮১
##পনথীদের
ছিটমহ
বাগেরহাটের
হাতিযার
অসাংবিধানিক
http
অশল
ওনার
আমরাই
দিনগলোতে
##তবিক
কলাই
বিরোধীদের
রোগীর
রোগীদের
বাচানোর
সাবধান
কৌশলে
গাজ
রঞজ
##েদেশ
##কেলের
##ীকষিত
সেনারা
পিবি
বহসপতিবারের
কালীগঞজ
##ities
গণতনতরে
সবীকত
health
জবালাও
অনেকেরই
হাউজে
লকষণীয
ইনদোনেশিযার
ইরাকে
look
কবলে
হের
##সকল
##রઔ
সমরাট
দলও
কিড
গরভ
##াহারে
মহলে
হাজারী
##েসের
বিভাগকে
জোযার
শারলক
একাদশে
ফটকের
কমলাপর
সপযানিশ
dis
happ
কাকর
জোস
ঢাল
##বালের
যেটি
উদী
##িমার
##নাযক
মিটিং
##োজেন
চালকদের
বিরদধেও
##টটোর
এবারো
শিপ
সাতজনকে
এগিযেছে
##সফরত
কিউই
তৎপরতার
চকরের
উডাল
ফাটল
ইভি
এনার
নেল
##গোপ
##কলার
##ઓল
বিপাশা
গরবিত
দিনশেষে
১৯টি
মযাথি
গরেপতারে
বসতা
১৬২
আরেকট
খলতে
ফরিদপরের
দৈননদিন
##ause
ঘডি
মিত
##ছডা
বিপি
সরওযার
নিরবাহ
ভাবেন
বারি
ফরমে
মাহববে
হতাশার
মিলেছে
ছিডে
ফাতেমা
মানসিকভাবে
##ঘোষিত
giv
সরযের
##জনীন
যাপন
##চেত
##ons
রিফ
মতযবারষিকী
তরয
মাহমদউললাহ
ওভারেই
কথাস
ভটানের
বীমা
কাফকার
পরিমাণে
টেকনোলজি
educ
লিবারেল
পাতার
বজর
সাইন
##ইযে
##এনি
##োযান
পরী
##িনস
বিউটি
##াকান
পারকের
গরর
জানিযেছিল
ছাতরের
খবরটি
অপরব
এনাম
বযাংকগলো
লাগল
লযাব
##ধায
সবাযতত
১০১
কেটি
চারটা
খালেদাকে
##মনীয
বিরোধীদল
১৮২
হালদার
দঃখের
টারগেট
পরানতিক
ভিলিযারস
গোলটেবিল
বেনাপোল
let
জাই
ঝডে
রদধ
৯০০
##িদর
##তই
##ਊেলা
##যাদ
আমা
মোখ
দরপাল
##পাদক
উনমো
লিবিযার
সটযাট
সইস
কষতিগরসতদের
কাঠের
জাদঘরের
comple
পચিতিনি
রকিবল
নীরবতা
পলিথ
কাঞচন
সনাতকোততর
ফয
##চরা
##az
পারাপ
সাংবা
চারে
অযাডি
খেলাপি
সাতটায
##জীবনের
আবেদনটি
দমনের
বিপরযসত
##সংগঠনের
পরযবেকষণে
##umn
উতথাপিত
##বরষে
বিসমযকর
স੬াস
পরিযাঙকা
##কাহিনি
অবিশবাসয
সরবাধিক
গযালাকসি
পিতার
##কারখানা
মেস
জানিযেছি
লীগে
মননা
উৎকণঠ
মজদ
উপসথাপনের
অগণতানতরিক
োগઝਮার
মোজাফফর
fir
ডযার
ফযেজ
##চরে
##শতা
##ডেম
দরগত
হাসতে
অবশিষট
পরসেসর
নযটা
বডো
অপরের
সেনাস
শাহাব
ছবিসহ
সাতার
##এফআই
ধারে
বালক
আবহাওযার
কাতারে
নাফী
##ামবার
আরএম
গতবার
পলযাট
থাকল
##গাছা
##উদদিনের
সৌভাগয
অভিনেতার
নাসরিন
অযাপলিকেশন
সিডনি
ইনফরমেশন
অশলীল
মযাল
যতন
৫টায
##চাক
##ণডার
##কিতে
##ীরণের
গেমে
পরথমবার
গণমি
বসবে
উচচশিকষ
চকতিবদধ
নিষক
আমনতরিত
পরতিরোধের
ইঞজিনিযার
যগোপযোগী
গভরন
জাকারিযা
মসতফা
অনধাবন
ধমপ
##জোট
##বিও
পাড
আলবদর
অভিবাসন
##গরামের
আনবে
চেযেছিলাম
২১২
কনটর
মাশরাফির
অনসনধানে
ইজারা
গেযেছেন
এসএটিভি
চেননাই
পিলেশর
পরেষণে
কযালি
টযান
দযেক
ভীতি
ির
##ীনা
##যাসে
বিশবজিৎ
পলিট
বিভাজন
উতস
##সরগ
সেপটেমবরের
আটকের
খরচে
আসেননি
নজরদার
২০২০
পারশববরতী
মਔলবার
রপে
হানা
##হাজ
##নশীল
##বারয
জানমালের
##িশিযাল
##দিনে
##াবাজার
বাডিঘর
পকষই
দামেস
##বোঝাই
##নাময
অনতরভ
মৌখিক
শীতলকষযা
ফস
##ছিযে
##গরীয
আসথার
বরণা
নামও
দিদার
চৌদদ
সেনের
১৬৫
১৭৩
কোরবান
মনোযোগী
ছাডেন
রোগের
কেটেছে
আখতারজজামান
করমশালার
রাঙামাটি
অঘটন
ফজিলাতন
অভযরথনা
yah
টেলর
যথার
সবজনের
কমতে
এলিজ
মালটিমি
##পরণোদিত
##ence
পরতিযোগিত
মিশনে
ইনডিযার
কিশোরী
সনতানকে
এশিযায
sub
সিইও
বেইজিং
মেমোরিযাল
সেনটরাল
yahoo
গিটার
রজন
রমে
হেন
##বততি
##িদেক
##কেটে
টোটাল
সকাই
১২৩
বাহাদর
হাতছাডা
গেমস
##াতনামা
সবৈরশ
এযারলাইনসের
মভিজ
নারগিস
পরিকলপনামনতরী
ছাযান
থা
মরি
শিযা
পরদেশ
অনড
##নিযায
১০৩
১০৪
##ঞজার
সামর
ওইসব
মারিযা
##ধরমী
##সটন
মোহামম
সমননত
সংগীতশিলপী
১৯৮২
অনিবারয
বোলাররা
সমপকততা
মাদকাস
করিসটি
নিরবিশেষে
শরণারথী
জৈ
িবের
করানোর
##টারন
করমপরি
কষটিযার
মহডা
বেশকিছ
##ারথে
পরতীযমান
পালায
পরিবেশগত
সমরথনের
পশর
চাযনা
১৯৭০
##ical
গডেন
কানটরি
হাটহাজার
বরাবরের
অগনিঝরা
##বিধির
হেমনত
পরতিপাদয
কযাস
ঝট
পজ
##ডকে
##wn
##টকো
কমছে
কাঠামোর
রেখেছিল
১৯৯৩
নৌকায
বিশলেষক
সাধন
জগৎ
অরধশতক
ইউকরেইনের
নেতরকোনা
##গরনথ
সহানভতি
ইবো
চাযের
জমার
##িতের
সংয
অনকল
পরসকত
আযম
মাহি
##মলযের
মরালি
ওযাচ
ওযারক
মিযাকে
আসাদল
##িলেয
শকতিকে
হতઘাকা
কতিপয
সানাউললাহ
যথারীতি
আকষেপ
বেড
হাজারেরও
মযাডাম
জীবনী
বোতল
উচচমাধয
##omet
সাইদ
রেলসট
লিখেছিলেন
সথগিতের
আকরমণভাগের
সপরশকাতর
সটিভেন
অয
ধোন
শীষ
##েযা
##োলে
সাবের
এসইসি
বারসার
পাচটা
জোটে
পনরবি
সবেচছায
উচছবসিত
দরপাললার
year
কফ
মোগ
##হাক
##iet
মাপের
রাজবাডী
সামিট
##কষেতর
আশর
সারির
কারযকলা
পরোডাক
লাভজনক
only
why
##শাসিত
হাশেম
বিএনপিসহ
হযাটটরিক
ভিশন
মযারা
সবরত
##পাকষ
##ানিযা
জানাব
লাগা
অসামপর
এমনটাই
সংগী
পডালে
সবাসথযসেবা
অভিনেতরীর
অসবীকতি
নিরমাতাদের
column
উইকেটরকষক
নিষকরিয
হসে
##দাম
করলো
নাযে
হাতির
আওযাজ
লিও
ঘোষণ
দবিতীযবার
১৭৪
ওযেল
জীবনকে
পরতিবাদী
##েনসিযাল
ওঠান
ধানমণড
কষমতাসীনদের
##ঘাটা
ঘনটার
পরযালোচনামলক
জিডিপির
শিনবার
ইবোলা
জসীম
পকরে
বশির
##গডায
##ংগ
##নেসা
মহিল
##ঞজসয
অরথাযনের
সিনহা
খেলবেন
ঘোডা
গাছে
সামনেই
সমাজকে
##ঙকশ
##চালকের
বোঝানো
টযাকস
নিরমাতারা
গোপনীয
পলাবিত
শামসদদিন
যানজটের
যোগযতাভিততিক
মধযপরাচযের
টাসকফোর
get
pers
ঘাস
তাকা
ধবনি
মই
##জাহান
##ধিতব
##খল
পরখযাত
জনমের
পদমরযা
দবিতীযবারের
জানাবে
সকলকে
আতমপরকাশ
সেনাবাহিনীকে
লোহা
##টিকযাল
ইংলযানডকে
need
হাউসে
দেরিতে
সষমা
কালিযাকৈর
take
খদে
টয
মকস
##েনটারি
##পরবণ
সেটার
দাওযা
##োসহ
নযজন
উততরণের
পরতিনিধিদলের
বইটির
সংশোধনে
এনেছেন
মমবাইযের
ইংরেজী
টিকিযে
কাসেম
সটাডিজ
অমীমাংসিত
বরিসবেন
জঘ
তিল
যম
##১৯
জানতাম
আরবে
আহবানও
ভাবছি
লাইট
আফরিকায
জামাযাতকে
ভইঞা
খসডায
##কেনদরিক
সিএনজিচালিত
টেকনিকযাল
রিযে
সধা
##ইডি
নিরঙকশ
পডেছিলেন
পরণিমা
তততব
নিষপততির
মেযেটির
হযাপি
ইকবালের
নিকোল
গাইবানধার
অকসাইড
রদবদল
আইওএস
বরণাঢয
ফেলো
রানি
##তলার
##খাতে
অনদ
রাজৈনিতক
কষকের
দরততম
##ংশলিষট
লাঞছিত
সামলে
বিভকতি
দলেরই
মিঠন
##দেজ
ঠিকঠাক
সনধানে
গভীরভাবে
বাঙাল
একাংশের
গাডিবহর
বিডিনিউজটোযেনটিফোরডটকম
ধানমণডির
##১৭
একতরে
গণস
নতনভাবে
তখনও
ভমিকমপ
বিবেচনার
টরেই
##angu
রপানতরিত
পরিদরশনের
পলাসটিক
পরচছদ
langu
sc
শিকষাকে
বযবহারকারীরা
শনিবারের
বরিটেন
উচচশিকষা
বিলাস
সলোগ
জারনাল
উজজীবিত
জাহানারা
উদদীপকের
কেলেঙকার
সাংবািদ
জঘনয
ওলড
দাদ
নল
##জিন
##ববার
##িমপর
ঘটানোর
আইনানগ
অপরণ
হাতেই
ততই
ধরমঘ
rem
১৯৪৮
কাযেদার
ইনদোনেশিযা
গઝােমর
চোপডা
কমગকতગা
জেনিফার
artic
অসামপরদাযিক
##ডম
##ff
##কিছর
দিলেই
জিযারত
পররাষটরসচিব
পঞচগড
আমিরল
ফিলিসতিনের
দকষিণে
ਠઙবার
এিপચ
বিবাদ
##িযামের
থাকতেই
ধরমান
পদাযন
পাচজনকে
ওঠেনি
##মাতরিক
বরাউজ
চযাডাঙগা
রযযাল
এডিবি
পিটারসেন
house
ফারা
ভযাট
##লেতিক
সাও
হিসাবের
চাননি
পরামর
##ural
অভযসত
বাচতে
##ody
বিএসএফ
ইহদি
bo
ঢোক
রমা
রবেলের
##মবিত
##ষকারের
সেভ
করাও
##টরির
মেটাতে
পরিচর
হাতবোমা
মিশক
িবএনি
রাজিব
জববার
অনলাইনের
নতઓন
পরসিকিউটর
উদভাবন
অগাসটের
লিভারপল
হসেইন
bu
অমল
শবে
##সতত
##পরার
##নতরীর
পাহারা
বেজে
সভাষ
১৩৪
পরোটা
উদযোগী
দোকানপাট
ঈদগাহ
আহমাদ
সযামযেল
অজঞাতনামা
দবিতীযারধের
ডাউনলোড
সইজারলযানডের
two
মোশতাক
11
vill
কানের
গডি
বালি
##য৷
##পাক
##িডে
যাবো
বিরতিতে
হারট
রাযকে
বাসতবতার
পরতিকল
পরেরণা
মোশারফ
োসামবার
পডাশোনার
ওযাশিংটনে
কিরণ
হামলাকারীদের
সারবভৌমতব
তিতাস
এবছর
গোধ
ঘাত
জবস
হৈ
জনপথ
দরবার
রেযেছ৷
দলীযকরণ
ছোটখা
উততীরণের
অনরোধে
যানবাহনের
##টরিং
হাফিজর
see
টাইবরেকারে
কমনওযেলথ
আਲ
চমেক
##পোস
##দষণ
##১৮
বাউন
##বিবাহ
মানষই
মামনের
১৫৪
##ভিং
চটটোপাধযায
পথচারী
মসক
পরযকতিবিষযক
পোশাকে
তহবিলে
পরকতপকষে
হলিউডের
গীতা
কোসটগার
##ঘণটা
এতিমখানা
সোর
করান
সমী
তাকেও
আরোপের
মরমান
##োদশ
আরেকবার
নাইকো
কমিশনারের
কলিনিক
মধযপরাচয
বিশলেষকেরা
friends
আতিকল
নিরদোষ
রখ
##পরারথী
আগমন
কষত
টোকি
ছাਠ
অনেককে
লিডার
উইকি
পথচার
মাহে
মিলবে
চলচচিতরকার
তরণী
গাছপালা
মওলানা
জটিলতার
উরগযে
অগনিকাণডে
ফতললা
চোরাচাল
ভোটাধিকার
differ
পચিতিনিধ
মরমানতিক
িবেশ
##দাতাদের
##কিন
##নাহার
সরকারদলীয
রাঙগ
##ীনগর
১১৩
রৌ
পিএইচ
জাহিদল
মাঝি
সৌময
সেলফি
ইনডিপ
পেটরো
ডাকাতির
কৌসলি
অনিশচযতার
##সথাপন
এলবিডবলিউ
কযাটাগরিতে
##পাকষিক
তযা
##রমী
##ককে
করেসট
বেডি
ইনজরি
রাষটরপতিকে
শিশতোষ
হাইসকল
##খােন
খেতাব
দটোই
বিভরান
মাহফজর
সযাটেল
ইবাদ
উমর
পহ
ফড
২টায
##সনত
##ফেনস
##ষে
করোম
ভাবি
##ens
কতগলো
বিপলসংখযক
িবচার
তহিন
সংখযায
ছককায
ননদী
উসকান
ফরমালিন
কথাসাহিতয
জলপ
বিঘা
##িতবের
##াইর
##সিফিক
বেসিক
নামবার
পাচটার
শিশটির
হমাযনের
বিপলবী
আমিনর
##পণযের
##igh
নানদ
উরদ
নযাপল
এহসান
হযারিস
দরগা
##পিযান
##াহত
২০১৯
ছবিগলো
আতমতযা
চিনতিত
চালককে
১৯৮০
সংবাদমাধযমের
গীতিকার
##ought
পরোটাই
তবরানবিত
mr
would
এটক
ঝডের
পডি
সনায
##গতা
##তাপ
##টকের
১০২
মানষেরা
আজকাল
নিরদেশনায
সতরকতা
বিকষোভকারীদের
চিনতাভাবনা
ভিততিহীন
##বরধমান
আনষঠানিকতা
পরাণহানির
সীতাকণড
বিনোদনের
পরণোদনা
এিপચল
পহেলা
অশর
লেক
সেশনে
##¤পর
##াককষে
##বাণী
আগার
##াহানি
ছাগল
বেস
আলীম
ছযটায
সটযানডার
সনদরী
ভইযার
বোমার
কদিন
ভোল
ভলের
হেরা
##বিশেষ
যেই
যাও
পরকাশয
মাসদের
সিরীয
োঘা
গাডিচালক
নাজক
পরচেষটায
অনষদ
আতঙকিত
মোসাদ
কযানটনমেনট
ইল
ভষিত
##ষেধ
##aj
##ামখী
##দেশীয
১৫৫
পাঠকদের
শিশসহ
##ond
কনডিশ
নাজির
সমভাবনাময
দবিমত
দারিদরযের
##িলোডেড
কতব
টির
রকেট
হেই
##চাপা
##লেম
##েশর
##বাশ
##াপতর
##মযানের
গোলশনয
শিশির
জীবনযাপন
পতরপতর
বিলডিং
সফরকালে
নেতারাও
মাহমদের
##ational
ভযানের
পরতযনত
এগোতে
চেলসির
import
ফিফটি
language
eat
নাল
ফলো
##মলে
##টান
সমতায
সাবি
পরতিবাদের
উপকমিশনার
##িকষত
করমবরধমান
কাজগলো
চারজনের
এমনটি
সযোগে
বযবহারিক
ঘটনাও
পরশনই
জানাচছেন
আটটা
২৩০
সৈযদপর
নৌযান
সমতিচারণ
গরাহকের
টরাসটি
সওদা
নৈশভোজ
mor
রিলোডেড
##চকর
##কষিণ
##বিশেষে
সেভেন
মাগর
রাউ
২০১৮
ডিএনএ
পথেই
কারযকারিতা
##সংগঠন
ফলাইটে
ধারণার
জাপানে
তাজউদদীন
সামযিকী
বদরদদ
শলোগান
উদদীপক
আফরিদি
পরফেসর
কদর
খাস
##ামিন
##াদারি
কোলে
##বসথায
করমশ
বযাচের
এমিলি
থাকন
##ারথীদের
##াকারীদের
গরেট
ঘটনাએઐ
গবেষণ
##জারভে
সাহাযযের
এজেন
উপপরিচালক
গানধীর
অভিমখে
োদেশর
ষাটের
এদেশে
শোর
##পিছ
হাসপাতা
সিএ
লাঠ
সথানের
অসমা
##এসপির
কলানত
কলঙক
নিরমাণকাজ
সলিম
অধীনেই
##ade
বাধন
খোজা
রোজাদার
কলিনিকে
লেখালেখ
##শতাধিক
sim
অে
আিম
গাদ
গযার
##হীত
##গেই
##ગন
বিছান
তারান
পাউনড
অভিযা
ভাঙগা
অসামানয
১৪২
লাইনচযত
শফিকর
মোতাবেক
রাজনীতিকদের
এনডিটিভি
ভিকটোরিযা
সানতবনা
ডযারেন
উচচমাধযমিক
bir
sm
শেল
##চনের
##শিশ
##ফরে
বাধে
পাডায
সবশেষে
##নদা
পকষকে
ছযটার
বযাপারেও
##ধারীদের
চাচাত
ভবিষযতেও
মামনল
ঐকযবদধভাবে
দেশপরেমিক
সবতঃসফরত
ধস
##ামতো
মাফ
##যোগের
আইটেম
##সংলগন
আনদোলনকারীদের
ঘরিযে
জিতেছিল
লোহার
মনদা
বিরাজমান
রিমানড
কনভেনশন
বাচাও
ছাতরছাতরীদের
কযালিফোর
উইকিপি
##ংগো
নাহি
ভালোভাবেই
মলযায
পিচ
পোডানোর
জেদ
##als
আইনজীবীর
##েজর
##গরহণের
বাকী
জবালানির
##শীষ
িকছ
বণিক
হরিণ
নিরাপততায
পযাকেজ
মহীউদদীন
সরকােরর
rec
পঙক
ফেরে
##ৌ
##we
আরমান
কারগো
রাজাপ
সিঙগ
গণনা
তাকেই
পরশনটি
ভেজাল
পযেনটের
##দানী
কষতিপরণের
ডাযা
নীতিনিরধারণ
দকষিণের
োহােসন
সনেহ
এএসপি
পৈ
মাকস
শখ
##িধ
##যেনের
পাটের
##যেনট
দিনভর
কেনে
আশচরয
মারামারি
বিচারকদের
অযাথ
সিনেপ
জানাযনি
মহানগরীর
সাকষর
১৯৭৮
সফিযান
##vel
ডাচ
আলমগীরের
নিখত
##ানষঠানিক
হসতানতরের
গিগা
বিবরণী
আতমসাতের
সিআইডি
মেজবাহ
দমপতির
সিগনযাল
তরযোদশ
ভিস
মতৈ
বহর
১১৫
খেলছেন
পরতগাল
এবারে
কযাশার
মোবাইলে
ভোটারের
##osition
কলমবো
সবযং
ইনডাসটরিজ
আশেপাশের
অচলাবসথা
নবনিরবাচিত
could
may
টনি
টটেন
ডযা
##টকে
##ভিক
করাসহ
##িসটার
সরকারমনতরী
দরপাঠ
দেখেই
১২২
##পাশ
টরেনড
জাভেদ
অরপ
খেলাটা
১৮৯
উদধারকারী
শেবাগ
লোকেরা
নিরধারণে
পরাপতির
##oss
বাঘের
িদন
হলিউড
নীতিমালায
বনধতবপরণ
জীববৈচিতরয
করমপরিবেশ
ইলিশ
সনো
সঞচার
##ডেনট
অসতয
উতপাদ
রাষটরাযতত
২১টি
ভাবছে
রেললাইন
##ict
##ick
দাডান
হরভ
চালাচছেন
অশবিন
কাযেদা
চেমবারের
আতমীযসব
শিখতে
পরদকষিণ
##চাপায
যোদধ
রেসিডেনসিযাল
অট
ওপ
কটক
গাজা
টটল
নিনদ
ভিকার
##ফেরা
##িযেন
বিশদধ
অংশটি
ফরাস
##শালা
পাইপ
##ছন৴
১৯৮৮
গযাটকো
কাঠগডায
বরেক
রকষণভাগের
মোকাররম
gap
name
table
ডল
নবাগত
##হাদের
##ঙকো
##ઘর
##ull
##োপক
আমিনের
দােযর
নামকরণ
অরগান
হতযায
আলোচয
নিরযাতিত
কানন
গরামীণফোনের
মোতাহার
নাইজেরিযার
অমানবিক
চযারি
জভেনট
িনি
নিস
সেটির
সরকারী
মেধ
এমএল
পরশরয
উলল
উললা
নেওযাজ
##ase
সরবোপরি
পચথম
ফিলড
come
মেরিন
str
সারাদেশের
টাউন
লযাবরে
খোরশেদ
ছাই
##গী
##কী
##ছক
##ગী
##তাও
##দেরও
এরিক
নামেই
চারটায
বিদবেষ
১৪৫
পকষপাত
কালা
জাযানট
উঠিযে
ফারকী
কথোপক
মেরি
মাহববউদদিন
পনরবিবে
app
চলো
##মিস
##ose
বাংলাদেশসহ
কষধা
##রথন
সহপাঠ
##লিমা
১১২
ফলপরস
নরজজামান
ছোটবেলা
অভিনযশিলপী
ভোটগরহণ
বেলন
বিজযীদের
নিবনধনের
দশযত
ডেমো
রেসটর
##সপিনার
অবমাননা
ছরিকাঘাত
টেকনাফ
অযৌকতিক
list
ইরফ
ওপারে
চঞচল
পরার
##টিসি
বাহা
সাবযসত
এইসব
##করযাট
তািল
রাউনডের
##বাহিত
সামলাতে
বিভেদ
##পনগর
উততরণে
##টটায
বিরোধীদলের
বরতমানের
লোকসান
১৯৭৯
##নিরদেশ
খাদযমনতরী
রকতে
উইলিযামস
পরতারণা
বাসিনদাদের
সযাটেলাইট
গফর
রিকি
লিন
##বোন
পরদেশে
##যেছন৷
##পরাপ
বািড
পাথ
আলটি
অভিযোগও
১৬৩
##চছনন
##ance
##মখর
খাটো
##ash
ভিআইপি
মহাখালী
কাউনসিলে
মিশনের
যনতরণা
যাতরাবাডী
word
দরযোগের
শরিফল
পরোগর
বইমেলায
সটরিট
খচরা
পিযা
বত
##শনার
##াযলা
জাননাত
দলটিকে
সকোযা
ইসহাক
রেগ
ফেদের
ওযাটার
শেযারবাজার
খাতকে
##াসথলে
ভবনটি
ভযানে
অমানয
বদরদদোজা
গাযের
নরে
ভরি
ভোলার
রদর
সদে
##ওল
##যট
##েযাগ
##িদা
##থানে
বিমোচন
নিছক
সাথ
পারলেন
সথবির
গোযাল
কলাক
২২টি
পাসওযারড
দবিপাকষিক
ভোটাররা
সিরিযাল
গোযেনদ
সমনবযকারী
ককসবাজারে
মানিকগঞজের
বিঘনিত
ভৈরব
আনশকা
ইভিএম
অেন
খতি
জাপা
সমাপত
##পরণে
বলো
বলটি
##যানষঠান
তাতেই
ভাট
অনযথায
সমমনা
ফারমা
মযাচেও
শাশ
সংশলিষটরা
পরাণীর
বেগমকে
ডিজেল
মাথাপিছ
বাজিযে
জনগোষঠী
পযারিসে
because
জযোতি
বাসসটযানড
বরোঞজ
মাহাবব
মহসীন
মোখলে
ear
ইডেন
জিলা
ঠা
িনয
##রমে
##কতে
##লেশন
##ঙগায
অনান
পেটে
দাওযাত
##গরামে
মিলস
##েশনস
##বদয
পরতযাশার
খাট
সমালোচক
খনির
##ধবনি
সভাককষে
মেযরের
এককভাবে
##বোরডে
কাচামাল
play
উদদীপকে
রাশেদা
বাউনডারি
কেজরিওযাল
ওভালে
আতিকর
##াে
##যতে
##মাত
##ংরা
বিএ
বিতত
##ডিযায
বাডলেও
মরতি
৪০টি
সাইদর
মশকিল
অরধশতাধিক
সরেফ
ধাওযান
ইনসটিটিউটে
গরনথা
আমদানিকার
মতিঝিলে
যৌকতিকতা
##বিদেরা
আইএমএফ
aw
ওযানডের
গঙগা
চরির
ফন
পাতর
##টারসের
##ীগলোর
দইটা
##ঞজি
মানষও
অবসরের
গণঅ
অনযটি
পিএস
বাংলােদেশ
ফারজানা
গলাস
মালিকেরা
বিলমব
এপরিলের
মিছিলটি
বাকযে
মশফিকের
দাখিলের
অগনিসংযোগের
স¤পরতি
ভিযেতনাম
বারানদায
বেডিবাধ
অઘা
##ভস
##যাতের
##ভাষী
##বসথার
বিভিননভাবে
হতযাযজঞ
অযাভিনিউ
বাহিনীতে
নরম
জনমবারষিকী
বিনিযোগে
তেমনই
মওক
মনিটরিং
উততেজিত
চিলডর
আগসটে
রিযেলিটি
direct
নওযা
অননযা
উপমনতরী
পলযানট
১০৭
##জিদ
টিট
বিশেষাযিত
বযবসথাকে
পরকট
রিভিউ
ইউনিসে
১৯৫০
জরিমানার
নিপীডনের
বাসিনদারা
##ivers
মকসদ
সপন
যাতরীর
গেলেই
আদলে
বিচারবহিরভত
সাংবাদিকেরা
দরশিকষণ
বিনষট
thr
মিশেল
সেটিও
শামীমা
পরথমারধের
ইশতেহারে
অধযষিত
জালিযাতির
কারলোস
শফি
##মকতি
পরিল
পরবাসে
##াইম
পাচারের
উপকত
পলক
##ীকষায
ডিএস
মিলানের
এনসিটি
সোপরদ
২২৫
মাঝমা
শিরো
হাজি
পযাসিফিক
জোগা
পরাসঙগিক
লীলা
হাসপাতােল
old
ফক
রাইট
সতম
##িছ
##hing
##বােরর
শরো
দইটার
রাখি
দেখাচছে
আরোহ
কারযকরী
বাজারজাত
পরযোজনায
ভেটটোর
বিসিসি
৩৫০
##ular
অনিরবাচিত
পষপস
সরাহা
আইপযাড
14
এটার
##নযনের
##ই৷
সেহেত
কারযা
##নদী
বিশবকে
##খানেক
আযমের
আনগত
সমনবযের
বছরেও
বাকিদের
রপতানিতে
মেযাদি
##বযবসথায
পশচিমবঙগে
মাইকরোবাসের
অযাকাডে
টিআইবির
##াইজেশন
prob
পরসিকিউশন
একদমই
দিযা
রইল
##নাকারী
##সাজ
##গনধ
##ফান
##ting
##িকইন
নাতি
##ঙগনা
বলেনি
১০৬
১০৮
ইসলামসহ
অরথনীতিকে
২৪টি
ফারগ
উততযকত
পাইকারি
##পনথীরা
খোজখবর
রাজধানীসহ
বাঙালিদের
জযদেবপর
ইমদ
মণ
রজ
##তઘ
রাশি
পলটনের
##টিরও
জিযাসহ
চাইবেন
রেসি
সটযাম
##কষণিক
রপসী
পতিনের
বরণিত
১৯৮৩
বিকাশে
child
##শরেণ
জাগিযে
রাববি
এফবিসিসিআইযের
হাউসের
অনতঃ
ছতরভঙগ
ঘেষ
তামা
ফোক
লাত
##੧ছ৷
##োগয
আগরত
মোক
সমপরীতি
আমারও
সপাই
পরিচালকদের
জলাইযে
##াদেশিক
ইতাল
সইডেন
সােবক
নাদাল
পটযাখালীর
সটোরি
lear
সোসাইটির
বাযারন
পরেকষাগহে
পষপসতবক
উে
ডারক
ফায
মভি
মশার
##পায
##শিম
##উিਣ
##ile
বিহ
জনাব
সবকিছর
মোমিন
বেলে
##িমিটার
১০০০
রাখলে
গিযেও
##দরশী
১৪৩
১৩৩
িবষ
নিঃসরণ
কাগজের
অবকাঠামোগত
##সংগীতের
এএনএস
অভিজাত
রিসোর
মযানডেলা
এনাযেত
অযাথলেট
আচারয
উরধব
বদলের
##চত
##গময
অনচছেদে
মাচ
##জনযে
##ষটিক
##বনগর
দরতই
পরশাসকদের
নাসিরউদদিন
উরগযের
জনসাধারণের
টকরো
এনারজি
মযারাডো
somet
চাদের
##বডে
##চেন
##গাত
পরাদেশিক
পারটিতে
এমাজ
বরযানডের
দাবী
দাঙগা
হিসেব
ছাতরীর
রেহান
সরবকালের
দামি
off
ফোরস
অনশীলনের
একরকম
##বাংলার
হলাম
##সনধ
##ভিলি
##ারোপ
নিদরশন
ভাটা
##উলিযা
রামপ
আতঙকে
ভযেস
পারফরমযানসের
কচকা
ফিনযানস
ছরিকাঘাতে
again
অকল
ইদানী
গডায
টিস
শংকর
হোন
##গরা
##ઃমদ
##বাগান
অনরাগ
##িসর
সাযে
##বংসী
##লারের
গণি
অরধে
দাযিতবরত
চিকিৎসকেরা
জোযারের
##সীমার
মালিককে
খাদযে
আফস
জলাবদধতা
সথলবনদর
ঋতপরণ
বালযবিবাহ
পযગ੪
পরতিযোগিতামলক
person
পঙকজ
long
আকতি
ইটের
ছিনন
সজ
##পান
##ফোরসমেনট
মানবে
মতল
গণহতযার
অনেকখানি
মাসবযাপী
কীট
পরাণে
ডিসপলে
নরজাহান
উচচতায
চাবি
বাণিজযে
লাইবর
নববরষ
কাযদায
সেমিনারের
কষযকষতির
হযামিল
রপতানিকারক
ভাসকরয
অদরে
অঞজন
কমা
পতে
ফযাম
িਠઙ
##চিল
##gr
##to
পরিশর
নিরভ
##াপক
##হারে
বিএনপিতে
##ধরম
১৫২
মিলিমিটার
চাট
রানেই
জঞানের
কষোভের
সিলভা
বিদরোহীরা
খরিষটান
দিগনত
মোসাদদেক
দফার
##ণিক
বিসত
বহজাতিক
সচিবকে
পডলেও
তাতেও
চযামপিযনরা
শনেছেন
পরশংসিত
কমিললায
বোনাস
পরবনধে
##ডিসিতে
গরাযেম
উচছবাস
এমপিওভকত
বকতা
হীরা
##তাল
করই
দেহের
অনাকা
বরহম
আছেই
দিপ
উইথ
পরতিষঠানগলোকে
কতজন
সীমার
ভাবনার
রেললাই
পাহাডে
পরজনন
##ign
##એઐা
##বিজঞানের
মেলবোরন
ইযাজউদদিন
লাঠিপেটা
ধোনির
different
father
ওযাস
গির
তઓ
ভখ
রজার
সোলায
অনবদয
##রিশ
দরপত
সামঞজসয
ডিফেনস
গিযেছে
পকষেই
২২৪
জেনઘ
সথাযীভাবে
সফলভাবে
বালর
শিবিরে
জেরার
টরাভেল
কণঠশিলপী
উততোলনের
গণপরতিনি
##গোষঠীর
ভোটকেনদর
সবীকারোকতিমলক
কৌতহল
ভেনেজ
িছেল
##াবর
##তবধ
১২৪
দিচছিলেন
হতযাকারী
পথসভায
আনতরজাতিকভাবে
পনরনির
ভিততিতেই
রযটারসের
কমপিউটারে
সানধয
##str
মনাফার
রোমাঞচ
দোসর
অটট
চਜ
হতিক
##জারি
##ঝে
##টেকস
এমভি
ইসলামা
লিফ
চৌরাস
##চিতরের
মেডিকে
আহবানে
শাসতিমলক
বোধহয
বকেযা
সাযমা
হবিগঞজের
মারকেটের
স¤পর
first
আলটিমেট
ইটিপি
গও
লাকস
##সংশলিষট
##চিযে
##গানের
##েলস
কোমল
##যেনর
কেনো
১১৪
##ভিযার
মালালা
ফটো
ভিতরে
পরশাসনে
বিকষোভে
কমারের
দিনেও
সেততে
কটটর
করীম
আহমমদ
সোনালি
কষণাঙগ
পরতীকী
তোরণ
নজিরবিহীন
পলিটেক
উইলিযামসন
আবিরভাব
এলিজাবে
ইমদাদ
right
আটটায
গমের
ঘমের
জতা
ভীত
##শরম
##ষি
মানোন
বরষণ
হাটে
##েলিং
পেযেও
##দীনের
##আরপি
২২২
মাদার
সমালোচনায
কোমপান
পચিতে
যদধাপরাধীর
সিদদিকীকে
বরাউন
অপেকষাকত
কোমপানিটির
নিরধারণী
কৌতক
অশোক
কাযেম
সনতোষজনক
মনজরল
লাফিযে
এমইউএস
তযাগের
সওদাগর
কবল
ঘাম
##দাযী
##ઘান
##িরক
নাথ
##ানেস
মানসমমত
জিও
সচিবদের
মাতরার
পরযোজিত
অসটরেলীয
আখডা
ফেসটন
ইউরোপিযান
কাযગ
নিউইযরকের
হিংসা
বছ
ভকতরা
##মনের
##বদলের
অনিল
বযাটে
আহতরা
বেতনের
ইউিন
বিকশিত
পডেছি
গোছ
যানতরিক
পরতযাবরতন
অধিগরহণ
নাসতিক
সমমানজনক
সমালোচনাও
ইউনাইটে
একাতমতা
বাডিযেছে
যশোরে
শরীলঙকাকে
সামযবাদী
কাদির
রকষণশীল
gov
under
শলকমকত
এতিম
ফাহমি
এনটারপর
গণপরতিনিধিতব
চਜগઝ
উকিল
কઘা
ছিদ
ঢল
লিম
সযান
##োচিত
##কারয
আরজ
শরফ
বযাঙগাল
##দিনা
দাি
##পাটের
##তমখী
রাষটরপকষে
অরফ
##হেতর
শোকের
পরতিযোগী
তোমায
অসটরেলিযাকে
সীমাবদধতা
indirect
হামলাকারীরা
অভিশংস
নবাযনযোগয
শরীলঙকায
োরাববার
শতাবদীর
লাইবরেরি
গছিযে
শফ
##ীণ
##চই
##চিকে
##এলের
##ালট
##বিযায
##বরষণ
দেশই
দরপতন
এলডিপি
বহিরা
মাহেলা
গরেপতারকত
##গারেট
যেতেই
বসেই
তরক
মযলা
উৎসাহী
বাচচাদের
কামরান
দবনদবের
পরতিফলিত
মৌলভীবাজারের
সবিধাজনক
অনতরবরতীকালীন
সটযানডারড
অসমাপত
ix
vis
টযাক
সকেল
##ভরি
পারলেই
কারিনা
##কাপ
আহাদ
হাতা
তলেছিলেন
মনট
রিহ
বানান
রপচরচা
যদধবিরতি
গারল
##চেতনতা
মঞজরল
আনিসজজামান
করোযে
জমিরউদদিন
মারকেটিং
বলকবাস
সকােল
viii
গઝােম
village
লযাবরেটরি
##িনক
বিশর
পাললা
এনফোরসমেনট
মরমে
লোকসভা
মহানবী
সংসথাগলো
পোশাকশিলপ
পরকরিযাকে
জমিদার
অশভ
কষণন
ভেনেজযে
20
##বিনে
##দীতে
সমার
কষটের
পরযাক
ভমিকম
গঠনমলক
খরব
চরমপনথী
সমদরবনদর
সমদধি
লঞচের
ইযরকের
সংবাদমাধযমে
ঐকমত
উনমাদ
কলাকশল
ইদানীং
টাক
রলের
রেইন
##াজল
মহারা
##িজি
মযাথ
জীবনত
বোকা
##মারচ
২৩টি
গারডিযান
মেরামতের
আদরশের
##বারষিকীর
বઘবস
সেঞচরির
শোনেন
অকষয
সথানানতরের
পরহরে
আযেশা
সাশরযী
গণমিছিল
ইরফান
পলিটেকনিক
অণ
##ডবির
##শিল
##ংকে
নােম
সা¤পর
##ডিপির
রাবার
##কতায
শিকষাকরম
অরথেই
অনযতর
ফিরোজা
##সারিত
বোরহান
কালচার
সহযোগীদের
এতই
##সমহের
ঘরানার
সশাসনের
ভিননমত
কাটানোর
রযটারসকে
আরিচা
সবলপোননত
নাটযকার
##ননবী
আচরণে
রাসলললাহ
আপত
থাই
থামা
সাকা
##নানের
সমনের
সংজঞা
মাপ
##ারাতি
বেসট
নামানো
আবিরভত
গাওযার
##ভিযান
বসানোর
##োদয
##ধারায
মজীনা
চেযারপারসনকে
বিপরী
ঘরতে
১৯৮৪
কমিউনিকেশন
বাপপী
কলোজ
মেকসিকোর
পোডাও
##সবরপ
কারচপি
শিকষাপরতিষঠানের
অিভেযাগ
ইনডিপেনডেনট
pop
জলে
সকার
##িতর
##ob
দািব
##তনামা
অবতরণ
কেই
গণী
কযেকটা
উইম
খানম
নিশা
বসতত
ওযাদদ
চাষী
সপারিনট
সংশলিষটতা
ইংলযানডে
##নযনে
এফএ
##মালার
বোলিংযের
well
কারিগর
কাদতে
আগনেযাস
তৌকির
##એ੪া
উদযানের
মসতাফিজ
বযালট
সমাধিতে
পঞচাশ
পরজাতনতরের
গাদদা
মেডিকেলে
আনি
সকে
##াংশ
##সায
##੪র
করমান
##তোরা
নাচের
##বিযান
নেজ
দরভাগ
আলজের
অভিবাসী
১২৭
১১৬
##hes
কলাসের
খেলাটি
##আরসির
বিকষোভকারীরা
বযবসাযীর
দোষীদের
পরতযেককে
মজমদারের
জনমদিনে
সারবকষণিক
সটিফেন
আবেদিন
মসতাফা
বঙগোপসাগরে
কাটাকাটি
স੬াসীরা
সলোগানে
ওল
টানে
ঢেকে
বলগে
একটিতে
রাজতব
কষদে
কেপ
অরথবহ
সারজেনট
জলিলের
সযোগও
শিশটিকে
শিষয
শাযে
ভাগনে
রপালি
সনদরবনে
যতকষণ
আতলেতিক
তারিখের
অঙগসংগঠনের
সিসটেমের
মতযদণডের
নতযানষঠান
মাইলফলক
বিটিআরসি
চডাও
##ormation
গাবতলী
nat
উਅ
গাজায
##ওলা
##mm
##৬ঘ
সামসল
##ডারি
দেশেও
অযালা
জাযগার
##lem
িনহেতর
টযাংকার
বহিষকত
রেসতোরা
হদযের
add
অপচেষটা
পলিথিন
পকেট
লযাম
##ীকরণের
##ভীতি
##৭ঘ
বিম
##তিপরণ
##ালেযর
১০৯
বেশিকষণ
সদসযসহ
বযবসথাও
জাগরণ
পাচটায
সাংবাদিকতার
জামালের
সংগঠনকে
বিতরকে
পশচিমে
ডরোন
ফেলছে
গভীরে
ধবংসসত
অযাডাম
##কানদার
গমভীর
নীড
এজাহারে
তরাগ
ইবরাহীম
শরিফের
সাযমন
বইমেলার
হেলিকপটারে
সকরিন
রোহিঙগা
মসিউর
ছিটমহলের
রঙে
##গঠিত
##cl
##াননদ
##ালযে
মাধরী
বযতিকর
করমপরিকলপনা
সমযকার
জাতের
মযাশ
চারশ
সমপাদনা
কলমে
মনন
মালটি
মনতরীকে
অবিচছিনন
নিরবিচারে
থাইলযানডের
ঝাড
মানবসমপদ
শরীযতপর
উচচারিত
##মনতরণালয
রখতে
পরযাকটিস
##চলা
##চডা
##ছ৴
##ઔল
চেহার
তিনদিনের
পরকাশনী
লিপি
শহীদের
উচচপরযাযের
করিকেটকে
আবেদনপতর
সফি
শরীপর
দীঘ
কযানসারের
সযামসাংযের
নাইজেরিযা
বরাদারহ
রানারসআপ
শরীমঙগল
নাফীস
লাতিন
ছিদদিক
আযাত
##ইযা
উপদেশ
গরীব
ভাবার
চললেও
রহিমের
আবদধ
পরকাশন
১৮৮
সথানীযভাবে
উদযোগকে
এখানেও
সাইদল
##পদক
পাযরা
মিরজাপর
পৌছার
কাটতে
কিউবার
বোধগময
ফাইভ
এনবিআরের
িশਉ
ফলযাশ
সদসઘরা
রযাঙকিংযের
শিকষাপরতিষঠানে
মখারজি
সাতকষীরার
মালটিমিডিযা
অশাল
ইমান
ডজন
ডাকার
দষ
ষোড
##গমন
##ple
করিকইন
বিট
জানালার
কিডস
হাওর
আজাদের
##বিতা
জিপি
ডিও
মিলল
লোককে
##ite
সমাজবিজঞান
বদধিতে
সফরসঙগী
পચায
পચকাশ
পেছানো
মৌলবাদী
রাসতাঘাট
mean
শাহরখের
ছিটিযে
মেহেরন
কলযাণের
কনফারেনস
উদযাপনের
##িশরমিক
অশালীন
চশ
রযেল
সচেত
##ভরা
##ix
নিযাম
##বাগে
সরকারকেই
কষিজ
বিডাল
পলাজায
অরথাত
##েসার
পদমার
সহযোগীরা
ফারকের
সননি
দিকনিরদেশ
সমমানে
ইনসযর
রযাবকে
হসতকষেপের
টপকে
been
অজহাতে
ইযাসিন
দতাবাসে
তথযপরযকতির
place
ইউকরেইন
op
তের
পজার
রসিক
##চকতি
##শযাল
##টাকা
পরবরতন
অনলিপি
মাধ
উপকার
পরশসত
কেদে
মানষে
রাষটরদরো
গলপটি
সষটিতে
পরবরতীকালে
বোঝে
ওঠায
পরযোজনের
উততপত
বিকেএসপির
টেনিস
##stit
জিতলে
ইযাবা
সমদরের
এডওযারড
শোভাযাতরায
সেরকম
সপনসর
শাযেসতা
per
ভেস
শীল
পরিম
নিরসনের
আরম
শরদধার
উততরণ
নিশচিহন
জলফ
আনদোলনকারীরা
পরারথিতা
মরযাদায
তথઘ
গৌরবে
নিবেদিত
পাহারায
ধরমঘটের
টোকিও
সপারিনটেনডেনট
each
wom
##ওডা
##লকে
##গরাহ
##দাযক
##৮ঘ
জননী
##ঙগর
সেবাদ
পরতিভাব
##চিতরা
##যালী
নারাজ
সমাবরতন
লেখকদের
সোশযাল
শোতে
পরণদৈরঘয
তাহির
ধরমভিততিক
চাযনি
ফিফার
সপারিশের
##aper
পরিশোধের
পরজঞা
পিসিবি
শকনো
writing
পিপিপি
তরণেরা
ইজতেমা
কওমি
দরশনারথ
##বলমবী
ছোটখাটো
সোলাযমান
খোযা
বোকো
##ডিকে
##মতয
##বাদীরা
##টরাক
করমসথলে
##িজা
সহনীয
হারাম
বডাই
উইন
পাচশ
পডছেন
কযাথর
শাহজাদ
সমদরসীমা
গজরা
অনশীলনে
বসবাসরত
##বিজঞানী
অগাসটে
িসਤ
ভরমণের
বাংলালিংক
বলকবাসটার
home
ঢালী
লেসন
##ten
করের
উপডে
বরফ
মিগ
##ীকষণ
##মিতর
চাইনি
অযাকট
আপস
খাওযান
করমকরতাসহ
বরাভো
beg
এএফসি
সংগরহে
জবাবদিহ
বদিউজজামান
ইটভাটা
boy
দদেশের
ভাজ
##মতি
##৩ঘ
##সিডিযাম
##োলাই
অনেকা
তাইজল
ফরেনড
তলবে
সতরগলো
২২৩
বনযায
পরসতাবনা
১৯৭৬
সাংসদরা
রমেশ
ইতযাদির
১৯৮৯
##সামাজিক
ষডযনতরে
বাছাইযের
শরমজীবী
pres
পোসটে
##বাসেডর
সপোরটিং
অজহাত
হাউজিং
রিকশাচালক
চিলির
জনসমকষে
##নিবেশিক
গিগাবাইট
কফিন
তিশা
নমনীয
পরতে
দেবো
অনগত
##নিযনতর
কারেণ
আইএ
আইরিশ
উদঘা
১২৮
খেললে
লিগায
ডিভিশন
বকতবযকে
##eng
নিরদেশক
নৌকার
কেবলই
ডাযাল
ভযঙকর
শটিংযে
its
পরাকতন
বষটিপাত
হানাদার
নেটওযারকের
পষিযে
ইচছার
সাঙগাকার
গনতবযে
কারচপির
খিলগাও
সেলসিযাস
বিএসইসি
##পদধতি
letter
কোরবানির
##iety
ভিকারনন
চযারিটেবল
বাহাউদদিন
িবষেয
কব
খনী
জিস
জমান
লগ
##ব৷
##কাজে
##৪ঘ
পরানো
বিসর
##টরের
করমে
এমবি
এমদাদ
কাজই
ধরমা
##জিযার
রাখায
মলধ
পালানোর
নিযমে
দটিতে
লোকস
সেটাকে
সতযজিৎ
হাইডর
নৌপথ
গণমাধযমকে
এসএমই
বরষসেরা
##self
মিডল
সিএনএন
তলনামলকভাবে
সবাধীনতায
ডেমোকরযাট
রাকি
রাকিব
##রপে
##রাবাদ
##জনদের
পেত
শেখের
খেললেও
জীবিকা
অযাশে
মামলাও
জলম
##দাযিতব
আনোযারা
start
োদখা
সবেচছা
মরযাদার
অবহেলার
অভযতথানের
বিরতিহীন
বনদকযদধ
দশচিনতা
অবা
রিম
োহ
##ডিসির
##পশন
##মাম
##বীন
##রান
##ছডির
##াতম
##টারির
##মেয
মেকার
##বেশি
পরসেন
রাতারাতি
##যাসিক
নিউক
বাকিরা
পৌছেছেন
করণধার
এসএসসিতে
থরিজি
হাফিজউদদিন
পরভাতি
কযামেরনের
পষঠা
পযানেলের
োবামা
##odu
টরানসপার
উদযোকতারা
ৌব
উপারজন
িবেরাধ
নাযেবে
আখা
ফসফ
ভোগান
মেনড
##ম੬ী
##ভমির
পরনে
পারের
পেਉ
বহদ
সোযান
শকরবারের
লৌ
কযাচে
মসললি
তাজরীন
without
সীমানতবরতী
অযাকটিভ
পরতযকষদরশীদের
এলোম
resp
বযতিকরমী
পরতিভাবান
জেরা
মাক
##বযাক
##শাদ
##ককষে
অনদানের
##বরণের
সরি
##চিতরী
শিকষানী
চললিশ
পরসাদ
গণভো
চেযারে
রেখেছি
চাঙা
কযাশা
বিনয
চিতরশিলপী
পণযবাহী
সেনাবাহিনীতে
১৯৮৭
বকসে
তানিযা
বাগানে
তণমলের
জলাশয
ঠেকানোর
ফলযাটে
ভালবাসা
চনদরা
ফারনানদেজ
সিনেপলেকস
বিপরীতমখী
gl
এলাহী
চઓ
সানত
##ভজ
##ਉઘ
বিচরণ
##পিটাল
বেডায
পরেসিডিযাম
শিলপকরম
শিশটি
পোষ
বানধ
কেরন
অগরযাতরা
ইরানি
নাজমা
আরথসামাজিক
##গলির
আহবানের
গাইবেন
##বোরডের
গিবস
এজাহার
বাগানের
অযামবাসেডর
হোমস
হাবীব
ফসলের
সামরাজয
কথাসাহিতযিক
##velop
ইজি
গচছ
ধযান
রেন
##মেনটে
করছিলাম
সােল
##লোন
জিবি
সমপাদিত
ফেযার
দিলশান
১৯৭৭
লালবাগ
রংযের
ফাইনযানস
খরচের
সইডেনের
ফেসটিভ
রাষটরদতের
পরতিনিধির
আলোকচিতরী
ককটেলের
org
উদীচী
অযাডিলে
উসকে
এযানি
তাসক
ভমির
মণাল
##পষঠ
##চনে
##ানতের
অনচছেদের
##িমল
হোসেনসহ
পাশচাত
অভিনব
উপসথিতির
ফরযা
হে੧ছ
জীবনযাতরার
আযোজকরা
নৌবাহিনী
মজিবের
বযরথতায
##ফিলড
১৯৮৫
সবাকষরের
পরচেষটার
ভগছেন
ফটবলারদের
কৌশলের
মলযসফীতির
খযাতিমান
জনপরতিনিধিদের
ডিএমপি
বহিঃপরকাশ
ঐশবরিযা
িবেশষ
হরভজন
ইউনাইটেডের
cult
জং
জির
পপি
শিক
##মতের
##ঠক
##িকসের
সাহার
উপিએઐ
সিচ
আইভী
##দাবাদ
দিব
যোগদানের
এমনটিই
##েরাপি
##উনট
চলচচিতরটির
আনদোলনকারী
##ঙকন
একটানা
জারমানিতে
কংগরেসে
পযাভিলি
োদয৷
কাতারের
টেনডলকারের
গনতবয
জোহানেস
কীরতি
হাদিস
হদরোগে
হতઘাকাে
ফযামিলি
সপিড
সারথক
##ri
##br
##ডেস
মেসে
বরজ
মাসটারস
বিদযৎস
সটলে
সমপরককে
খাদযের
িনরা
তরিশ
বদলির
দোহাই
এডকেশন
ইফতারের
জবানবনদ
পরতযেকেই
হারডডিস
নিবেদনের
সেসময
গোসল
হাটহাজারী
নীতিনিরধারণী
অরফানে
চবি
জোলি
পযানট
পচাত
মরিয
##িনিং
##ষঠিত
সরকারবযবসথা
সহমর
কেআরসি
বসবেন
রকষী
অবসথাতেই
তরঙগ
নাজনী
অংশগরহণমলক
##করমীর
বলিউডি
মনতরিপরিষদের
ঊরধবমখী
কমপলেকসের
কিসতি
উভযের
রোস
িট
##োৎস
এইডস
নিরবাস
মাশল
পারিশরমিক
অসপষট
হােত
অনষঠানমালা
সংখযাও
সনতরাসবিরোধী
তরকি
##own
দেবনাথ
শিকষামনতরীর
##িনিরভর
বিসিএসের
ফিকশন
উপলকষযে
রেসতোরায
ষোডশ
এলোমেলো
চট
থিম
বাজি
##গলপ
##খলা
##তাততবিক
দেবা
সাধয
সেগন
##দরবয
বেহ
গেইট
বাসটির
পরিচযে
আশঙকার
মারশ
##াপাডা
হেত
জলাইযের
ধরমপরাণ
ভোরের
ফোরামে
ধবংসযজঞ
পারলামেনটারি
পজিবাজারের
কাদানে
develop
ঈশবরদী
ভৌমিক
ছেলেমেযেদের
repl
এজলাসে
মোগল
িবএনিপ
এজেনডা
আটে
ওযেন
ঘে
দ৹
##পরতা
কোটায
##টকি
গরিস
সিডন
বিকরম
১১৭
দশযের
শতাব
অরপিত
এনএস
লাগাম
দরনীতিবিরোধী
##বদধি
বযাটসমযানকে
বোঝাপ
উততাল
মানসিকতার
হাকিমের
উদবেগজনক
রাননাবিষযক
শানতিন
বিবরণীতে
অবহেল
অচেনা
অধযযন
মসতিষকের
education
গওহর
মযাশএ
ভলাদ
শশী
##জবল
##লন
##দবার
##কেশ
হাসির
আবাস
বহতল
ইনটেল
শাহে
##গেয
##ors
বিশববিদযালযগলোর
##শিযাল
নৌমনতরী
খোকার
তেতল
একাডেমিতে
আকতারের
বিজেএম
সবলপদৈরঘয
suit
দবীপের
রাহমান
এগোচছে
এমনিতে
মসতাফিজর
আলেম
নিঃশরত
কযাথরিন
নযাম
ফিশ
লন
সফিক
##মনি
##fore
##যাপত
##াকষণ
মাধઘ
মেক
##নদদিন
গতান
আশফাক
হোসে
ইনদর
মখোপাধযায
বসতিতে
হাসানকে
##lect
পিছনে
ঘনফট
পণযে
োমাহা
হাফেজ
োপચিসে
five
ke
অটল
আডি
ইযো
এআই
সেরি
সিযাম
##পড
##মিযা
##যাহ
##াজীবন
##পরাযণ
জানাজায
অনার
বযঙগ
মোত
আইপিএ
মতઓ
দশটি
পাচজনের
##িদন
এনিযে
জানাচছে
ততটা
সটডেনট
তদনতকারী
কনড
##এইচবি
কাদেরের
সংসকতিমনতরী
##াজনিত
মনদিরে
খোকনকে
ভোগানতি
অদশয
পরাঙগণ
পরজঞাপ
মমবাইযে
আমলাত
গোবিনদগঞজ
পাউডার
গেরিলা
ঝালকাঠ
call
dec
ঔপ
সাস
ਊরઔ
##িবদઘ
##ষગ
##২ঘ
##াকেনদর
দেহে
আরটস
##ডেক
কমবেশি
হাযাৎ
মারেন
শহরত
##বেরি
অপকরম
হতেন
হানাহানি
আডাইটায
আেযা
ঝিনাইদহের
বেইলি
সঞচালনায
নিরাপততাকরমী
পাঞজাবি
মনসীগঞজের
সভযতার
িবশੴিবদઘ
ভোটকেনদরে
সহসরাধিক
দরপতনের
টরানসপারেনসি
গতানগতিক
এলাম
কলিং
নকষ
ভিট
রনা
##ফাদার
##১ঘ
পরিনট
##তরো
নিযাজ
বযাকরণ
পরথমটি
শনির
শরমিককে
কোরআ
সথাপতয
জনপরিযতার
ইউনসকে
আকনদ
চযালেঞজের
মিউনি
সনামগঞজের
নীরবে
অকষর
বিআইডবলিউটিএ
prep
সাঙগাকারার
best
নট
বনায
##পাই
##ভরম
বলম
মানসমপনন
দরবারে
##োলের
##বিরতির
সারজন
বারো
অপরাজ
জোনের
বিলমবিত
মজিবনগর
সাদিক
এরশাদকে
সবসতির
রাববী
##oney
থারড
important
made
ওরে
দসথ
পাম
রমান
##চকে
##ভিকষ
গরিসের
উদাস
বরণের
আশিক
নয৷
লিবিযায
ছাতরীকে
টরেনট
সাতটা
ছোটবেলায
চাচছে
ফারনেস
সফরসঙগ
যেখানেই
মনিপর
োজলার
সষটিকার
চলাচলে
সকাউট
থরিলার
জাগরত
সিদধিরগঞজ
সংগীতায
came
went
লযানড
##দদের
##ইযার
##ik
##বেষী
অনরপ
##গলোই
১১৮
বিষযকে
গাফিল
অপরতল
দাযিতবও
জাহাজে
ততীযবারের
মালিকরা
গহাযণ
সনদেহের
দিযেছিলো
অনষদে
নওগার
কলিনটন
সবরণপদক
বদধিজীবীদের
নিঃশবাস
ঐকমতয
ইউনেসকো
বডিগঙগা
ডিআইজি
জৈব
ডাযাবে
nec
বঞচ
##সেলর
##যেছন
একসট
মহৎ
আশীর
বহমান
ছাতরকে
শিকষাবযবসথা
##েকশন
১৮৬
ঠিকাদারি
সৈনয
সাইক
বিরোধিতার
মঞচসথ
বাধায
তামিমের
মনদার
মদন
পেনশন
বামপনথী
একাদশের
আলাপচার
োপৗ
মীমাংসা
চাচাতো
ple
গলে
হরণ
##cc
বিও
##যারী
##নেই
পরিবরতনে
নিরগত
##নতন
উদবতত
কিছকষণের
##সংগত
আতমহতযার
সমালোচিত
নগরী
বিরোধিত
চযামপিযনদের
দারণভাবে
টরাইবন
নিরবিঘ
খোলামেলা
কনফারেনসের
পরমাণের
বিপিএল
কেলেঙকারির
ঘটার
চন
শেক
##সিযা
জনমে
সরোত
সাফা
যেতেন
কাপরের
মেদ
বিশবযদধের
মহার
বরাযান
১১৯
গরেফতার
োচা
জেপি
২৩৩
বানচাল
সফলতার
এমএইচপি
দিনাজপরে
অিধ
মেহেরপর
sentence
রযাঙকিংযে
ইদরিস
##পারটমেনট
দরাবিড
বাসতবস
পিএইচডি
শতাবদী
ঔপনিবেশিক
ইমার
##যদধে
##শপ
##air
পরাসত
অনকলে
বহদিন
শাহনাজ
পনথা
জনমদিনের
সবাসথযবিষযক
পেশোযার
লিখেছে
পরথমা
ঐতিহযের
##ফেযার
ভাংচরের
পরচলন
ডেভেলপার
নিরবিকার
লারজ
অবযবসথা
কোটালী
must
টরযাজে
নেলসন
given
জলফিকার
ভলাদিমির
net
আকষ
টঙগীর
তিকত
ষোল
##ਡੴ
##ানন
পরন
একনেক
##িযেট
তারণযের
পারবতী
করমকষেতরে
এসো
হাসযকর
উদভত
মততিকা
অবির
যোগান
নারস
অপরী
পরণযনে
told
সবাসথযের
##কলিন
খেটে
অনতরে
কলপলোকের
সেনানিবাসে
বেশিরভাগই
মারকেটে
intern
মধযপরাচযে
মালদবীপ
সবজনেরা
এিদেক
খেসার
মઘা
মচডে
##হতির
অনসর
আরএস
নামটি
১১১
##মিটার
পরিসকার
শিখা
মরগান
রাযান
বাইপাস
উননযনমলক
চকতিটি
গলপকথা
ফারাক
মজলিশ
টকরা
অযাপটি
পৌছলে
গহকরমী
রেকরডিং
রাজনীতিকে
যনতরাংশ
রবীনদরসংগীত
দষটিকো
রসতম
সখের
অনসনধানের
োজলা
আনতরিকতা
আইসিবি
হংকংযের
এআরএইচ
জেএমবি
সেনাসদসয
শিরোপার
##stitution
অরফানেজ
replied
tre
##সাপে
##ইউজ
##੯দা
সরমপ
##মেইল
তবেই
ডিপো
মিলের
শোকা
পরযোজনার
৪৫০
##ালিব
জেতেন
জাতিগত
২৩২
##ased
বসেছেন
বাকশাল
আকমল
দমডে
সবারথেই
পরযোগকারী
দোষারোপ
ফরমলা
পরতিবছরই
এমএআর
কলারকের
ফতললার
অনদিত
অরধেকের
এিট
সিকস
িত
##লীতে
##অযানড
##বরগ
সেদিনের
আইএল
গণযোগাযোগ
সপট
##াজেয
মসকোর
ওযাহে
কাননায
বদলা
কপালে
ভগছিলেন
আফসারল
family
আনগতয
মাচગ
বাসতবসমমত
অপরীতিকর
ঝো
নদের
পযারে
শঙখ
##সযের
##সাধ
##কযে
##নেছা
নেযায
সাথী
পাটো
##রিজ
এসেই
বযাচ
মিহ
হাসিনাও
জাবেদ
##ধাও
বিপাকে
কেনদরবিনদ
পরতিষঠানগলোতে
োছেল
##মতযর
খেলোযাডকে
কবিরের
পরেমিকা
জাপার
##সামগরী
টোযেনটিতে
লটপাটের
োক੯দચ
এএপি
মহললার
পরবাঞচলীয
আনতরিকতার
কযালিস
নথিপতর
ফাহিম
নাশকতায
ধমপান
টযানারি
কারযকলাপ
পরামরশে
লৌহ
des
অতল
পামপ
ভোকতা
তারপরে
অনাস
সাউনড
জানাননি
বাসস
##ডারস
সাধারণভাবে
অপরাজেয
বিপদের
গরামবাসী
জযসচক
সটরা
পনরম
##চরচার
দেডশ
করিকেটারের
১৯৫৪
মেহরাব
গরাউনডে
ছেলেমেযেরা
জনসমরথন
ইউজিসি
অবએઐায
পাগলা
মাদকাসকত
article
xii
চিলি
ঢিল
সজিত
##োয
পররো
বিচছেদ
##ালযের
##াজডে
##ওযালের
পরতিও
##hen
চারের
বনধতবের
ডিআর
মিলছে
বইতে
মনোবল
জরডান
কষিপত
খরিসট
কোমপানিগলো
সতযের
##ঘাটের
সংকীরণ
োগઝফতার
কামারজজামান
করিসটিযানো
way
আদা
নসরা
বাজা
##মঞচে
##গোর
সংবেদন
পরিব
কমির
চলি
##শিপের
##াধিকার
উললাস
চাইলেন
অযালেকস
পরিবেশনায
ঘটনাগলো
সকালেই
ফেরায
কযাফে
ডেভ
নাগরিকতব
ভাঙতে
সোহান
হাযদরা
মোরশে
##বাজির
ঢাকাই
বেদনার
হামলাকারী
##গাছের
আবরজনা
জিএমএ
বহিরাগত
অলক
টমাস
লাম
##বপর
##গেন
##টিনা
##ফিনের
##ઓর
বলতেই
অনপাত
দেশজ
মিডিযায
ছাতরছাতরী
ততকষণে
পরববরতী
অপপর
into
কোরসে
নিরবাচনেও
##ভেঞচার
চাষা
আতমজীব
তাহলেই
উঠলেন
পররাষটরমনতরীর
বিকেএমইএ
কানায
##কিংযের
rel
চরমপন
সিপিডি
পরতারণার
বিশলেষকরা
সিংহভাগ
বিজঞাপনের
সদিচছা
আগনেযাসতর
পরসেনজিৎ
হারডডিসক
নাজনীন
18
আডা
উধাও
টিনের
তক
বালা
সবাচ
##পਡ
##উইন
করজ
##বারগের
##দধি
মাননার
দরনত
মেধার
##সেদ
হারিছ
পাশা
সমপাদকীয
ফিরলে
ভেজা
যকতরাষটরকে
লকষযমাতরার
নিউকল
ডাটা
নোটিস
বোলট
যনতরের
পযাসেজ
তৎপরতায
বেনজ
অশানতি
শোভাযাতরার
বিধিমালায
সইজারলযানড
রকষণাবেকষণ
নযাপলটনে
তািলকা
মাঝমাঠ
থামাতে
bet
gu
ঝিল
মলে
##ডিক
##ধনিক
##শহর
##sion
নিপণ
জনাইদ
সরানোর
পরিধি
সবশেষ
দিনও
দিনম
চলনত
অভিমান
বডপক
যোগসাজ
জাগে
সিরাম
পডবেন
##ank
##itt
লাইবরের
রেলমনতরী
পেরেছিলেন
জিতবে
সমপকততার
নাযকের
অনপসথিতি
তালেবানের
পরযবেকষণের
দবীপে
জিনিসপতর
কটকতি
চিলডরেন
উজা
পকেটে
সালো
##পদে
করদি
##তরক
বাঘা
##রেক
পরতিভার
মোদীর
দরজায
##াপটি
##শেডিং
ফেরাতে
কনক
##িউল
হাইকমিশ
সবাধীনতাবিরোধী
ফাউল
৩২টি
বযযবহল
পরীকষারথীরা
১৯৬৯
পাতানো
going
তাহেরের
আইডিযাল
সাংসদেরা
োশষ
পরসপরকে
এগারো
রোহিঙগ
পেটরলবোমায
পনরবাসনের
পরিচরযা
টটেনহযাম
উরধবতন
িনরাপਡ
give
আচার
ঘের
নগন
লাযলা
##জেল
##গনে
##ককষ
##োনি
##িনসন
করেল
বলাই
সেবায
কাচের
বেসিস
কেনাকাটা
##পেਉ
মনোর
ছবিটিতে
নিশচিন
গডেছেন
মতযবরণ
সাইড
নিরভরযোগয
খোকনের
নৈতিকতা
neg
পষপ
শিনজো
কেলেঙ
সসমপরক
লোডশেডিং
আচছা
কিযে
ছডানো
থমকে
যথা
##লাসহ
##ভাসে
বিমো
বাযে
##মানড
মাধব
সবপনে
রাউজ
একটির
মানচিতর
##নধন
##সিডি
আইবি
##বলমব
ইসটারন
সংসকরণে
কেযা
কিছদিনের
চালালে
অনযকে
বনধকে
২০১৭
জলসা
ফরনটের
তদবির
সটযা
অযানিম
ভটভ
ঢকিযে
ওষধের
অটোরিকশায
পকরের
অধিনাযকত
উপমহাদেশে
এনটারটেইন
আবশযক
পরোকষভাবে
সংকলন
বরযাকের
id
ঠেকে
রসল
সাইকেলে
##যতা
নিরধার
রাবে
মেঝে
এমিরে
বছরগলোতে
সভাপিত
ইনামল
##শনিক
জলজ
বাহলয
মরিন
গণতনতরী
নরওযের
জডিশিযাল
জোটকে
##aking
মোতাযেনের
শৈশব
আইপিও
যোদধা
বেলজিযাম
পরতগালের
took
রোকন
উততেজনার
রঞজিত
ফাহমিদা
আবাদ
উেদ
খাজা
জলের
টল
##াতা
##ডગ
##মনদ
##কাস
##োনা
##যাকস
নিযা
অনযাযের
কমলেও
পরধানদের
আদিতয
পাঠদান
অপরতযা
জীববিজঞান
গিযেই
হেমা
সকলছাতর
##ভেজের
সৌজনযে
মানবাধিকারের
শনযতা
##পরযকতি
অনসনধানী
ফটেজ
মেহেদি
বাতাসের
become
ইপিজেড
অসতরোপচারের
বিছানায
wal
অরি
কচি
রথ
োসে
##চট
##ved
##joy
বিই
##এনএস
লিঙগ
আনষ
শিকষকতা
জযনত
জযলাভ
ফটিক
২৮টি
২৭টি
উপসথাপক
হইচই
কাপাস
##বাডীতে
বরেণয
কযানসারে
সઃপাদক
ইহসান
পনরবহাল
বযাটালিযন
ইবতেদাযী
care
##ইউর
সমদরে
একীভত
##রেড
নিরগমন
২০৩০
সকলার
##সিভ
দিনগলো
ধরলে
বৈরী
গোডা
##াইনড
পরিবেশবানধব
গোলদাতা
বসবাসের
পোহাতে
##ited
##বালা
চিনতে
তারেককে
সারভিসেস
অযানটি
prop
ফযাকট
##মিরাল
বেনজির
শকিযে
ইযারড
অভিশাপ
ইনভেসট
মযাথিউস
সটযাটাস
উসকানিমলক
জোগাড
ইনসযরেনস
সবাচছনদ
কলের
১টায
##ীমার
##শনা
##ves
##টিযায
মাউ
রাચ
বাংলাদেশিরা
জানান৷
পেইন
পরিচযের
##দেহী
হামাস
নেতানিযা
১৪৭
ছেলেটি
কারযকরের
লাগতে
৩৫টি
##চলিত
বিললাল
##চাডা
নোংরা
সিরাজগঞজে
অপরিচিত
সখবর
নাফিস
আরসেনালের
মালদবীপের
কোমপানিকে
োমাহাઃমদ
necess
জলো
##ਉণ
##োথ
##যেদের
##তাহ
আরনত
রাখন
##োলন
হাটা
বিকট
আযতন
মালয
সটরে
##মারকের
শৌ
বনানীর
##াসথল
চলাফেরা
উপাচারযকে
জমজমা
##ফেরাত
ভিডিওতে
bel
সেদিনই
চতবরের
সবরণাল
অভিভাবকরা
কাউনসিলরদের
অতযাধনিক
দৈরঘ
সিনডিকে
টেলিকম
অযামবলেনস
নজরদারির
মাধઘেম
কেলেঙকারি
জমজমাট
উপরি
খড
গাম
পনের
মাজে
##িষণ
বিমস
##বেসে
##ভাডা
##বরিজ
##ওযাচ
সেদিক
হযেছে৷
তাআ
পলযা
দিনটিকে
সংবাদে
আমাদেরও
অসট
##ধারণের
বকততার
উততরার
তথযসহ
গোলযোগ
রাননার
##সারে
বযাংকটির
২৩৫
বসেছিল
পরসততিমলক
নযাটো
মিলনাযতন
তথযে
বাজানো
উততরাঞচলের
বরগনার
সিলভার
ইযাসির
রাহাত
মঈনল
সিডিএ
উচচবিদযালযের
উদযাপিত
এআরআর
গণসংযোগ
কফিনে
through
ঘেষে
বিসরজন
ওসত
রচনায
##আডি
##ust
কোক
কোহল
হবে৷
##টেজ
কাভার
এসই
দেখেনি
সকটিশ
##বযকত
বহবার
উততরব
##হাটি
বাংলাকে
মরকেল
লেজ
২৩৪
উঠলেও
তরণীর
সীমানতর
##মাতরায
পরশিকষিত
খোজার
নিষিদধের
সবরপ
সংরকষণে
এজেনসি
##পরেমীদের
মাগফেরাত
ইজতেমার
শাহাবদদিন
রেললাইনের
োপચিসেড
কযেত
মযর
সতবধ
##সমপদ
##গনের
##ঠার
করেছ
কারোর
##কাঠি
এরপ
একটিও
শেখা
গণা
বাহর
সাতকান
পনথায
খাচছে
সংসথাকে
দরশকেরা
সাজিদ
পরকরিযাধীন
আজিজর
মেনেই
##বারষিকীতে
তাডাহ
গরনথের
িদেত
কযামেরায
ফরানসিস
উপনিরবাচনে
নযানসি
কিডনি
আমােদর
king
অઘ
খটি
গঞজ
ডযাপ
দদিনের
বদধা
রী
শায
##সাহ
##ণিত
##গাস
##োরের
আরপি
কষীণ
আইভি
বেগন
ভাতি
দইশ
##পারের
সামষটিক
##রণীয
সাংবাদিককে
সংগহীত
বাডান
শিলপকে
এনপি
পরবশ
বিসতর
উৎপনন
##এফসি
##কষেপণ
ভযভীতি
কঠোরভাবে
তেলবাহী
হেরেছিল
সততার
অযানডি
গরাহকেরা
সীমাহীন
হতাশাজনক
মোটরসাইকেলের
কলমবিযার
here
ফখরলের
সઃপেক
বিজঞাপনে
জালিযাতি
গরীষম
গাযিকা
আসবাবপতর
দৌলতদিযা
আডাআডি
last
put
এলেই
ঢালা
মং
হাহ
##ডবি
##বীদের
##ভোট
##ালিযা
##তিযা
##াসতব
পাটক
##যানডিং
##বসতর
আগত
এসিড
সিট
এলাক
অনেকবার
পরিবেশবাদী
ফিরছেন
anim
রিটের
গলফ
সংঘাতে
খাতনের
ডাকেন
তেহর
ইমামের
কটাকষ
ওসমানের
এরইমধযে
ইযাফেস
জটিলতায
##কেনদরের
অধযাযের
সবযংস
নিরবচছিনন
মহাসমাবেশে
কনফারেনসে
পষঠপোষকতা
বরোকার
সতীরথদের
মযানডেলার
##শিলপে
আরনতজাতিক
এদিক
ফাহি
লতা
সলাম
##সটা
##কটের
##ভকতির
##ছবি
করিশ
নিতাই
অনী
মাে
##াহীন
অবযব
হোসনে
জাযেদ
তাইওযান
বাডলে
সযোগের
সালিশ
কালার
লেডি
জাযগ
এতটক
##রষিক
নবগঠিত
টরাকচালক
জমম
বোমাবাজি
উদদেশযপরণোদিত
মেঘলা
short
সংকচিত
ইনডিজকে
অবিচার
গণিতের
##ছল৷
নেইমারের
অযাঞজেল
টিউনস
বিচছিননতাবাদী
পনরগঠনের
উচচশিকষার
রেসিপি
নেজামী
দষটিকোণ
উজাড
জলোচছ
গজার
নিকা
শরা
##হরিক
##সময
##aw
##ren
##ty
##ানদি
নেডে
##ীযান
কোপেন
বিশবসত
কমবো
##িযামে
হাসনাত
পেড
ঢাকাকে
ভাঙে
বেশী
##ানোযার
##ীরাও
দিতেও
সমাগম
inv
পোড
অফসপিনার
বানধব
রপগঞজ
##সিংযের
ভালোবাসে
৩৬টি
পরতিবেশীদের
পিডিবি
বઘিਡઙ
tele
গেমসে
উপেদা
নিঃসবারথ
রেজিসটার
ডরাইভার
##ચাਮ
পযাটেল
োভাটার
ওমরাহ
পাথরের
মতলব
কীটনাশ
আলটিমেটাম
চযাপ
চরণ
চনন
ফতো
রিদ
সযানড
##মাসে
##ress
##khan
##੧চ
অনতি
এইড
পাণড
মোমবা
##পনিক
রহমানও
উইং
পথসভা
সযোগটা
নিতেই
##োপল
বোঝেন
অযাপস
##ided
সারবিকভাবে
নীতিতে
১৯৬০
বઘব
সমমিলিতভাবে
কেরেছন৷
মোকাবিলার
years
সা¤পরতিক
কোপেনহে
fal
mon
ob
কডাক
নডাই
পদা
বখা
মযার
##ােরর
##হক
##নক
##িফ
##দગ
বিমল
##কষায
নিরীকষার
উপতয
রাফ
শরবণ
##মেটিক
অবধি
পলিশসহ
১২১
ভিডে
ভাগযের
before
উডড
এডানো
পতরিকাটির
সাকষযগরহণ
কবরী
হিনদস
ধানমনডিতে
হিগ
ইলেকটরনিকস
আজিমপর
কেমিকযাল
ঝকিতে
much
ইকোনমিক
করমানবযে
suitable
আশীরবাদ
সবযংসম
তেলে
রচনার
সখে
##উকের
##তীয
##aut
##ਟর
করআন
বিদাযে
##পরবাসী
##বিভাগ
পরতিবারই
##ালেই
বযকট
সহনশীল
##পেজ
সালেও
##এমের
মামলাগলো
##তযয
##াবদধ
পরিসথিত
##পকালে
জনসবার
অপেকষার
খাদযশ
সানজি
জামালপরের
বলিষঠ
তিউন
লকষমীপরের
পিকেটার
বরাদারসের
নৌপরিবহনমনতরী
বজলর
মহাসাগরীয
ফারাহ
ইবাদত
পযারেড
bus
অকত
ততো
লণ
শચ
##ডেল
##পચ
##াসফল
##াজনের
##কষয
সােলর
কারস
##াপী
বেহাল
আলোডন
দাবিদার
তৈরী
শিহাব
পানীয
মনোযারা
সটেটের
চযানসেলর
উপসথাপিত
##amm
ভিননতা
story
তরিপরার
ভইযাকে
সাহাবদ
দরবযমলযের
কেরেছ
সাজাপরাপত
বদরল
পিনটর
পরানতিকে
উষণতা
society
উতপাদন
করইফ
এলিজাবেথ
খেসারত
অহেত
ইলাহী
তচছ
পক
সতা
হচছি
##দহ
##get
##sh
নাডা
রাজযস
মহাদেশ
বিষযগলোর
আইনপরণে
তোপ
মনষয
জলবিদযৎ
বোরো
মারচেনট
যেনো
এতগলো
##চযযাল
অধিদপতরে
অগরহণ
পৌছতে
গহাযন
কিলোমিটারের
ইযাং
ডেকেছেন
আরএআর
পতরিকাটি
হজম
পরজাপতি
গরাফিক
পরোগরামিং
সবৈরাচারী
উৎখাত
পডালেখা
কোসটগারড
আখাউডা
সઃপেকગ
mod
হটিযে
##গাজী
##শেনর
##খনি
##সিও
বেযে
ধরবেন
অসৎ
জিহাদের
##দারহাট
সিনেটর
মযাচই
পেযেছিলাম
শনলাম
করিডোর
ওযাকার
জামাতের
আসামের
##ভিশনের
সনাতন
দিকটি
পনরবযকত
জেনারেটর
দঃসব
করমচারীর
##akes
ঘাটের
পরতযেকটি
মহিউদদিনের
সংগরামী
কিমশন
দরগনধ
ভেনযতে
গদাম
অসবসতি
োলাক
সলিপে
োগেছ৷
##জগতের
আওতাধীন
ওঠানামা
অপরণীয
অহেতক
ইযাক
উਡ
ডবর
পটিযা
লাদ
সলে
##ডত
##পদসথ
##বચ
##ঙের
##ઈপ
সমবনধ
##বিএল
##ালেব
পারো
দেশনেতরী
শরদধ
রাজর
দরজার
থাকলেই
ভাঙগ
পলিশও
মযাট
দাযবদধতা
দাযমকতি
ইনসর
লিভ
শিকষাবরষে
সরবজনীন
গানগলোর
১৮৭
হযেছিলাম
উচচা
গলপটা
বিমানবাহিনীর
##ions
নৌপথে
তেহরিক
বেরিযেছে
বিধবংসী
সাধনা
জেনেছি
enjoy
এএইচএম
কলমবিযা
মনোভাবের
পরদানে
অনাযাসে
aff
কলিযার
ফরাশ
সিকরেট
খাইযে
পরজাতনতর
রকতকষযী
ইযাহিযা
উনমোচিত
away
বাংলােদেশর
ফাহিমা
farm
কভার
কডিযে
খরশ
দযার
লটের
সোল
সদা
##পদী
বিএসসি
##কেশনাল
নিরকষ
কমই
মোদিকে
##ওযারডস
দাযভার
ইনচারজ
লিপ
সালেই
তলেছিল
ছবিও
চিকিৎসায
সনদের
সমসযাগলো
কষমতাচযত
সাকষাতে
সবিধাবঞচিত
অযালান
আকডে
##urn
দষটিভঙগ
আতমা
সনদেহজনক
তামাক
রোডম
ইলিযাসের
বসবাসকারী
পরবাঞচলে
নেপালে
cont
##তপরব
পদোননতির
পরতযেকে
ঘোরা
নীলফামারীর
োচৗ
কলাইমেট
কনটরোল
অনতরভকতি
অেনক
টযাকসি
দিকনিরদেশনা
িসਤা੪
অনেকাংশে
দেবাশীষ
আতমজীবনী
false
সবযংসমপরণ
cle
উলামা
মনী
মিতা
োমে
##সড
##িনদর
বিপিএ
##তাঙগ
##কারা
পরধানকে
দরগম
পেতেন
নিরবাচকদের
সহা
আলোতে
১৯২০
১২৯
বিকেনদর
ইনাম
উততরপতর
ফেভার
শিষটা
##বোধক
##বোধের
সদরদ
দরতগতির
মকতিযদধবিষযক
চাদপরে
৬০টি
ভালোবাসেন
উপরনত
সততরের
##মণডল
নিরপেকষতা
তরিদেশীয
কযারিবীয
তৌহিদ
exam
হাওযায
পাদদেশে
সলিমললাহ
সনোডেন
ভেটটোরি
আপততির
ভেল
ভযের
হীন
##ject
সংজঞ
##নাটক
কাটে
##নতব
কষটে
দেখলেন
সাংঘ
##শিট
পালাব
##ink
তলছে
##ধারীরা
আযোজকদের
##মরষ
২৬টি
আফরিকাকে
সাদদাম
বিবতির
৩২০
সেটিই
proth
সদঢ
টানতে
নিমনমখী
মাওলা
অনভতিতে
দকষিণাঞচলের
##বিরোধীদের
খলিলর
সবাযততশাসিত
নিকোলাস
morning
ভিকারননিসা
অবহেলিত
মযাশএবল
অগরহণযোগয
prothom
hum
ser
আলেকস
মেখ
##গਙ
##ইস
##ানকারী
সমতল
নাবিক
##টকর
দরলভ
সিগারেট
নামছে
আমিই
##কাশন
১২৬
সদসযসচিব
দাযদাযিতব
these
অযাসিড
করমসচিকে
##শালার
সংশলিষটতার
টেকস
সবরাষটরমনতরীর
বযসসীমা
রাশিযায
ঘাটতির
আলোকপাত
জাদঘরে
ইফতারে
মেটরোর
সপিনারদের
শানতিরকষা
ঠেকানো
উপকমি
নিলামে
নাশকতামলক
বিআরটিএ
মেলবোরনে
##ize
শঙকিত
তডিঘডি
ধামরাই
হেরাথ
করিকইনফো
করিশচি
আেরা
ফতে
বানো
বਡઙ
##চো
##িকাল
বিলা
সমকালীন
বাশের
বলগের
অনবে
সরকষিত
এসকানদার
দেখল
সকমার
এমরান
বেচাক
##িমত
ধরব
আশগঞজ
বৈর
##ঞচের
লিবিযা
মাসদর
জিযাও
পরাবনধ
##কোপ
ফারহ
সদসযরাও
পরযোজনীযতার
িবভা
বরষবরণ
বিধিনি
কাটান
সমপরণভাবে
হোচট
##বিনযাস
পেসারদের
সেরার
দততের
verb
অসহযোগ
শিবগঞজ
ৌতির
উপকলে
বাডাবাডি
পাঠযবইযের
মহিলাদের
money
আলেক
কপাল
ববিতা
শভাগ
##কলপ
##কামী
##খর
##খিল
##৯ঘ
##েনডার
বাকে
দেউলিযা
নেক
##েষটাই
##কাটন
আহেম
##ঞজলি
##চেয
কেনিযার
বযবসাসফল
গণফোর
মারমা
চারপাশের
ছাতরীরা
১৫৮
##ফরনট
##হাউস
মালবাহী
ফলবাডী
নরননবী
##বিধানিকভাবে
শকতিতে
বোঝাব
জঙগিবাদী
শরীক
##বিশবে
পরাককালে
আলাপকালে
জাহাজটি
কারাদণডের
এতোদিন
বকষর
মেগাপ
তাসকিন
উপিએઐত
ওসতাদ
বানোযাট
few
sy
ফযান
বেষট
মচ
রটের
রপনগর
##থাই
##ঃপর
অনানষঠানিক
সেগলোকে
মোঃ
অরথহীন
##পেট
লিখন
উততরপতরে
সারদা
রেটিং
পরশনকাঠামো
ফলক
ছযজনকে
ভাইর
ভিভি
বরষার
সমারটফোনে
পযગা
ভাসিযে
দোতলা
সংকলপ
সযারেজ
সঞচালন
রেজিসটরেশন
কোকোকে
শযযা
পরতিহিংসার
সিপাহী
িবেরাধী
মতઓઘ
হাহাকার
সাংঘরষিক
পরাবনধিক
খরা
গনতে
ডিল
ফযাস
ভতের
মিক
শযাল
সসতা
##ৗশ
##সাই
##চাদ
##ues
বাচার
##োলজি
সমপরসারিত
হারলেও
ঘোষের
সরবনাশ
##জজবল
রিও
রিং
বাদয
##সাৎ
তততবীয
নবজাত
three
পরেমকাহিনি
সপতাহেই
১৯৪৫
tell
লঞচটি
alo
মহললায
এফবিআই
পারফরমযানসে
একেকটি
তবকী
চশমা
necessary
কাকা
দনিযায
পালে
িবদઘ
সেজে
কমতি
মেসিকে
##বললাহ
##যনগর
গণভোট
মনতরিতব
জামাই
মাদকের
বিনতে
চালকসহ
যোগযতার
রাইস
মহিতের
১৯৬২
নাযিকার
অভিজিতের
ভঙগিতে
বোমায
গিযাসউদদিন
পীরগঞজ
এভারেসট
শরীলঙকান
তাৎপরযপরণ
টাসকফোরস
তারানকো
অনাকাঙকষিত
বিধিনিষেধ
কেশ
গালা
বਬ
সਬ
সাজার
সসং
িডেস
એ੬ী
##চযের
##੬ণ
##োতত
সাপোরট
করাকে
দিনকষণ
কেযক
##ঞজক
মলধারার
সারের
অপরিকলপ
##লেখা
রিভ
নরওযে
সাজান
##িটারি
পরবেশাধিকার
##চনীয
##মণডলে
ইযাছ
অগনিনির
অঙগর
ইমরানের
বলগারদের
মাগফির
ফরাঙক
মাইনাস
বিবরতকর
কথোপকথন
রামপালে
মেগাপিকস
15
খাপ
তিব
ফেলি
ভখণড
ਖা
##রণের
##na
তারণয
সেটিকে
##করতা
যাবার
##োসা
চলিত
##সথলের
অনেককেই
ইনট
চৌধরীসহ
পডত
কোনটা
ওযাসার
কনজারভে
এইচবিও
ডেবিট
সমিথের
##চযতি
চযাডা
শরদধাশীল
ঐকযজোট
মাথাবয
beaut
যাতরার
সযামি
গেমসের
সবেচছাসেবী
সরবসমমত
saw
রহসযময
সাইফদদিন
used
যাতাযাতের
বিবাহিত
জাজিরা
ভানডার
রেহানার
আফসোস
keep
ইনভেসটমেনট
land
টিমের
##শাকে
একার
##াতীত
সরাইযা
তাবলি
হাসিম
আববা
চারবার
আদমি
দিচছিল
যোগফল
সপীকার
রাষটরপরধান
অপরণা
বছরেরও
১৩৮
##rect
ওযাহাব
ভাঙচরের
অতঃপর
মেরিল
পরবাসীকলযাণ
পাতাল
তোরাব
সেনানিবাস
অলিমপিযা
কচযা
পরিমাপ
পাঞজাব
ডরাইভ
মগবাজার
বেলজিযামের
মেসবাহ
টরেইলার
চোরাচালান
রাবেযা
পরিসথিতিকে
ইনসরেনস
রোডমযাপ
ঠো
থিত
##হানি
##িনায
সমানতর
সংকষেপে
নেচে
পরিদ
##টেট
শরৎ
অবত
খেলি
যোগসতর
সপিনিং
সারকের
বারলিন
অরবিনদ
পথিক
সিদধানতকে
মরগি
উচচপদসথ
ওযাদা
চাচছেন
জেবি
আলোচক
জডানো
হারিযেছিল
জনসভ
##ets
পাইরে
বদলাতে
োসনা
১৯৫৮
১৯৬৬
change
অকষত
ভৌগোল
লাউঞজে
লেবাননের
নেশা
children
বিদযৎসপষট
ওযাহেদ
ইমেজ
ঘমাতে
টালি
নরের
##মઘান
##ভিযা
##ove
##ਊেলার
##ালাপ
##ভাঙা
নিরৎস
নিযেছিলাম
অভতপরব
শিকষাসচিব
দরনীতিতে
সকযান
বাসদ
মিঞা
চাইলেই
১৪৮
##াকষর
শেহ
সপারসটার
কযাপিটাল
সেরাটা
কলাশ
যারাই
সৌহার
পચએ੪
বাকযের
শবদটির
পাইযে
পযাকেট
পযসায
মানিকগঞজে
পরতিরকষামনতরী
মিউচযযাল
order
সিআইএ
জেডিসি
দেযালের
সহকরমীদের
student
হাশিম
অযাঞজেলো
##গাহারট
বদিউল
পললবী
লিফলেট
13
এঞজ
কলোর
লডে
##বাইল
##রস
##ফাই
##াযনি
##বেলার
##পরসত
সরেশ
সরকারসহ
##ডিএস
##গরির
মেতা
সিমন
ভারি
নামানোর
নিজামীর
##তবির
আশলিযার
রাখাল
##োজজবল
আদনান
বেশিই
কারণেও
বিশেষয
অপরযোজন
হামিদল
পরিবেশিত
বাডডা
মরমা
বঙগবনধকনযা
ওযাশ
জামে
ফারহান
ঘণয
ফিরেছে
সডকটি
চিনতায
head
ফিতর
ফেললে
গহযদধ
কাউকেই
দাডাল
পটভমিতে
রাননাঘর
রহসযজনক
ডেনমারক
##করিপশন
ইউটিউবে
লেখালেখির
তাআলা
মোমবাতি
খাজ
তপ
হবো
##শৈ
##উনের
##ভেস
##এমি
##তিযাক
##ীরের
তাে
তাবি
##ওযারলড
অবাসতব
##পারথ
গণআ
##পেয
দেখাবে
ঘোষক
চিডিযা
গিযেছি
আপনা
নিশাত
বাহাদ
inc
ফেরানোর
সাজঘরের
মকতিযদধভিততিক
পোশাকশরমিক
অরথনৈতিকভাবে
বরাতে
ইমপরেস
বীরেনদর
গৌরী
হিনদদের
খাযর
হতাশায
পিকচার
তদারক
লরেনস
সীতাকণডের
ধানমণডিতে
এসএসজেড
happy
সাবিহ
অপরযোজনীয
find
found
জিনদা
ডরি
থিরি
নপর
ভটট
মকতার
আমেজ
##বিস
অনিনদ
আরআরডি
গণশিকষ
সনধি
##কটরে
দাযিতবের
পেযেই
১৩৬
সাতজনের
অগরাহ
আতমসাৎ
আবেদনকারী
ভাঙনের
##বিশব
উভযই
shop
গরনথম
জেমি
বৈষমযের
কোনদল
পরথাগত
সাতকষীরায
জভেনটাস
negative
আনষঙগিক
আং
এজি
বনা
মরা
লোগ
##দত
##েশার
জানত
জিডত
গোড
##আইসি
আনদালিব
পিআর
##াপততা
##সারস
##কোষ
যৌগ
বিজঞানীদের
পরতিষঠাবারষিকীর
সাফলযে
##পরতিদবনদ
১০০টি
##ফেডার
পরশংসনীয
ইনটারনযাশন
ওযাশিংটনের
পরবাঞচলের
হিমশিম
গবেষকদের
দরভোগের
interest
পষঠপোষক
পাউবো
ওযাহিদজজামান
আਲল
মওকফ
অনাসথা
অবতীরণ
অগরাহয
তাজা
দাসের
শাই
হযারি
##মেলা
##ঠা
সমাদ
##পরানতে
তারে
অনকরণ
##নাগার
সবজের
গরাজ
সকলেই
সংসকত
বছরও
অভিয
চিৎ
গিযেছেন
কামিল
ঠিকভাবে
বইগলো
চাঞচল
সমপরকেও
লাগলে
জরড
পেছানোর
ভলতে
ইততে
হযাকার
পরকৌশলীদের
রিজওযানা
অংশগরহণকারীদের
জাসাস
ভগোল
উপেকষিত
কনসারটে
সরাতে
মযদান
সামগরিকভাবে
পরহসনের
ফলাইওভারের
parents
ফিজিও
পিপডা
ফেদেরার
proper
ফেভারিট
কনজারভেটিভ
min
new
অং
গোম
ঝাক
ঠোট
পাজ
ভঙগের
##তাকারী
পািট
নিরসতর
##দরিক
বযতযয
আগઍট
রাণী
রাজেশ
দরহ
আববাসের
সথলে
সারভার
জলক
টেলিগরাফ
অথગ
পাযতারা
রেলকর
একটও
খেযা
রামতে
কোমপানিটি
কাহিনির
নিরপেকষভাবে
মোসতাক
চিরসথাযী
আডডায
পরযালোচনার
অনিরধারিত
সিডনিতে
কইক
সমপরসারণের
সমাধি
বযারিকে
শিখেছি
আেলাচনা
complete
নানদনিক
নৈশভোজে
সংবেদনশীল
মরমাহত
car
main
অডি
টিকা
ফাদ
##ীশ
##পચাਮ
##শবাস
##টসের
##খযায
বিলো
নিরি
##পরবক
##যালের
বযাড
দাডি
##নারের
দইবার
সামল
বিকল
##দেহের
লিটল
মলক
##ভিচের
##িসতানের
শোনে
পরোদ
##anks
ভাইবোন
ফারসি
জরজিযার
##সীমান
সবিচার
লালদী
নাইম
জমাযেত
আশরাফের
চনদরপল
কাটাতার
বযসততার
আরজেনটাইন
পনঃনির
জাকারবারগ
এসএইচএ
পীডন
উপদেষটাদের
কেলজ
োঘাষণা
মাগরার
ইডি
গভ
##body
নাবয
দেবদ
দরভিকষ
গরাস
বযাকতি
কোনোদিন
##িজয
শিকষাবরষের
সমপাদকদের
অযাশ
১৩৯
করিযার
##পরাপতদের
সদরঘাট
উঠেছিলেন
চাষের
জোড
সাইমন
##হনীর
সিটিসেল
যদধবি
things
ডিজাই
সপষটভাবে
ফেনীতে
চোরকাটা
োপেয
comput
দারশনিক
বাপপা
মেজাজ
পরহসন
ওইদিনই
love
টিসয
ডিওএইচ
অবিরাম
িডেসਹর
মাগফিরাত
sit
sur
খত
দোর
রওযানা
সওযাল
##ways
##যেডের
সমাইযা
মাতা
গরামা
লাথি
নামকরা
শেষম
বাসসথান
##োটাই
বসছে
এনসি
ফরিযে
##চছার
বইটিতে
২৪০
মাঠেই
সনতরাসবাদের
হলফ
##সমরণীয
পরযকতিতে
নাগরিককে
রকমই
নেমেছেন
সাদিযা
ওযানডার
##পালন
##শবরী
নীচে
পিকআ
তদারকির
ঘটিযেছেন
অসবসতিতে
নসযাৎ
পলযাটফরম
রপচরচাবিষযক
hon
অদর
ঝডো
ডলি
দিশে
রઘাে
লঙক
সততর
##কিক
##ng
##েনিযাম
হাটের
১২০০
##োজনের
##েকো
১৫০০
চাইছি
জাওযা
সমাবরতনে
পডানো
##াকষেতরে
অপকরমের
##ital
সংঘবদধ
ছেডেছেন
পরকরিযাটি
গডফাদার
বিসতারের
কাপডের
##দোযান
শৈশ
জাগপা
ফকিরের
বেকারতব
মিনারের
লিভারপলের
সাংবািদকেদর
উদদীপকটি
রেসটরেনট
পরজঞাপনে
men
এট
এযানড
জোকো
ঝকে
##ডযা
##সাইকেল
##লল
##িদে
##কাজের
##পরণাল
সরোযার
সেকটরে
যেতাম
##নদি
সামদরিক
হাটর
হাঙগার
ছাতরসংগঠন
বারগ
অপরকে
ইউনিটি
আনতরিকভাবে
চেযারমযানকে
রাযনা
পরকলপগলো
ফটোগরাফ
বিসিক
কনফেডার
ভাষাকে
পরসতাবও
শিরশ
যতদিন
রিযাজল
##শিলপীদের
গভীরতা
পরেরণ
বরণিল
##পরযোজন
বহিষকারের
জেনেভায
৫১টি
অলপের
গেইলের
##াকসিকষত
কযাডারের
মনসিগঞজ
##িচত
টিপাইমখে
জোহরা
কাসটমস
মিসরীয
পরীকষামলকভাবে
আইজিপি
মোহামমাদ
মশাররফ
কচকাওযাজ
পরিমিযাম
উেখ
ওন
কদম
ঘেট
ধসর
বব
লেই
হলি
##িয
##ts
আমন
##বিজ
সরত
সরকষার
সাবল
উপাধ
রাজউকের
বযাবস
কাজকরম
সহজল
চলাকালীন
নতনদের
বারে
##বীপ
জযিতা
োগা
বেরো
রিভার
বিসকট
জেট
লকষযবসত
শাসকদের
বছরেই
চডানতভাবে
শোকবারতায
reg
আডডার
সোনাম
১৯৬১
অভিষিকত
সাউদি
কদমত
পযারিসের
became
নযাদিললি
commun
তডিৎ
সিবিআই
correct
আগরতলা
জিমি
ফাজ
মাতার
হযাক
িমি
##হানের
##নমিত
##জিস
##েਠ
##ধস
##ভযান
##খালি
##পরষ
##রিতে
মধা
এসএসসির
লাব
আবধা
জাটকা
##ভিদ
রেঞজের
োবিশ
জীবনাননদ
##বদধতার
পশচিমের
আফরোজা
সনদরভাবে
ফেললেন
অনতরায
জাযগাটা
োদশ
ফোনো
পাকিসতানিদের
নকশার
সমদধির
জলাধার
এনডিটিভির
অহিংস
টঙগিপাডায
কনটেনট
শভাগত
পরোদমে
সহজলভয
অমি
ইমপ
ওজনের
ছডায
ফযাক
রেনটাল
সযাল
##ually
##াকাদ
##াজাত
কোটির
আসমা
ভাটার
ভারচযাল
চললে
পরসত
এলএন
আজহারল
মারিও
অংশকে
রাষটরভাষা
##ern
১৪১
১৩১
লোকবল
##জীবীদের
ছোটগলপ
সিনেমাস
ভাবিনি
ফিলডার
খেযেছে
জঙগিগোষঠী
once
জলবাযর
োসখােন
সবরগ
কাঠাল
সাধবাদ
ইশানত
ইলেকশন
এহেন
মলযবোধের
কারযদিবসের
substitution
তাকাতে
box
রেগলেট
বছেরর
সাতকানিযা
bre
foo
দসত
নসি
ফিস
##সবিধা
##খেলা
##তরির
সমীকরণ
##িসীম
##লাব
উপসরগ
বাংলাদেশও
##টরস
শিকষিকা
২০৫০
গরিক
সংসথায
নামাজে
##কষেত
হাতিযে
জাগো
সিনেটের
এসবই
পডলেন
পরশনগলো
##শাললাহ
আতমরকষ
ভিতর
এইচআই
সাদাক
সীমানার
মাইজ
পরকরিযাজাত
কাহিন
চিরপরতিদবনদ
নিরমাতার
কানাডায
মিযানমারে
গরিড
রদরি
অনভতির
লাউঞজ
যাদব
ইউনেসকোর
ছাতরাবাস
নিতানত
match
visit
আপততিকর
সসংহত
bor
sw
ডানা
দডি
নবয
ফকস
ভাতার
রগ
রিযেল
লিমন
##পানি
##বানে
##টনি
##ঘব
পরিযে
##যালে
##িলক
সমষটি
##তাত
##ভাষার
##োগরা
কোনা
সবতব
কোনোটিই
মতপারথ
বেপার
##িমক
##বযঞজক
##পেকস
দশা
ওযাং
নিউজের
জীবনযাপ
০১৭
শরেণীক
চালিযেছেন
২৯০
মলযসচক
মেযাদী
উৎসবমখর
আজিজের
দৌল
ছাপানো
নিউজিলযানডকে
ফরেসট
শরীযত
even
গাজীর
ছাযানটের
ইমদাদল
ঐকমতযের
উদঘাটন
আহেমদ
শিরশছে
own
খালা
গযারি
ছল
টাযার
ডোন
ডকম
নছ
লনি
লেনে
লঙগি
##েডর
##রমের
##াদির
##তাডিত
##নেতাদের
আমেনা
আমতলী
অনারস
পারটিকে
উপবততি
কষাকষ
চলন
হাঙগ
লীগসহ
বহমাতরিক
অনযজন
সারকেল
অপরিসীম
বযাংকার
লকষযের
আরোপিত
দেওযারও
ফরমের
জীবনযাতরা
কষমতাযনের
কোমপানীগঞজ
আসামিপকষের
বরষে
বরষপর
কালোটাকা
ফরিদপরে
তাজউদদিন
এযারওযে
দরবলতার
##aph
পরদিনই
ইনদো
কাটিযেছেন
সবৈরত
সামপরদাযিকতা
দাপট
বরিটেনে
চপচাপ
কৈশোর
গদামে
information
পরতগিজ
lives
সানধযকালীন
women
মোতালেব
খরিসটান
বডপকরিযা
অপরতযাশিত
খরশীদ
দিশেহারা
ওযযার
ঘি
ঘানার
চরে
ঝাম
লিলি
৩য
##সরি
##ਔা
কোটার
বিশদ
পেযাজ
আইফোনের
গাঙগল
নিযমত
করতালি
পরিচালককে
##ath
##বদমান
খাটি
দীরঘসথাযী
শরীলংকা
##পরাণী
যবকদের
োনই৷
ভকতভোগী
##বণটন
মারাতমকভাবে
মদরণ
days
সিদধারথ
##পাতাডি
acc
তারকারা
ছডতে
পরসারিত
ভোটাভ
জেসমিন
মরণোততর
বিভরানতিকর
আতমীযসবজন
শরফদদিন
দিনমজর
োপચিসেড੩ট
রઘােবর
নহা
পলেট
##মোর
##বনত
##ামতি
সেઃ
নিরপণ
থাকেনি
##ংশন
##িজে
সংসারে
রাখব
রাখাইন
মারস
##ডারিং
বিএনপিও
সমপাদন
পরিবেশনার
##সংবলিত
##ates
যোগাযোগপরযকতি
সাইটে
বসেছিলেন
কষমতাধর
পাকিসতানী
অধিষঠিত
কষিবিদ
শারমীন
সবরণা
পাটরিযা
মোললাকে
নিকষে
বিধিবিধান
বিদযৎকেনদরের
ডেনমারকের
হিটস
##ভানডার
োশখ
বিনদমাতর
ভদরলোক
োচযার
সংকরমণ
অলসপর
present
এমদাদল
ইনটারনযাশনালের
রেগলেটরি
ছহল
##জমিন
##মম
##কবির
##যাসের
বিবদমান
##াদাযক
সংকো
আমলেই
বরিকস
দাফ
লাফার
কেনাবে
##শিমা
##এসএফ
মাসাকাদ
পরাশকতি
আনছে
উইমেন
গাঙ
##ভিযের
গোলপোস
সযোগটি
শিলপপতি
বসাতে
পরোটিযা
ফটপাত
ওযেসটার
দিলারা
এইচএসসির
চালিযেছিল
আনোযারের
জবালা
নিযমিতভাবে
কারখানাটি
জিতলেও
পযলা
বারষিকী
অভিযকতদের
##কিলোমিটার
নাদিযা
কৌশিক
অনিযমিত
মনসিগঞজের
মাদারীপরের
অমীমাংসিতভাবে
জেএমবির
গরনথাগার
বরহমপতর
আকষরিক
িনরাপਡা
ভৌগোলিক
নিরৎসাহিত
সাবলীল
উখ
কণড
জস
ফেলায
বটিশ
মডার
রীত
##জোর
##সটের
##থাম
##যেলের
বাগম
##বারট
নাথান
কোণ
পািক
মাখ
দেশটিভি
##টরো
কোনোটাই
অসাধ
রাখলেন
শিকষাগত
টরট
মকতিপরাপত
রাষটরপকষ
ডিএফ
নিযমক
আহমেদসহ
মিলিটারি
১৩৭
নরন
সদরল
লেট
মনোজ
উৎসে
শাি
দরতবে
পরাণিসমপদ
পরিবহনে
এফআই
সংসকতিতে
ভিডিওচিতর
মৌসমি
##াপনন
অজসর
হযরান
dep
বিএসএফের
এলোপাতাডি
অযাটলেট
লেখাপডার
নিরমমভাবে
এসবিটি
চিতরাঙকন
মলযাযনের
ঠাণডা
something
মহারাষটর
রাষটরদরোহ
রাকিবল
গাপটি
##পোলি
##led
##uc
##ারির
তারানা
##বিউ
##বিবরণ
জানযাির
##করের
যেখান
##ডিউল
##িকেও
করমসথল
আহা
সমপরি
চারলস
ভালোবেসে
##তময
জিਔ
মিলার
চিকিৎসাসে
সদরপর
লেডিস
বাকের
সইং
মিশা
রামর
হসতকষেপে
মহরতেই
বাচানো
কাটছে
উপসথাপনায
সংযোগের
১৯৫৫
দোতলায
উতথাপনের
trans
সঙগীতের
সােড
মিনহাজ
পেটরোলিযাম
অসতিতবের
সঞচালনা
জনপরতিনিধ
মযাককালামের
ইটভাটার
সধী
যোদধাদের
পরবশরত
big
paper
অমলয
আকতির
কাইল
ছাদের
ঢোল
ধমকে
নডে
শিকা
ষাট
##কলি
##ੳট
##ানতির
বলায
জানাজার
পাবো
সবখানে
মোডের
বযাজ
পেপ
মারকস
বৈচিতর
হারালে
রোপণ
আদিল
বিরদধেই
উততরায
##ামাতর
পরিবেশক
ঘোষণাও
বসনিযা
মরগির
১৬৬
অনযাযভাবে
ফটপাতে
চািলেয
শরেণিক
বিরোধীরা
##যনতরের
করিযেছেন
নরসিংদীতে
ছককার
বরগকিলোমিটার
কটনীতিকরা
##পরেমী
ইযাসমীন
টেলিফিলমটি
ডাইং
োজএমি
খজছে
শাহাদাৎ
পেশাজীবীদের
পিকেটিং
countries
োফবચ
টানাপো
বাঙালিরা
called
িবভােগর
থিরিমান
কটির
ডেলি
সਔ
হটস
##মিসট
##শাযার
##থরি
নিরলস
করাচি
##মাতা
রাফি
আহরণ
##েসা
পরাচীর
পদটি
আনান
দবিতীযটি
কালপনিক
কতગ
খাদেম
যাচাইযের
আগরাসন
ইউনিস
উৎপাদনকারী
এসআইটি
##ওযানি
সাবমের
আইএসপি
অঙগীকারের
##পরকাশের
cons
##ired
সজাতা
রমজানে
হতাহতদের
পরভাত
উইলসন
উৎকণঠা
পরোডাকশন
পতরপতরিকায
গরাজযেট
dur
tal
ইযেম
ঝে
বসর
ভিউ
##গাম
##টিনি
##ফফার
##ian
##রাগন
নাযেক
সংকষেপ
কারতিক
রাজাবাজার
গরহের
উদীযমান
নযতো
ইনশাললাহ
পিএ
পিষট
এতেই
মনসতা
আপলোড
লকষাধিক
কোনটির
করমসচিও
োশেষ
সমযেও
গলিসতান
মেযেটিকে
কাউনটার
অযাপোলো
##oose
আমিরের
গারদি
শোকসনত
থানাধীন
আডাইশ
সবরাজ
মেরেছেন
বিশলেষণে
কসোভ
রাজনীতিকেরা
মকতিযোদধারা
িদੴ
অরধশতকের
কডিগরামের
বেডাচছে
নিষঠা
খেলাধলার
পরজাতি
crow
দাপটে
লডতে
বনদযোপাধযাযের
মোনাজাতে
নেতবনদের
আশেপাশে
বযাটালিযনের
এমআরএফ
জোসেফ
চਜগઝাম
অভিশংসনের
বানধবী
শিষটাচার
শোকসনতপত
অজিত
এে
পবગ
লরি
সজান
হতব
##হদ
##নাস
##ফিযা
##ভিলা
##ঙর
##ft
##যাবের
বিছ
##ামালের
##াদান
##াকী
যেতো
রাশিযান
সিটিতে
কথাবনধ
বিরাম
গেটে
ইসলামও
জিঞজ
মলান
বারল
মনিরা
শোচনীয
ভেদ
পরবত
বিশববিদযালযসহ
বৈঠকটি
হারিযেছি
গলিবরষণ
সফরকে
ডাকস
জনগণই
গাজীটিভি
লডাইটা
খেলেছিলেন
হেলেন
বরাজিলে
একবারও
টাঙ
##পরযনত
ques
always
বেঞচের
ইভেনট
ইতালিযান
অহংকার
ডরেসিং
নসরল
সাইনবোরড
gaps
বতગ
natural
বকষরোপ
hand
কঙগ
পিযাস
সিনা
##ঋণের
পরবাস
বাতেন
##ভাঙ
##ভাষয
পাতি
আরকাই
শরীনগর
ইসলামীকে
অসাম
মখসথ
রেযেছ
লাখেরও
শাহনে
সিনেমাগলো
জযকে
বিশববিদযালযগলোতে
ওযাসিম
দামপতয
মনতবযে
মিরজজা
সপারের
যেমনটা
যারির
খাদিজা
নযাটোর
বনদো
ফিতরের
আমনতরন
অরধনমিত
আধনিকাযন
গোপালগঞজে
অভিষেকের
শিবপর
অটোরিকশাটি
ইচছাকত
##agr
সাফাই
আবেগের
উপকলের
পিরোজপরের
জযোতির
বিআরটিসি
বিশবসেরা
অযারন
জাইকা
এলবিডবলিউর
মতৈকয
ভেসতে
ঘেটে
সষটিকারী
কীটনাশক
লাফারজ
সমপরিমাণ
টানাপোডেন
এেত
ওলামা
খানা
চেষটাই
জযার
##শীর
##ৈল
##per
##ਉেਠ
##ানীতে
##তিরে
##পরিকর
##বাত
##মানষের
রাও
কমবল
##টরিকের
মানদণড
মাননানের
বেবি
##িজম
নামলে
হারতে
তোযাক
অযাব
##গাডি
##উদদীনের
##আরবি
তললে
নিরদেশনার
ins
সৈকতে
ওযেলিং
দরনীতিগরসত
নববরষের
##ীনতায
##ফোড
চকরিযা
অরডারে
অলিমপিকের
##ible
টিউলিপ
কাশমীরের
problem
ঢালাও
নহাশ
উਭ
ঢাবি
ধল
লিস
##পਉ
##ਛাসা
##যাের
##াতমা
নিরনতর
পরতিজঞা
##মাখা
উপনিবেশ
রাফাযেল
করমবিরতি
বিশবমানের
বিশবখযাত
মারছে
ইনসট
তোফাজজল
বিশেষণ
বারড
ছযজনের
বাসতবতায
ভোকত
করমকরতারাও
ইরাকি
মিশরের
আসাদকে
##কষমতার
বিধানসভা
কাটানো
১৯৫৭
##িলিযান
সোনম
১৯৪৯
true
শৈলক
পৌছাবে
একসপরেসের
ইভেনটে
রিকশায
উদদীপনা
সেকটরের
বিকেএসপিতে
পরযটকদের
books
হযামিলটন
আইএএনএস
সিডনস
কোরআনে
##পরযোজনীয
আকল
কৎস
কপির
টাল
শভা
শেরা
হীর
##ীকত
##যনি
##মিনা
##বধর
##বকস
##সাল
##ইনে
##তনাকে
##ামণড
##পরবের
কোপ
পরিপতর
উপনীত
রাশ
শরতি
বিষণ
সংসকতিক
অভিভত
ইউনিক
অবসানে
চালাবে
পরতীকষিত
ডিভি
কামরা
ডিসিদের
##টনির
কোরসের
একসপ
ভোকেশনাল
বেলাযেত
বেসরকারী
শাসতর
খরশিদ
চাকরিচযত
হইল
রাশিযাকে
নিবনধে
young
বাছাইপরবে
টাচ
নেতাকরমীকে
##ations
মধযরাত
সযারের
গরিডে
বসতনিষঠ
শযামলী
হোযাটস
কলোনি
কেরানীগঞজের
টঙগিপাডা
wanted
সবৈরশাসক
আতলেতিকো
সহমরমিতা
বরোকারেজ
ফারহানা
অগনিনিরবা
কচছ
শষক
##রর
##ছটি
সমাস
বাঞ
আমতয
##ডেত
শিকষান
##ওযারি
মেসেজ
এমিল
অবতার
রাখলেও
টাকাও
পাঠের
পাঠযস
সরবপর
জীবিকার
কলকারখানা
মনডল
শিলপকারখানা
১৪৬
##খেত
কমিটিও
বিশবাসঘাত
বিবেকের
বিকষিপত
সইযের
##ames
করপোরেশনকে
ভেবেছিলাম
১৯৬৪
পাতলা
তেজসক
অধযাদেশের
রাজাকারের
মাহফজল
সিএসইর
অজঞাতপরিচয
কযাডারে
শাবানা
দৈনিকে
অচলাবসথার
পানিসমপদমনতরী
মজাহিদল
আইএলও
পাটকল
আলেকজান
cre
আযন
উকত
চেনে
ননদন
লঘ
৪রথ
##পযা
##মনে
##গডার
##উলের
##োনের
##যাইন
##ালিতে
সমীকষায
বলিনি
নাহ
হযিন৷
শরমের
চেতনাকে
দাশের
অবগত
রহিমা
ইসলামপনথী
কযেকদিনের
##ছাট
বারক
খানসহ
ভাইদের
যৌতক
ভারতীযদের
হযাডিন
লেগেছিল
োসই
চিরতরে
লিখিতভাবে
চাপাতি
এডানোর
ধাপের
পষঠায
mem
শারীরিকভাবে
গরিনহাউস
মযাজিক
ফিউশন
দাপতরিক
দরনীতিবাজদের
িজਛাসা
ঘটনাએઐেল
িশਉক
হতઘাকােਟর
ভিটামিন
নসরাত
অধিনাযকতব
এনটারটেইনমেনট
ফতোযা
সমবনধে
অকাল
ইকর
চযন
জডি
দপকষের
হেলা
##ধনয
##lic
##খডি
বিচলিত
সমবোধ
মোদা
মোকতার
কষকেরা
আশি
হাজারে
গাঢ
সারজিও
বিপদস
বাডেনি
এনটি
often
নাগরিকেরা
নাসিমা
খেলেই
ফেলল
ঘণটাবযাপী
মতিযার
বরষবরণের
##ভযত
খসডার
অনসারীরা
ভেবেছিলেন
কারিগরী
##িওগরাফ
att
মদরায
শিখর
থিযেটারের
মারধরের
জবাবদিহির
বিটিআরসির
িনবગাচ
উদভাবনী
blanks
শবাসরোধে
শরোতা
##উিਣন
উইমবল
জবাবদিহিতা
োসেੳট
সবাচছনদয
পলযাকারড
তাবলিগ
high
rain
লঞচে
হাইল
##ণઅ
##ভরে
পরবাসীরা
করসে
বিদর
বিযোগ
##কেক
##বিহার
বাংলাদেশির
রাজকমার
##নধরমী
গরযা
থাকতাম
##োসিস
ঘটলেও
সামির
লীগও
আজহা
পডেও
নিযমের
নিশচ
পরশনপতরে
উদধারকাজ
টেলিটক
কষতিগর
উঠবেন
বিলবা
অভিনেতর
আফছার
আহমদকে
চিঠিটি
##ফেযারস
##শিকষিত
আইএসআইযের
পিলখানায
summ
অভিভাবকেরা
এবিসি
কলপনার
কাযরো
টরলারটি
মেমবার
পলাশবাডী
অসথিতিশীলতা
দরগাপ
হতઘার
অিভযান
নোটিশের
যমনার
পনরবিবেচনার
মেনডিস
কোটালীপাডা
অনীহা
লঙকান
cap
war
গঙগ
গীত
পীয
পসপ
মদি
মাইকে
রবির
রটিন
সপরে
িচি
##দাতার
##তাক
বিজন
সরানো
সেও
কোমর
কোষের
##মানি
কারডের
##বসম
গেটস
ভাডায
ঘটান
অভিবযকতি
চারদিনের
##বিদযালয
মনতরনাল
বডই
দিট
এমনও
গাং
সারাকষণ
পাঠাবে
লকষমণ
শনিযে
ততকষণ
১৭৮
পোকা
উচচাঙগ
কতখানি
অতিষঠ
বিললাহ
সীমানায
রফিকের
রেজাউর
ভাসতে
পরযোগে
ভাডাটে
মেরেছে
##ction
যাতরায
দঢতায
দেখেননি
রকষণভাগ
সিলিন
ফরানসে
মতিঝিলের
ওবামাকে
টরলারের
progr
নেতরকোনার
মনজিল
##মিললাহ
রেফারির
োকানও
সোরস
উললাসে
পরিলিম
শফী
গণভোটের
শিকড
জবানবনদিতে
কনডিশন
নকষতর
জনসবারথে
সহাবস
both
kind
গলার
জেসন
ভিম
রেই
লঙগর
শারা
৫ম
##ােন
সমিত
বাপা
দলকেই
আসতেন
সিজি
উদবাস
আমাদেরই
##লিংযের
গণিতে
সংগীতে
##iness
কারযপরণাল
##চছল
রকষিত
##কোভিচ
মজবত
শাসনে
সৌমিতর
এনেছি
মসলমানের
৩১টি
লিখছেন
##শোনা
forest
হরাসের
দঢতা
সংশোধনীতে
ঝলনত
পদারথের
পরথমারধ
রপানতরের
এমএমআর
অযাকাউনটে
ঢোকা
লজজার
জবরদস
কাওডাক
পারাপারের
বরাউজার
শবেতাঙগ
কারযাদেশ
এনটারপরাইজ
started
মরিযম
সৌহারদয
তোযাককা
পিরে
সাইকেলের
##নং
##েযে
##দানে
##শઘ
##থিতে
##তদের
##ঘল
##ted
##নিট
দলসহ
##নতামলক
দেখো
বিশববাজারে
##সিযার
বরধন
ইসরাফ
পরসারে
গানও
ফেবার
ফরেন
বাহন
সাহসিক
কোরিওগরাফ
অফার
বদধপরিকর
লাগেনি
ধরমকে
জনসবাসথয
জনসচেতনতা
নেমেই
তরণরা
ডরাম
লিখবে
কষমতাসমপনন
গাইলেন
মাতভাষায
অসসথতা
সোযাইন
১৯৪০
ইটপাট
কষণিক
করিসটো
সেজনযই
কিনেছেন
হিমা
ছিনতাইযের
নডবডে
পরাইমারি
ইফতেখারজজামান
অযাঞজেলে
কিমিটর
activ
ইলেভেন
ইবতেদায
বিসতীরণ
অযাকটিভিসট
আেযাজন
##বলমবীদের
গয
গলেন
ঘমান
চઘা
টযর
ফিদ
লাযন
লেনের
হদার
##শঙকর
একশরেণ
জানো
কারার
দেখলেই
##সিপ
##সিফ
আহাজার
শেষবারের
শেষপরযনত
ছাতরনেতা
পরিচালন
বারধ
ফিরবে
চাও
মনোনযনের
জররী
পরতিকরিযার
করমীরাও
সিরিযাস
উদদেশযমলক
বিধবা
দঃখিত
দেলোযারের
##ters
দরশককে
চিরকাল
পরতযকষদরশীর
##যালিটি
ছোটা
সেরগেই
ওযালী
আউটস
আইসিইউ
কইজ
সঞজীব
আতমসমরপণের
কাওসার
simple
অরগানাইজেশন
গণঅভযত
উদাসীন
সিনডিকেটের
বযারিকেড
ওযেসটারন
poll
আযা
গযারে
ঝলক
ডক
ডানে
দষকত
মরিযার
িহ
##ডনা
##গডের
করণা
##াদরশ
অনিক
সাযেন
সেফ
এইট
কারল
যেটক
##কাট
রাজিযা
##ওযারথ
সকট
মহাদে
##বযসক
পদকষেপে
মাধযমেও
সথানটি
নেতাই
ঘটনাপরবাহ
১৬৭
বরিজের
মনতাস
বাদীর
পালনকালে
##ঙখিত
২৯টি
লকষযেই
বিবিসিকে
সরবরাহকারী
##হিদর
মেঘমালা
সিসিসি
পথকভাবে
ইশতিযাক
রাজাপর
বযসেই
ওযালটন
সিআইডির
অরধশতকে
অপারেটরদের
মিঠাপ
লেনিন
ভিজি
ভিযেতনামের
নযাদিললিতে
নাতনি
রেমিটেনস
ধরমানধ
বডাইগরাম
ইজিবাই
পযাভিলিযন
সংগীতাযোজন
কোহলির
চিৎকারে
down
অজান
কনে
পদসথ
বথ
লব
হেনা
িগেয
##জাহ
##বীরা
##দলে
##অর
##যেশ
বিচছেদের
##বিচছিনন
করমকার
##ততায
মিটিযে
হারার
হারালেও
##দারন
##ভিਡ
রেওযাজ
##ভাযরন
মোহিত
১৪৯
মরক
বাইবেল
বিশববিদযালযগলো
জেত
হাতবোম
##ভরভ
কযাট
ভাবনায
##সমদধ
পরযকতিগত
ফেলেছিল
গহসথ
পেরেরা
সশঙখল
সমভাবনাও
মিসরে
বরাজিলিযান
অযাডভেঞচার
মেরদণড
কযানবের
রানাকে
চালায৷
১৯৫৩
দোযেল
লিমিটেডকে
##বৈষ
ফেইসবকের
রাজীবের
োবশ
নিতযপরযোজনীয
flow
ভিলিযারসের
হোলডার
তানজিল
তনময
ইউিনযেনর
সাবমেরিন
লঙগরখানা
ঝোল
সচিতর
##রদধ
##vis
##ানড
বলত
বলকে
##বিএস
নিরগম
শরতের
রাজকনযা
কষটকর
মেসারস
অবনতির
অসহন
বাসভবনের
আযতনের
টিচার
ধারাবাহ
তৈমর
গানটিতে
##িকিং
শিলপীকে
নেতাসহ
কারণও
সিদধানতটি
ফলেই
বেডেই
খনিরা
বিনযাস
ভেতরেই
মেলাতে
সংসকারপনথী
##মহাসচিব
অসমমান
গরিবের
জিনিযাস
means
সপিনাররা
চিতরনাটযকার
চাপাইনবাবগঞজের
উপনযাসে
পনটিংযের
নিমজজিত
কতোটা
এভিনিউযে
সবযংকরিযভাবে
রেমিটযানস
সমীচীন
লাঠিস
শাশডি
ওযাসা
গাফিলতি
গণশিকষামনতরী
cur
উনাকে
খটিনা
ডেনটাল
তপতি
সগনধ
হালি
োত
##গলে
##ফিরে
##bd
##োডা
##িকট
তারার
অনভত
সরো
রাজী
মানেন
নিরবাচকরা
থাকতো
ছাটাই
বরস
সামেন
##সেবার
সেইসব
দিবয
হতযামাম
পিএসসির
ছবিটা
##জাতীয
এটিও
বসতির
োবা
পরীকষাও
হরতালবিরোধী
এইচএম
অবসথাও
বানর
##বদধির
জনসবারথ
চিতরকরম
ইংরেজির
তেংগো
রকতচাপ
রাইডার
জাফরল
৭৫০
শাখাওযাত
১৯৬৫
জযাকি
ইউএনডিপি
অবিচল
ইনডাস
পরাইভেটকার
সনতানেরা
শাহাদত
##ience
চেনেন
পরিযাংকা
বযাকটের
লজজাজনক
পরতিহিংসা
শঙকায
মেটানোর
বজলল
নেভਹর
রাউਫ
সহপাঠী
অযাশেজ
preposition
উচচাভিলা
পચએ੪াব
পীযষ
mind
var
অখণড
কণা
গদয
ফাদার
হযাপ
##েপর
##মোট
পারছিলেন
দেশাই
কমেনি
কাটায
চেঞজ
এমএস
দাবা
গেটের
সামারা
বিকর
লিগার
আনলে
অরড
অযাফেযারস
সিনেওযারলড
১৮০০
পরোফ
শনলে
হে੧ছ৷
রিটে
সতরকতার
আটলান
বিলপতির
ডেথ
সচিকিৎস
সডকপথে
নিউমার
##বততির
জেনারেলের
পঞচকবির
ইনসটা
যৌথবাহিনী
পযালে
গযাং
ভযানক
দরদশা
নকআউট
এইচএএইচ
ঝলসে
চাদাবাজ
ইউকরেনে
খযাতনামা
বিধিমালার
ডেসকট
reading
বসনতের
মেইলে
বনযপরাণী
মসতিষকে
পেটরোবাংলার
সেগনবাগ
বিরোধিতাকারী
human
নাবযতা
sec
অঙকে
উকি
উপরের
খলি
লারা
হযার
িল
##হোল
##ষটে
##ভষণ
##তাসহ
করেছ৷
##বািড
##ভাতে
থেকেছে
পাচে
মাধর
পারসি
আগা
পেচিযে
অধઘ
অভিধান
শেখানো
বহিস
বিকরিযা
দিকেও
ঘোলা
নারসিং
তৈয
চিটা
##াতেও
হকম
দলীযভাবে
দরতগতিতে
সাকষীর
রাজনীতিবিদেরা
ফেলেছি
লাইক
যগমমহাসচিব
ছেডেছে
##গোনা
অপারগতা
নাসিরের
পাবলো
ইউসফের
কষদরঋণ
মোকাবেলার
ইশারা
জোরদারের
সিপিবির
ফটবলাররা
কিমশনার
জরজিযা
পরসিকিউশনের
খেলোযাডেরা
এগারোর
টেমপো
জীবাণ
পলযাটফর
small
আমদানিকারক
ফাযদা
শিকষানীতির
চনদরাবতী
একসটরা
মেঝেতে
গজারিযা
কডাকডি
শেষমেশ
hour
sin
আপা
আবরতিত
ইমি
সানোযার
##হোর
##ছডিতে
##ઔযাির
##ys
##ালড
##লেজ
##বিষ
##ঙগনের
সেলে
আরথার
উপসা
বিশবপরিচয
এলডিপির
কলানতি
সযোগই
ফরিল
দামও
মিরাজ
ভোটিং
তরণকে
আগরাসী
thought
পরশিকষক
বিধানের
আরিফর
নিউজিলযানডে
মাতব
কষেতরের
সটারট
সযারেস
পনঃপরতিষঠ
ফেরদৌসী
enter
সারকভকত
cann
জযাকব
near
ছিনতাইকারী
থাইলযানডে
ঢোকে
বাসসটযানডে
রপকলপ
ইযথ
মযাকসওযেল
আধারের
ঝালকাঠি
সেশনজ
নীতিনিরধারকদের
িবষযিট
পারাপার
পরোগরামের
animals
খাযরজজামান
গাঙচিল
নিশচপ
খটিনাটি
don
lion
med
num
কজন
নটর
বধয
##সকি
##দাদের
##দরিদর
##কযা
##less
##অযাপ
##িকਅ
বিবর
নিউর
নেপথ
সরকষায
কোযেল
সবোধ
যেভাবেই
রাজসথান
মানলে
দিনটা
##ঞজর
হাটিক
মযাগ
##চছের
ভেদা
শেফ
লেজার
ধারণকত
জরাসিক
ভিপি
পরাণবনত
সোহেলের
পেরো
িনজ
বিধায
োদযা
produ
মনিম
আডাইহাজার
মিউজিকযাল
সবসতিতে
তিনজনই
নানামখী
১৯৬৭
এজেনস
জাদর
ভগছে
মাইকরোবাসে
unc
##মেযাদি
টারমিনালে
রপতানিকারকদের
আরামবাগ
িচিকਅ
অভিযাতরা
ইউনিসেফের
##iversity
এমাজউদদীন
সেবাদাতা
international
##ইউজে
পনরমিল
##ভাযরনমেনট
say
উিਣ
এনি
গণে
তছন
দহ
ভম
ভিসি
যাকের
শেলা
শসয
##মলেন
বাষ
##কষীদের
##িসন
কোম
##গরভ
##গরণের
দেখভাল
সংসপর
##োমো
##জিব
##সেক
পদকে
ধারাভাষয
অযাকর
পৌছেন
লোকাল
তলতেই
মনোহর
##সীমায
এলাকাটি
সনতষটি
কলাউড
##খিলে
রপপর
গহযদধের
সেলিমকে
পরচারা
বিচারকাজ
কখনই
পাটকেল
তোলপাড
মসলমানরা
seen
পথিবীকে
অংশীদারিতব
তরটিপরণ
জিহাদি
মোসলেম
রপকথা
বেলারশের
ছাযানট
build
সযামযেলস
learn
respect
লনডারিং
তাবিথ
শাহনেওযাজ
তছনছ
mail
ret
উজান
জাসট
তাকালে
পঙ
পালের
ফযানট
যের
লকো
িশি
##োহ
##াকল
সাবর
সাপের
তাব
বযথিত
উপপরধান
করমকান
পললি
সংসারের
নামবেন
বাসদেব
##জিংযের
বিষযটিতে
জিপ
উইকিল
এরপরে
ভরপর
##েশনাল
পরবীর
বযাংকগলোকে
সষটিশীল
মালিকপকষ
সাকষীদের
নাইটর
ইকযে
##শিলপীর
সমতিচার
দীপা
পরাককল
অযাডমিরাল
কযানট
৩৭টি
অঙগনের
বযসততা
কাঠমানড
##গাদা
পরামাণিক
##যতੴ
কলামে
watch
বઘবসাযী
মজলিশের
অসহনীয
cannot
age
fin
lar
ঘানা
ডটক
নলক
পেনস
ফઓ
ভরণ
শখের
৫শ
##শহ
##ভোর
বিবরতন
নিধন
অনিত
হয৴
দলমত
বিডমব
টোল
আইই
আইইউ
সমযোপযোগী
শেখর
কেনিযা
১৯৩০
##দারের
আনল
পালট
রাষটরকে
সরববহ
পরশনগলোর
another
পাননা
দেখেছিলেন
শেঠি
বেলাশেষে
জরজর
##হীনভাবে
ফিলযানডার
পরষকার
সপারিশে
রামপরা
গারডেন
ফোরবস
মৌলবাদ
##বাধিকারী
##মালায
হোতা
সপতাহবযাপী
কবিতাটি
মেযাদোতত
বোনকে
শেরপরের
সাধনার
চমপা
অবাধে
এএইচএ
সষটিকর
রাজাকারদের
কাকডা
নবীনগর
লোকেশনে
সষম
ইযং
কওমী
পযারোলে
লবণাকত
ঢোকেন
গোধলির
নিকাশ
বখাটে
শেহজাদ
দেবদাস
computer
োচযারমઘান
দাফনের
based
fit
এগলোকে
দাহ
নালা
যৈ
যতর
িড
োনে
##াতি
##পতের
##মাসের
##੯দর
##ઈটা
##ারল
করেতার
##রেস
নিরজন
##কাঠ
দিযেগো
আইযের
সহশিলপী
মানষজন
পরেজেনট
বিকেলের
##দে੪র
খেলাই
লিটনের
দিঘ
পরাগ
সারভে
গানই
মাহফি
সিরিস
অনষঠানটির
যাওযাটা
জীবনমান
রযাপিড
##সমযে
মাঝের
কলাবাগান
পরকরিযাকরণ
ফোনালাপ
জাযগাটি
সশরম
হইযা
শরমিলা
##ঘরই
গলিটজের
উনিশ
মোরসেদ
supp
কানাড
সামযিকীতে
ভাগযবান
পরযটনমনতরী
জিমবাবযেকে
এমডিজি
নযাপের
অভযতথানে
বিকরেতারা
তাততবিক
feel
লেবানন
ওপেনের
উললাপাডা
জাননাতল
চৌরাসতা
সিচব
পারবতীপর
এমিরেটস
োফবચઔযাির
ফেবারিট
সরববহৎ
got
গাজার
তসলি
নবান
শঙখলার
##টગ
##লেটের
##াইনে
##াতিক
সরফর
##টেকের
##বাদন
বিশববাসীর
বাসটিতে
লীগই
অবসানের
##েবেল
সদসযবিশিষট
আদালে
আযনা
এসেছিলাম
সরবমোট
সিরিযান
মিনিবাস
##ands
বিজঞানে
বিসমিললাহ
খাতিরে
বনপাডা
বিমানটির
বদধের
##াকরানত
মেডিকেলের
দরতগামী
বাণিজযিকভাবে
দরশানোর
##মণি
পચতઘ
মিশিযে
##তামকত
কষমতাসীনরা
ফাসিতে
আকতারজজামান
োদওযার
সাকিবকে
দশযটি
টারন
খসডাটি
train
উপভোগয
never
##পটটি
ডরাইভিং
গযালারির
পলাসটিকের
বিচছিননতাবাদীদের
##ember
রশিদের
আতমতযাগ
গোযেনদারা
পચিতেবদ
অযালাযেনস
মেদভেদে
রেজিসটারড
দৌলতপর
জিঞজাসা
কষণিকালয
30
back
অকষণ
ধিক
সগম
##সতম
##ণঠে
##াকবলিত
##বারি
নেভি
সিটিকে
সমযটায
দেওযাই
আজই
চারকলার
নিরবাচনও
##বনধন
বলাড
শিকষকসহ
পডো
নিরদেশের
কনযার
town
বনমনতরী
মহানগরে
##ালাবাদ
মানবজমিন
সফলতম
চরিত
##মালয
কাটাচছেন
টোযেনটির
বককর
সমানভাবে
মযমনসিংহে
সদনে
োনওযা
সমারটফোনটির
সিলক
##orts
হারাবে
কষেতরবিশেষে
using
রিটারন
মহাসমাবেশের
মনদিরের
এনআইএ
পঞচাশের
হসাইন
করসফাযারে
পেইজ
উইকিপিডিযা
##ully
বোঝাপডা
বেচাকেনা
োসেੳটਹর
করিসটোফার
যৈবতী
gard
আকি
ইনো
উযে
ঝরণ
দপ
##যাকট
##রাચ
জনকের
জনজীবন
##বিংশ
দেবীর
##দিনী
বরাস
সহজাত
সংসকতিকে
টরযাক
মলল
মকতিপণ
হামাসের
সালামের
ভেটো
তলছেন
২১০০
মাতরই
দরনীতিমকত
##বিদদের
বাকলিযা
ফরিডম
##ઘাগ
শরীফল
বিদরোহে
being
টযাঙক
রাষটরীযভাবে
দোলা
অভাবনীয
##টরিবিউ
বিডিআরের
উরবর
অধযকষের
উততরাঞচলে
রেসকোর
নাটোরে
কসংস
নোবেলজযী
নাজিমউদদিন
অনতবরতী
নিকটতম
বযালন
মসতিষক
##েশবরী
সহসরাবদ
রেলসটেশন
গাদদাফি
গিবসন
নিযমতানতরিক
োজএমিব
কাওডাকানদি
ইটপাটকেল
অংক
অংকের
কপার
কভারড
পঠ
পঞজ
পসতক
##জেনের
##রব
##গিজ
##গণের
##াযণের
নিশি
সমাহিত
##বাি
পাডক
নিরপরাধ
মািক
##দধির
দেশাতম
কাধ
##িযাসের
করমজীবী
বযাখযায
সহযো
ইউপিএ
তিনেক
বহরে
চারদিন
##সেফ
হওযাটা
বসলেন
আটজনকে
চাচছি
ফারমাস
বনজ
শরেয
##ases
বাতিঘর
##জারের
সবপনভ
চযাটার
ফোনটি
##গলিতে
কষমতাসীনের
##ute
করেইগ
মওদদের
১৯৪৬
যাবৎ
আমানউললাহ
এইচএসসিতে
বিনোদনমলক
compet
ভৌত
পিটিআইযের
poor
অগণিত
ধাতব
দরভাগযজনকভাবে
সবভাবতই
ডকটরস
থােক
মানবেতর
লণঠন
জিনদাবাদ
রেলকরসিং
cour
yes
অমা
অমন
আ੪
টিলা
ধামা
##রাইল
##তীত
##ছো
##ਫর
করযকষ
##ামতে
আমবিযা
জানাল
পরতিবারের
সবল
সবীর
পারকিং
##মাগম
মোনা
মেইন
##পতিবার
বিশবযদধ
অধীর
দাবিকে
নামই
সামস
আবদার
পরসন
ধরবে
হািস
চারপাশ
##বিততের
##োযাইন
ইউনিটিতে
##মযী
##সারী
জামাতা
বিদেশিরা
বদধিমত
পানিবণটন
শহীদজজামান
##েনদরিক
অসতরশ
সইডিশ
কাননার
সশানত
##বিশবের
আতઅ
বকশ
নিখিল
নানার
অসমপরণ
জিনিসের
মদরানীতি
রাহানে
কনসারটের
উপাদানের
নিঃসঙগ
ইচছক
টেবিলের
শরোতারা
গভরনমেনট
উখিযা
মাহফিলে
hard
mis
ছালাম
ডরাগন
হটট
##ীযা
##বিনের
##ভেশন
##ual
সমানে
সমীহ
পািলেয
##গরহের
শরমার
কাব
মানদ
এসোসিযে
বিষণন
উদভব
মানষটি
##ীবনের
হাডি
সাংবিধানিকভাবে
আজো
খেলছি
বারনার
রেট
নিযমান
এনভাযরনমেনট
এগতে
মরহ
লোকজ
লোকটা
##িণী
১৭৭
কালকের
একসা
today
জোহর
##িউললাহ
##এইড
মতযকে
মৌন
অপরাধীর
লকষযভেদ
চোটে
ছেযে
তেভেজ
ভবিষযদ
রববানী
##নাথন
বরণবাদী
নদীভাঙ
রেকরডের
মাথাচাডা
##কানদা
কযারিবিযান
পশচিমাদের
sun
##ফিউর
অনষঙগ
অযামনেস
একরামল
বৈষমযমলক
এসিআই
টিকতে
রিপোরটে
ননদিত
লাকী
রাশেদল
জযামাই
সেকেনডারি
পনরদধারের
##গোপতা
হেনরি
নাহিদের
ভখণডে
সফরসঙগীদের
পকরিযা
বেষটনী
নিযমকানন
পাডকোন
অচেতন
ছডানোর
তਡੴ
ফফ
রমি
লাইল
সতি
হজে
##লযানডে
##ভিনে
##তনতরের
##াসফ
##পরী
একতা
##িনিযো
নাকে
আমায
কষিতে
মহাতমা
কাজকে
ইসপাত
গেথে
হাডে
সাধারণের
নিশচিতে
পরকলপটির
##শালায
১৭৯
সটাম
সটোন
পরচারপতর
লেখাটি
লোভে
ফারককে
রকতপাত
দীপক
মঞচাযন
আতঙকের
৩৩তম
৩৮টি
সিলেবাস
বিতরণী
কণঠসবর
ভগনা
তৌহিদল
আতমবিশবাসের
অলিমপিকে
থিযেটারে
ঘরণিঝডের
সবিধারথে
পাঠাগার
জযপরহাটের
টরিট
বিআরটিসির
পাপিযা
কোনদলের
মালিঙগা
মাহফিলের
উপনিরবাচন
বাহরাইন
ভাতিজা
শরাবণ
লাঠিসোটা
যতরততর
far
ইযাম
ওবা
জিক
জৈন
ডোর
বোগ
বসন
মাযার
লমিযা
শরাব
সতন
সঞচি
##জং
##সেনট
##গযান
##দিতে
##৫ঘ
পরল
##িনেস
##ঙগলি
##নিষট
পরতিদান
মাযেদের
কারে
উপগরহ
আইরিন
চলের
অসখ
হোসেনও
দাযীদের
পদাযনের
গাণিত
ডিভিশনের
পরশনটা
মরতে
োতা
আরেকজনের
ভাবতেই
মাঝেই
##কযলার
সেলাই
মতিহার
বযবসাযীকে
এজনযই
মিলেম
বাযোস
##সিসিআই
নাটযদল
পেনটা
অদময
অবিসমরণীয
সিপিডির
চামডার
োজর
মফস
লংমারচ
চোরাগোপতা
বঙগোপসাগর
result
##aug
ধৈরযয
পাের৷
আঙগিকে
চৌদদগরাম
এনসিটিবি
বিসিসিআই
বেলেছন৴
হাতাহাতি
ঝোডো
মাথাবযথা
##গাহারটজ
চাঞচলযকর
ফাজিল
মতপারথকয
সেઃমলেন
সমবোধন
che
জগত
জযাস
টপি
দসয
##পিসি
##চিনি
##দফা
##10
করোধ
বিপততি
আরন
উপচে
দেশটা
মানার
আইভরি
##তনিক
##বলির
সংসকরণের
আশান
দাবিগলো
রোশন
কলিম
##ination
##াবোধ
মরশে
থাকাটা
##ফিকেশন
সতরটি
ফেরনান
ফেরেননি
সংঘের
সংখযাটি
মেডিস
ভিযার
আবেদনকারীর
জেনডার
কযাশ
মাসেও
ছেদ
সিদদিকের
কাউনটি
জমিযে
বোরডকে
বরষীযান
৪২টি
কিউবা
জনসংহতি
রেডিওতে
বদধিজীব
জনগোষঠীকে
পোলটরি
োহােস
হিংসর
শীতাত
গতিরোধ
এলজিইডি
##িধক
গোযালনদ
দরশনারথীদের
রোহিঙগাদের
অযানিমেশন
কারোরই
পযગােয
মেযাদোততীরণ
অমাবস
mun
অতিকর
ওযারি
মশাল
##সফা
##ফাকে
##ানকে
বলী
##বারন
সমযকালে
কাজীর
কেবিনে
অভিবাসীদের
বাসচাপায
##োজার
অনযভাবে
ইনিযে
লিচ
পদাতিক
সারকেলের
অপরা
তথযসতর
পরিবেশনের
নিযতি
হন৷
মোহমমদ
ততদিন
কোরবানি
বিশববিদযালযকে
##its
নিরাপততাবযবসথা
##বামলক
##amp
ধরেনর
মেরিট
৩৪তম
বৈশাখের
তরিপি
হরক
িবিডিনউজেক
দঢভাবে
মঠোফোনের
নৈতিকতার
মরতজার
অনচছেদটি
জোনস
পাঠােনা
মীনা
োযৗ
বরিগেড
কারযদিবসে
আবশযিক
মজাহিদের
োরেখ
##সততবা
অেਇ
খাওযানো
অপরাজিতা
ওরেফ
সটরাউস
হিনদসতান
গণআনদ
কাটাতারের
বনদোবসত
জরজরিত
শীতাতপ
জটিকে
জগল
মজন
হকার
##ীেদর
##উসের
##তলে
##rog
পরলো
আরতন
শিকষাকষেতরে
দরবযের
উদভ
বরম
বাসযাতরী
##তবপরণ
##োমের
গণশন
রাখতেই
মারামার
সমপরীতির
উতথানের
উততরসরি
##ানতকারী
তথযমতে
অরনত
বাডিতেই
পরিসর
মরশিদ
১৬৮
বযাংকক
ওযাহিদল
কোমপানিতে
মযানডেট
যাচছিলো
টাইপ
পেরেছিল
গারো
আখেরি
##পণગ
চরিতরকে
শামীমের
উদদেশযেই
টাটা
ফযাসি
চকরবরত
অনপসথিতির
বরেট
##olog
তালকদারের
মেগাওযাটের
বৈশিষটযের
বরধমান
অগনিকাণড
ঈশবরের
সহকরমীরা
বানদরবানের
কডাল
ফারনানদো
কাসটম
উৎখাতের
কাকরাইল
কনডিশনে
ঘটনাએઐল
কযালিফোরনিযার
দািযতੴ
ভমিকমপের
মসললিদের
োচৗধরী
যদধবিমান
হযরানিমলক
সিলিনডার
ইসরাফিল
sl
এধরনের
চাকায
বনো
বেনে
যਡઙ
রটি
রচয
ষোলো
সনা
সোলার
সখয
##হীনতায
##ox
##ছিস
##ઉচত
##যাটে
##িনো
##পরীতি
একাকার
##িরাই
সেকযলার
কোযাল
পারমিতা
কারফিউ
যাে
রাউল
আসব
পেটের
বরমণ
ইউকে
গণের
##োকাল
বহদলীয
মযাড
চারি
লিট
পদপরারথী
সারজারি
##ভিষ
##পরিচযের
আপেল
শিবলী
লোকসভায
চাঙগা
অপরাধমলক
২৮০
পચকা
নাসার
ওঠানো
কিশোরের
কারখানাগলোর
১৯৫৯
১৯৫৬
তীবরতা
নানন
৪১টি
মিলনকে
যগানতকারী
সফটওযযারের
বেগবান
আমদানিতে
জেলেদের
হলিউডি
ফিলিপাইন
তাণডবের
সিমফ
হাজারীবাগ
শিপইযার
কালচারাল
রমানা
##সীমানত
ডিওএইচএস
ইনডাসটরির
ভেদাভেদ
body
আঠার
টিসি
ভলি
হও
হবহ
##ীবয
##সো
##ঠায
##ভাবিত
মাহা
সকযারে
বযাঘাত
আইসক
উদঘাট
বিরকতি
##িজত
বযবসাযের
ইনসা
তোবা
সংগত
##ined
মিনিসটার
রাযপর
শোভন
তালিম
লেকের
জেএস
৩৫তম
পরযকতিপণয
রযেছি
শামমী
নদীগলো
দাডিযেছিল
ভবনটির
অনতরগত
বালিযা
গহবধর
ফারকীর
পেরর
চলাচলকারী
সমারটওযাচ
যাতরাবাডীর
চিরনতন
১৯৬৩
হাযদারের
শীতকালীন
সেরনিযা
গবেষকরা
এডিপির
ডযানি
দাশগপত
মযাজিসটরে
অকসফোরড
ফতললায
বাডাবে
interrog
খালেকজজামান
অরাজনৈতিক
বরিসবেনে
আগারগাও
ফারগসন
সরিষা
বনাযন
মাঝমাঠের
লোগো
communic
এইচআইভি
মািকગন
interrogative
games
ho
ওসব
কৈর
গীতি
হরম
৬ষঠ
##ফটে
##যেস
নিভিযে
##াকির
একটায
বলয
বলকের
##রাচর
##কারজনক
সংযত
মাঈ
মাউনট
তাহার
##কােল
রাজন
মেটাল
চেইন
চলায
ধরপদী
পরধানমনতরীসহ
আশিকর
মারট
নিরবাচনই
নেতাও
উপজীবয
তোতা
হতযাসহ
কলেজকে
শাহের
কেনদরটি
পরশনও
শিডিউল
ডিসটরিবিউ
অনযাযীই
বনানীতে
পরসকারপরাপত
সনতপত
সাজাতে
##েনসিযা
সাদামা
রাখেননি
যাতরীকে
##তললাহ
আরথিকভাবে
হালিশ
আধযাত
শনেই
সপিকারকে
সপষটভাষায
পরতিশরতির
##জানর
নিঃসব
যকতিসংগত
১৯৫১
সোনারগা
শাকসব
##ived
##চিনতা
আবিষকারের
অবমানন
অসনতষট
সথিতিশীলতার
স¤পরচার
মোবারকের
সসবাসথয
##ield
common
পযারাগযে
পথচারীদের
পেটরোবাংলা
দরগাপর
মোখলেছর
নিরভল
শাহজাদপর
আরপিও
নডাইলের
হলফনাম
হোযাটসঅযাপ
মোদাচছের
শারাপো
আউটসোর
মিলেমিশে
আধযাতমিক
অজঞান
আঞজ
ইএইচবি
গবাদ
তলি
দবির
পোলার
মলা
যগল
লল
সজনের
হানে
িভিਡ
োনত
োজা
##জম
##জলের
##দাই
##উডের
##কোট
##ient
##খানের
##fully
##ানটি
পরানা
##টিম
নেহর
কোণঠ
##লোল
দেশটাকে
ইসলামিযা
পরধানমনতরীও
##ানিযার
মামার
আশংকা
##যামত
দশটা
গোনা
পরীকষিত
জীবনধ
মনকে
মরম
##চছতর
োযাগ
##মারের
বিপকষেও
ধারণের
অনমতির
অপরাধীরা
ডেড
সবিধাভোগী
যগমসচিব
বাকিটা
দোকানি
রোগীকে
চযালেঞজিং
দবারপরানতে
আইএসআই
৬৫০
পরানতের
দণডাদেশ
পরিনটিং
অসকারজযী
prov
যনতরপাতির
তীরের
চিকেন
flor
সমতিসৌধ
ছটতে
অযথা
মযারাডোনা
রোমাঞচকর
ইসলামাবাদে
পাশচাতযের
নিরবাসিত
গাণিতিক
তরিপিটক
goo
news
past
sn
অঞজ
ওখান
চওডা
তাজিক
পিজি
যথে
##জালে
##যল
##কোন
##gg
##cy
নিতেন
একচছতর
বাথর
দেও
পরতির
পরতিবার
##টেত
##িকেই
আসতেই
##েমি
বেডানো
লাগত
##িমাল
##োসের
অসঙগ
রোচ
পরতীকে
##যামের
১৫১
১৫৭
##াধা
গাফফার
সরবশকতি
শাহান
##সবাকষর
জযটা
হেডে
সটোক
ওযাজ
বিসমযের
কালর
আতমগোপ
শেযারবাজারের
মজল
পরসকারটি
কষমতাকে
বাজেযাপত
সাজানোর
##মাধযম
অধিবাসী
বিকষোভকারী
টেকসট
অভিজঞতায
চযামপিযনশিপ
ধবংসাব
৩৬০
মামনকে
মেঘে
কবিতাংশ
চিরকট
মাদকদরবয
##পোকত
সমভাবযতা
কাইফ
জিননাহ
নিচতলায
শরণাপনন
মযাগাজিনের
রিকশার
নিকটবরতী
ফিলিপস
কিসতিতে
পরমোদ
##েণর
উজবেক
মঙগলের
অরাজকতা
বিলাসবহল
ছিদদিকী
পাটোযারী
নেতানিযাহ
সীমানতরকষী
সাহাবদদিন
সরবপরথম
সরোতের
হরকাতল
কোণঠাসা
es
কানেক
ঢিলে
দলা
ধী
মছ
মদিন
শীতে
িসি
##মরল
##মকতির
##সকার
##সটর
##গেশন
##ভেনের
##তকের
##আউ
##কৌশ
##াজকে
জনবহল
পাির
আগরাবাদ
হাসেম
##সিচ
রহিত
শেষদিকে
১৯তম
মিহির
##রতয
সারবিযার
মখোপাধযাযের
চিপ
ফিরলেন
বাডিভাডা
দলীযকরণের
লোকটি
পকষপা
তাহসান
##বনিত
জাহেদ
গলফার
পানিবনদি
হতাম
উঠা
রযাং
পચিতি
দিকগলো
সবিধাও
##িসটরি
এফএম
ফলাগ
##পরাচীর
মহাপরিচালকের
দেডটায
ভিডিওটি
উননতমানের
টযাং
বাযো
পিরষ
১৯৬৮
ঝলিতে
লাইফসটাইল
নাছিম
বিহারের
দরভোগে
ইউনিভারসিটিতে
আকাঙকষার
বিআইডবলিউটিএর
ফলোরি
ইউটিউব
এএমটি
আশরযে
##ween
িছেলন৷
নিরবিঘনে
সমাদত
মনসতাততবিক
িদੴতীয
হতবাক
হাতবোমার
অধઘাপক
ms
জোল
শঙকার
শবেত
##man
##কীর
##af
##ਙর
##োশে
বিদেহী
##তরাই
##বােদর
নাড
মাং
পারভিন
রাজকীয
কেএম
নামটা
##বাসথযের
অনেককষণ
রাতভর
পাচবার
চিগম
শোকে
##বন৷
##পোরটে
##ished
সমমানী
নিবনধক
শামীমর
পরদানকারী
এককথায
চিরদিন
পরিদরশনকালে
দীপিকার
অভাবের
অভিষেকে
বাগেরহাটে
সনিরদিষটভাবে
ডিপজল
arr
lead
পরতিনিধিতবকারী
সভযতা
ভিজে
টরিবি
পরহরী
মেগગ
দরঘটনাকবলিত
চিকিতস
রজনী
সাওতাল
আতমতযাগের
গোযেনদাদের
সানজিদা
ইযাছিন
অনিনদয
জরডানের
জাওযাহির
অਛ
অডিট
এযাব
খানে
ঘডির
ডিযে
দোল
শযত
##পেশ
##দিযে
নিবার
নিবাস
##কারক
জনকলযাণ
##রিযাস
পরতিজঞ
সবনিরভর
##গরভে
কষয
পেতাম
আইকন
মতবিরোধ
বেডিযে
ইসপ
হোসেইন
এসেও
কলহের
চৌধরীও
##পেরর
হকমের
শিউ
োট
##কোণ
পোপ
মহাসচিবকে
সটেপ
হাইসক
পরিকলপনাও
ছেডা
পরাণি
পনরজজ
সামাজিকভাবে
কষিবিষযক
ফরিদর
লিখতেন
অপেকষমাণ
রিযাদের
আমিনকে
শিকষারথীরাও
বষটিপাতের
পরতিবেশীরা
উডতে
সোনাকষ
বাচচারা
##চকরে
উপনযাসটি
নওশ
রণজিৎ
##বিধায
কাকলী
ভরতকির
সওজ
তাসলিমা
বঙগোপসাগরের
##বযকতিতব
লরডসে
পারটনারশিপ
টযলেট
rece
পরারম
ইউনিসেফ
সাযেদাবাদ
করোযেশিযার
between
থিরিমাননে
activities
বারধকয
ধামাচাপা
ap
face
lot
আযাদ
টযাট
ডমিনি
ঢলে
নোল
##িটর
##ভীকে
বাগা
সেব
মাগরি
উপসহ
উপাসন
দলগত
করমদিবস
পেযার
আহাম
এমজে
থাকবো
অবমকত
ভাওযাল
##োসট
ভারজ
পরসথ
বডদিন
##যামি
জিআরপি
সপলিন
টিযার
পালাতে
গাড
ডিবে
সরবরা
বিপকষের
বইছে
১৭৬
থাকবেই
জেনেই
ফটবলারের
ঘটনাই
isl
বনদকের
পরিযজনের
ডরযের
পরেমিকার
মোবাইলের
বযবসাপরতিষঠান
চরিতরটির
রশমি
সানচে
নিরভরতা
চরমভাবে
যকতিতে
অনসারীদের
পরযালোচনায
কাশিমপর
অমরতয
##নাটয
আইসিএল
ফরেঞচ
পেনালটির
##ছেলন৷
টারমিনালের
ইপিবি
পষঠপোষকতায
শযালা
এযারলাইনস
দকষিণাঞচলে
টেনডারবাজি
পদমরযাদা
মলধনের
##োৎসব
সফিকল
##সাপেকষ
নিউকলিযাস
সাদাকালো
বিপদসীমার
হাটিকমরল
ধবংসাবশেষ
আচল
ইকো
দলেও
পবা
রপার
লেল
ਖামী
একনায
বাঙগ
##বরপ
সরোতে
##যেরো
পারদরশী
উপদর
এরাই
##গরো
এসটেট
##সিবল
পেযা
সামনত
অসব
হাটার
১৯০০
নেই৷
##ভিটি
অযাপার
১৬০০
পকষানতরে
ওযেলক
তততবাবধান
পরসকারও
এলাকাগলোতে
তরটির
তরসকে
উপাধযকষ
অধিনাযককে
শামসন
আগরহে
শারশা
ইনিংসটা
অযালবামটির
সশিকষ
বোলারের
কাটেনি
মসলিমদের
জাফরললাহ
মানিকের
পটভমি
ভগতে
বরাজিলকে
শযামনগর
ফাইবার
দিতাম
ডালিম
দশচিনতায
পিটনি
ককরের
উপদেষটারা
ইকোনমিসট
জাগরণের
মধযাহনভোজ
কিমিট
িছল৷
কিউইদের
মাকসদ
ভেনেজযেলার
অপরিকলপিত
আতমগোপনে
চিগমবরা
city
free
gen
test
আচছনন
ইনধন
এথ
ওপার
ছানা
পতিত
বাকা
লਉઘ
শঙকর
##হড
##জગা
##সংস
##চিক
করযা
বিচিতরা
বিচযতি
##তেল
##িরত
নিরভার
আরটিসট
##িশনের
মাতিযে
##দধের
কমায
##গরীর
##ফোরডে
শিকষাজীবন
সিডির
পলের
মতন
সথলা
অংশবিশেষ
গোতর
##ফরনটের
খানও
মযাচগলো
##মলযে
১৬১
লোকসভার
বযাংকগলোতে
চকতিভিততিক
একসিল
কষমতাযনে
২৭০
ডেভিস
পরাণঘাতী
মখেও
##মোহনের
অনতরঙগ
##সলভ
অবৈতনিক
গযাসকষেতর
##গোডায
সমতিসতম
বনদরনগর
দখলমকত
৩৩টি
তথযান
জযাকস
ঊরধবগতি
##জোড
সেমিফাইনালের
সরবসতরে
চকবাজার
শবাসরদধ
##ages
দাতাদের
মেমোরি
দশচিনতার
পিঠা
লিজেনড
োগেল
মখরিত
কেজরিওযালের
##চরিতরে
ফেলোশিপ
##িডেকল
বরাদারহডের
অবাঞছিত
কাপাসিযা
অঙগরাজযের
নিরিখে
চিকিৎসাসেবা
শৈলকপা
আশানরপ
ফলাগশিপ
ওযেলকাম
four
আবিদ
কবিকে
জমিন
তঙগে
পানের
ফসলি
ভের
ভিযা
মযায
মদিনা
রযালি
সওযা
##থাসহ
##ানধ
সমথગ
##বাটি
বলপর
পরিহাস
সরকারগলো
রাজবাডীর
মানায
দরখ
দরপতরে
দেখতাম
মতাদরশ
বছরজডে
দইটায
পরাধযকষ
গোমেজ
রাষটরধরম
##জাতির
##গেজ
অনষঠানসথলে
এনএ
সিদধানতও
নিতেও
অপেরা
কযাথ
ইউরেনিযাম
যদধাহত
think
উৎপাদনশীলতা
চযামপিযনশিপের
আননদবাজার
দেডটা
আকতারকে
পযাটরিক
ভাসানীর
নিঃসর
অধিবেশনেই
আদরশে
##ভাইজার
টাঙগাইলে
পলেবযাক
শিলপন
সমাপনীতে
সেরেনা
োমিডেকল
দারোযান
সীমাবদধতার
লংঘন
২০৪১
লীেগর
গালিগাল
কালিযাকৈ
জীববৈচিতর
ফজিলাতননেসা
পচাততরের
টরযাজেডি
তকমা
ওযাশিকর
নসিমন
নিকষেপের
ইকযেডর
কষমতাসীনেরা
অসতরশসতর
হটটগোল
##সফাযাের
pol
অপত
ইতো
চাব
ছিনি
পাসট
শੴ
শযযার
সবরে
িফের
##িপেয
##চিযা
##দষণের
##দখল
##উপা
##তলের
##oice
##পরতযা
##াতাল
##োগলো
##িসতি
সাযেম
##যানার
পরতিসথাপন
##ষঠা
কারাম
বযসি
বযতীত
কাঠামোগত
কিপিং
##পিযার
##নদদীন
বিশবজিত
পেমেনট
এমি
সহেযাগ
ধরমে
তিনটির
বৈরি
##দেস
হারও
বিষযেই
চৌকি
সারচারজ
চাইব
ফিরেই
মধযয
অগরিম
সমাবেশসথলে
কোরিযান
একসপের
হাতছ
দীরঘসতর
পতরবধ
নগরবাসীর
যেমনটি
##বিলিটি
যদধবিরতির
৩১০
এফডিসিতে
ছাডবে
কানিজ
দীনের
পরিবহনমনতরী
যথাযোগয
উচিযে
হানিফের
রোধের
জাকাত
জাতীযতাবাদ
ঘমনত
আতমীযের
হোযাট
কনসাল
contr
অরণয
অরণব
ফলযাটের
কামারজজামানের
কিংবদনতী
অনভিজঞ
নবনিরমিত
বিএসইসির
দাউদকানদি
বোযালিযা
অনতরভকতির
লোহাগা
গযারেজ
ডলফিন
তামাশা
আলজেরিযা
লিপিবদধ
আইপিএলে
সিরামিক
সমানতরাল
eff
jo
run
আযান
উজির
জঙগল
টডে
নজি
মডে
লাস
সিকান
িকে
##িগত
##ফাত
##ংখলা
পরবস
বিতাডিত
##তরণের
##াজানি
সাবা
নিরঝ
পরতিমা
মাউস
কারিক
এমপির
##বলিশ
কাজি
##ততবের
চলেন
##বযসী
এলিট
আশংক
ইনফ
জিএস
পদমায
উইংযের
খবরটা
তথযও
রেঞজ
রেগে
##লেনদ
অযাসা
পথচলা
মরনে
মরসি
মরশি
১৬৯
কোরীয
একসিকিউ
আযোজকেরা
গডেছে
জোনাথন
দরততার
পরিবারগলোর
কারযকরমকে
ফিলিং
##icult
নাটযম
করিমিযা
িনম
জিততেই
পোসটের
মাতরাতিরিকত
##দৌলা
ইমরোজ
রেজিম
দঢতার
রাসেলকে
বরেসন
##ives
আবাহনীকে
ইলেকটরিক
সিএসআর
সৌনদরযের
ভিলার
জঙগলে
রেশমা
##চনদরন
লাকসাম
social
lived
ঝটিকা
জলপনা
পরিশরমের
রসিকতা
ডাযাবেটিস
লালদীঘি
দসতগীর
গাপটিল
আফছারল
জবরদসতি
একসাথে
##ভিষিকত
উপসহকারী
ঔপন
চডায
চাহিদ
ডাম
দধের
ফোট
মডি
রবী
##হযা
##ীকা
##মিশ
##মকা
##শানের
##ষটার
##কলায
##তেতੴ
##লেষণ
##নাশের
পরতিতে
কারজন
মধઘ
অভযার
অভিস
##োধিত
মতিনের
##িমায
কেপে
মানষগলো
অসদা
হাওযার
গণপরিষ
রাখেনি
দিদি
১৫৯
মখিযে
সরবকষেতরে
অযাসটন
সিনেমাতেও
##াবো
##aster
##ভরষট
উঠতি
পরসততিও
সাদশয
জনেরও
পতাকার
করমীসহ
রামকষণ
পাইপল
##পরতিবনধ
হেলপার
রশীদের
হমকিও
##শিকষক
কপোত
বসতঘর
গઝাম
গৌরনদী
মিতরদের
শানতিরকষী
টিকিটের
কিরগিজ
টরলারে
কতিতবের
ডোবায
পরটোকলের
রপকথার
উডোজাহাজটি
ডেলটা
এলবিডবল
ভরমণে
রেসতোরার
সতমভ
meaning
ইনটেলিজ
সরমপকে
ide
আংটি
তেজসকরিয
পরিলিমিনারি
অবমাননাকর
16
gir
river
ve
ইছ
ইভা
কসতা
চরফ
তামান
দীকষিত
ভণড
যিদ
রাকা
রকাটন
লাসট
##হানী
##ীপর
##বাযের
##টেলের
##ফলে
##ঢালা
##যেও
##বেলে
##াসমপনন
জনদর
অনাব
##াকাঙ
কষির
মানবেন
আইচ
সহিষণ
চলত
সামিযা
দেশেরই
আজগর
উতসব
##বেদার
আইনবিদ
বডদের
শাহিদ
বিপণি
মিলখা
অনষঠানেও
ফলযাগ
##আরএ
যকতরাষটরসহ
খাডা
বিমানবাহিনী
অনষঠিতবয
সচরাচর
কলাপাডা
সারাহ
নেততবেই
পরামরশও
পেরেক
দঃসংবাদ
দবিশত
ভোটারবিহীন
অরথনীতিবিষযক
রাজিউদদিন
বিধানসভার
কযানভাসে
ভেবেই
ass
টরেক
মীরজা
গোলাবার
দণডপরাপত
university
জলাভমি
পরজেক
গরাউনড
রাববানী
নৈরাজযের
হালকাভাবে
লালমনিরহাটের
উভযেই
দালান
করতাবযকতি
টাসকফোরসের
অনতঃসততবা
সপাইডার
িছেলন
##পষঠের
শোকাহত
বাযেজিদ
অকতকারয
নিরকষর
হাসিমখে
number
অেਇাবর
আখি
ঈরষ
চরা
পਉ
বারথ
সতযা
সিকো
##মতার
##বামী
##ণবিক
##দাল
##কઈ
##ভাত
##ness
পরবরতনের
নাবিল
নেভাতে
##কাতে
কষধার
মেটা
##কষেতরের
অংশই
পরকাশনীর
আযশা
১৫৬
বনধনে
ডিবির
অরকষিত
খেলাঘর
পরতিষঠানটিকে
তদ੪
চলেছি
বোরহ
ফলেসট
সটলের
কালভার
জামানত
বনভমি
##োভন
আবেদনও
ওযারকিং
##গরহী
কেরোস
খোচা
বোঝানোর
ভালোবাসায
বদধিমান
হইবে
fru
তরিভজ
পিলখানা
জালালাবাদ
করোড
নাটযশালার
অবকাঠামোর
মতবিনিমযের
গরনথে
ভযাবহতা
শাকিরা
চামড
পরিনসি
টিআইএন
সনদরবনকে
শরণারথীদের
পাথরঘাটা
ফযসালা
বািডেত
ছাতরছাতরীরা
নীতিনিরধারকেরা
মযালওযযার
িনিઉচত
সচেতনতামলক
উপরিউ
শরীযতপরের
ঝেডে
কপিরাইট
ফিদেল
কানাডীয
তসলিমা
তਡੴাব
সথলাভিষিকত
fire
pub
অকষম
ইইউর
উচছেদের
ওমান
ঘনী
চরের
থযা
ধযে
বেলের
ব੯দ
মযারি
ম੬ী
##মিকে
##la
পরাত
পরলয
##লৌ
একনে
##াইনি
##বাবা
নাচে
সাফি
উপউপা
কাফর
করমের
করমকত
##াপদধ
পলোগরা
হিসাবর
গণভবন
চারদিক
আমারে
##ছাতে
গাথা
চাইতেন
##হাটা
সেনাক
কলযাসিক
মনটা
পডযা
একইদিন
##সটিক
তদপরি
মরব
##দীপত
োবর
##োদযের
নিষপ
ভাবলাম
এইচএসবি
যৌতকের
সফরকারীরা
ডাকতে
##এলসি
অযাপের
শারলি
খনদকারের
উপরয
##ডিংযের
বিকলপধারা
বিযেতে
অযানাল
রাষটরদতকে
ডানহাতি
##জোডা
খেযেছেন
সংবরধনায
আউটের
ভাষযমতে
অসনতোষের
পরিচছননতা
মেটানো
বখারি
স੬াসীেদর
learning
ইসলামাবাদ
এতিমদের
popular
##নিযনতরিত
আলাপচারিতায
ডিআরইউ
তাডাহডো
ফরাশগঞজ
মাতববর
ডিযেগো
এমজেএল
গালিগালাজ
উপরিউকত
fun
ইমেইল
ঘনিষট
বચা
িরে
##ললা
##2o
##ংযে
##ঘটিত
##াজক
সমারথক
সংকরম
সংবলিত
##ভাঙগা
কোণে
##িশি
সবাদের
বাংলো
২০তম
অভিপরায
##িনাকে
গণগরন
মারতিন
জাতীযকরণের
মযাপ
আযত
##বানদা
##পাতিক
বারমিং
পাঠদানের
হামিদর
কলকার
সিনেমাটিকে
বোযিং
অপশন
ওযাটস
লেভান
আতমপকষ
উৎপততি
সমসযাটি
নীতিগতভাবে
বিবেচয
খোদা
রকমারি
আপনারাই
##মোহ
##ecial
যনতরে
মখযমনতরীর
বিশলেষণের
মোশাররফের
শভকাম
আহমমে
##vern
আশরযকেনদর
যাতরাপ
জেনেভা
সালাউদদিনের
পলেযিং
সমারটফোনটি
সবচছতার
নিরবিঘন
দারল
##াইজড
সঞচালক
ওযাইলড
লারমা
চোরাগলি
##মিনিটে
নাশকতাকারীদের
নিবিডভাবে
িবেઍ
দবাইযে
রেফারেনস
আকসমিকভাবে
ফিলিসতিনিদের
নেভানোর
দিদারল
শীষગ
হাতিরঝ
বাউনস
খোজাখ
অযাকাডেমি
চেহারার
open
গজরাটের
চযাডাঙগার
born
শিকাগো
ডেলিভার
ডটকমে
সরবরাহে
ছিনিমিনি
গণগরনথা
অজি
জেলের
জমক
থিও
পচ
মকট
যকতির
##ডমবর
##ষটের
##অন
অনসম
কোসটা
পরিমল
আসীন
মানছেন
দরীকরণ
##াপির
বেচ
##ীগামী
কিনডার
খেলানো
পডেছিলাম
জিৎ
খবরও
##ina
##জজমান
জযলল
##টিংযের
আকরামল
পরতযাখান
লেব
খাবে
এইচডি
সাংসদকে
পরিণাম
অযালিসটার
ছাডবেন
ফাডি
পরশিকষণে
রামকান
কযলার
beh
পরবেশপতর
কারখানাকে
পাঠিযেছিলেন
োদন৷
অযানি
বৈশাখে
তানভির
চমকি
আসিফের
##জনেক
বলবৎ
রকষণাতমক
ভগনি
আেবদ
হাউজের
লকষমীপরে
কসবা
গৌরবের
ঘনিষঠতা
গাইবানধায
##মাসটার
নাদিম
চমকপরদ
োফেল
ঘটাচছে
##জগতে
কাটাকাটির
শতাবদীতে
##মালিকানা
জলিযান
জবসের
খতিব
ভখণডের
করোযেশিযা
201
##টরাকশন
মিউনিখ
কোপেনহেগেন
অযাটলেটিকো
##ফোডিল
উদবাসত
ধারাবাহিকে
সরফরাজ
অযামনেসটি
সাদামাটা
পরিনসিপাল
por
টঙগ
বকিং
িছ
##ীকরণে
##জিসট
##মহা
##চম
##তઓ
করদাতাদের
##ঙগলের
অনদর
##লাপ
কারডি
উপসং
করমকমিশ
দরপতরের
গরমের
দেখালেন
পরসারের
পরসনন
অসহি
##পততিতে
##সেই
ঘোডার
রাষটরবিজঞান
কলেজগলোতে
কলেজিযেট
রানওযে
আগামীতেও
সিরি
বযকতিতবের
হনডর
সালিমল
ওযাহি
##পরেত
পানিবনদী
২৬০
ঘরেফিরে
খলীক
পরভাবের
ভাঙনে
আওতামকত
িবચ
মিথন
##পরতিম
##সথানীয
মিলনাযতনের
গতিশীলতা
আরিফের
অনপযোগী
টেপ
পাটজাত
রসদ
দারিদরযমকত
সখকর
govern
হিয
বানিযেছে
হিমেল
##iful
পদারথবিজঞান
সিআইএর
সটোরেজ
পোলযানডের
সটডিওতে
উদযাপনে
অযানডারসনের
রাঙামাটির
চারটারড
খোরাক
জযাবরধনের
োভাের
কযেতের
রিফাত
িਠઙেকট
হাযদরাবাদ
পাণডলিপি
modern
সਔীত
মরিযারটি
ভবিষযদবাণী
ইজার
এব
চতত
ছডাতে
ডোযাইন
ধসতা
বশে
ভেলা
রবেন
লোপ
শততম
হডো
##সদন
##দাতারা
##শম
##ফেজ
##ানযাযী
পরামান
##িনীতি
##িকন
##িকরম
##টিআই
##লেশ
##াইটস
##বারক
##টাপনন
##মানয
##মােনর
কাশিযান
বরাক
বেগে
বেকায
ভাঙগার
দইজনকে
##লপা
শেষকত
ইসলামপর
আওযাল
সদসযও
খেলব
পরাচয
##ফলল
পাচলাই
সরবদা
দটিই
সোমবারও
বসলে
ফলন
##ord
রিযার
অপবাদ
পোষা
একসমযের
কনঠ
সমাজসেবা
লাগায
শাটার
লাইবের
নজরলকে
##গলাস
বিবিএস
বিশবকাপেও
পৌরসভায
শাসনবযবসথা
ষডযনতরমলক
##গিরি
সমরণসভায
একবারই
করিযেছে
বাযদষণ
অযাসিসট
পরতিবেশীর
সকরিযভাবে
৬৪টি
পরিশোধন
শরিকদের
plan
ফরেম
ডাকতারের
টরানসফার
##ਠઙা੪
##ছেলন
grow
##ogue
ਠઙসফাযাের
পযাটিনসন
মহাকাশযান
ধরমনিরপেকষতা
paragr
সহানভতিশীল
পনরবিবেচনা
ভমিকমপে
মোরশেদল
রাউজান
ইহসানল
উডডযন
incre
honest
সদরপরসারী
ধমকেত
এজেনসির
মরশেদী
উপরযপরি
অসহিষণ
paragraph
dial
raj
উষ
খশির
গিনি
গনে
জাদে
ধলা
বেষ
ভোলায
ভোকাল
রচি
রিকার
লাকি
সাকি
##শেন
##খেল
##ানবাদ
নেম
##ওযাই
সাতরে
সেਠ
গরভে
পেজ
দাঙগার
বাসদের
বাসনা
##জিবি
##পাচার
আযরন
জিতিযে
##ছাতরীর
##সতান
সারো
অপরিশ
খাননা
হামদ
রেজার
চটটগরামগামী
##সবীকার
উইকেটকি
বঙগভবনের
উললেখিত
নিশচিতভাবেই
চেষটাও
##oup
ফারমে
জানায৷
জাতিসত
ওযারন
যারিতে
বিনির
রেলপথে
কিশোরগঞজে
করমচারীকে
যনতরটি
পিরবােরর
##বযবসথাপনা
১৯৪২
জেরিন
সালমানকে
আনতনগর
অনধকারের
অধযাযে
ঢাকঢ
##ific
তাগিদে
হেযি
দরবততের
ভাবেই
##৪৫ঘ
ইউকরেইনে
টঙগীপাডায
সঙকটে
কৈলাস
মাইকরোবাসটি
রোমাঞচিত
টেমপ
মালিবাগ
অযামবলেনসে
কোতযালি
##পোলির
healthy
মোহামমদের
মরালিধর
মযারাডোনার
ভোগানতিতে
trees
লৌহজং
দষটিভঙগির
মাসাকাদজা
during
অপতৎ
চরফযা
ঘনীভত
emp
অজন
আেস
জারা
নডা
ফিনি
রযাল
##সতরে
##ৎসি
##দীয
##੩টেক
##up
বিটিভিতে
একলা
বললো
নােমর
পরিতরা
নিরবা
##মাে
মানানস
গরবের
আবের
অসকারের
বিষযভিততিক
পরিচালনাকারী
বারতার
সাংবাদিকসহ
ফিরছে
সিনেমাগলোর
##াবহ
দকষতায
রাযহানের
ইতিপরবে
চলচচিতরবিষযক
শকতিধর
##ason
ভাগযে
২৭তম
লাইসেন
লাভল
মাইকিং
ফরিজ
শিকারে
সপরিযা
আককাস
কৌসল
আকরষণের
বরেকিং
meet
এএইচএস
কাঠামোতে
গোলরকষকের
নাচিযে
মেশানো
কযালাল
##৪০ঘ
around
ইপিজে
বেতারের
দীরঘমেযাদী
টেকনোলজির
রণবীরের
##epend
খলনাযক
বরাহমণবাডিযায
সারিবদধ
জবলছে
ঋতপরণা
দীঘગ
মিললাত
ভোগানতির
বেনজীর
হেমাযেত
খাদযশসয
শযালক
চিরপরতিদবনদবী
আইএসপিআর
গরযাভিটি
নিউমারকেট
রচযিতা
flora
dialogue
থারা
দিমি
নকি
যবসম
হটে
##হায
##নামা
##পਠ
##মারা
##বশত
##লযে
##গডে
##কઘ
##খিন
##rop
পরর
##িনয
##পরহর
বাতির
নাগর
জনজীবনে
নেবো
সরাইল
সেবক
পরতিমাসে
দলটা
আগলে
##তিকথা
সমযকে
যাযিন৷
কেট
সাংহাই
১৫মি
হতেও
##াযকো
গানরাজ
মাহির
মনথর
মিলক
##গাডী
##আরএম
সপারহির
##মরতি
গলজার
মৌচাক
মহানগরীতে
ছাতরলীগকে
পররাষটরনীতি
লালপর
টরাকটর
চযানেলগলো
অগরজ
করিমিন
লোপেজ
দঃসাহ
অবযাহতভাবে
কাপডে
৭০টি
গতিপথ
জঞাপন
ফোটা
ডেমরা
অশোভন
রেডিওর
তযাগী
env
সিসটেমে
##পরেমীরা
গলাভ
জলাবদধতার
সারকলার
সামরথযের
সারবজনীন
আতাত
জাগানো
নতযশিলপী
মণডলের
পোলযানড
টাইমসের
মহাজোটে
পেটেনট
কোহিনর
নবাবগঞজ
রাজারবাগ
সমাজকলযাণমনতরী
মধযসথতায
আরোহীর
কলিংউড
অপপরচারের
বিমসটেক
উপাধি
জীবনযাপনের
গাংনী
large
হডোহ
অপরিশোধিত
মানানসই
কযালালামপর
গঙগার
ঘটক
দটোর
ভন
মিমি
মফিজর
রিল
িনধ
##রনি
##ফতা
##উনে
পরডাক
##যেদল
##বেদা
পাઈটা
উপমহা
সিমেনটের
মহযা
অবশઘ
ভাটি
নামাতে
অভিবাদন
কেনাকা
গণভবনের
গণপিট
পরতযর
বডদিনের
১৫তম
গোপ
আনচেল
সংগতিপরণ
রেদোযান
চিতরের
সালফার
ফরেনস
##াইকোর
পানথ
তাহলেও
তাহমিনা
নরদ
দেখেছিলাম
কালী
ততীযত
কেবলমাতর
আসনটি
সমভাবনাই
দৈহিক
কিশোরীর
পাইপের
বিবিএ
চাকরিজীবী
হইনি
একাতম
##ভোগীদের
মিজারল
##সতাব
মাহমদা
##ility
ভেবেছিল
১৯৪১
এডিসি
বাজনা
দরযোগে
কাশম
choose
নিমনমানের
বীভ
শযামপর
পরবনধের
হদিস
কষেতরফল
আইসিএ
রনিকে
পચধানম੬ী
হারডওযযার
ছডলে
কযাটরিনার
ধরমনিরপেকষতার
দীনেশ
phr
এজলাস
ইলেভেনের
রদধদবার
পলিটিকযাল
গোপনীযতা
কনডিশনের
##icket
নিযামক
ফরেনডস
ফযাকটরি
অনবেষণ
আলেকজানডার
##বৈষময
উচচাভিলাষী
সংসপরশে
জযাকসনের
জমকালো
field
sound
আের
ঋষি
ওরি
ককের
টট
তজ
ধমক
নোভ
নাইকোর
হেনে
##াখ
##বਤ
##শক
##খাতের
একচে
একসেস
একাকী
করেমল
##াইতে
##োরটি
##রিটি
সবনাম
##ালেয
উপকরম
মোসট
মতপরকাশের
##িতেই
ভাবল
আজঞ
শিকষাবোরডের
দিতি
উপজাতি
তোপের
##িকাট
কষমার
##ভিপরেত
পিযার
শিলপোননত
গতকালও
পরিচালকরা
সটযানড
তাহস
গাডিগলো
বদধদেব
দিলো
একেছেন
সচিন
সমমানসচক
ঋণচকতি
হাজীগঞজ
জাহাঙগীরের
বিজেপিকে
কারখানাগলো
পিরচয
যকতিযকত
সবলপতার
##એઐার
সনদবীপ
পশচিমাঞচলের
পরযবেকষকদের
সংঘাতময
ফিলমফেযার
কলিনিকের
ইরানকে
অতীতেও
কযালালাম
ডেসকো
আনতঃমনতরণালয
কারাবনদী
বাধযবাধকতার
##কাহিনী
বিশবসাহিতয
বেআইনিভাবে
নযাদিললির
বািডর
সাশরয
করসিংযে
কেনেডি
মোখলেসর
চরমপনઐ
contin
করিশচিযান
বিলোপ
##ledge
সংসকতিকরমী
ভগনাংশ
বাযোসকোপ
একসিকিউটিভ
তਡੴাবধাযক
বেকাযদায
hun
অনতরীণ
আকাল
ঘমা
দটিকে
ফাত
শাকিবের
##পীর
##ধাপ
##শচিত
##ઘায
##tc
##cr
##ালন
##ামো
একমাস
বলযা
##িসিযা
##ওযাট
এরআ
কাশি
দাগন
##পারস
গণমানষের
অরথপরণ
জাতীযকরণ
মিਡઙ
খেলানোর
লিউ
ডিপারটমেনট
কলষিত
ধারাবাহিকের
বাহাত
##ense
লেভ
কেনদরীযভাবে
##ale
সফরকারী
সথাপনার
##leep
মকতিযদধকে
কমারশিযাল
জনসনের
অফিসারস
নেমেছিল
বনদীদের
বযাটমযান
সানতা
সতপ
পিরিએઐ
পাবગ
পরাইজ
পোসটারে
সটারক
কাদমবর
নকিযা
বাগবিত
সকোরবোরডে
দণডবিধির
জিনপিং
এডিবির
দাডাচছে
পাঠাবেন
independ
##িচায
লজজায
লিজা
ফাকির
লাহোর
বযাঙগালোর
popul
ਊরઔতੴ
clean
সদরদপতরে
গণফোরাম
ডিজাইনার
অকষণন
দপচা
ঔপনযাসিক
ধসতাধস
বীভৎস
17
air
tree
আেন
খেজর
ছদম
থিস
নাসা
বেকে
বীরা
ভঙগি
রময
সজজিত
ਖীকার
##রায
##zy
##িনকে
বিবাদী
##াকিযা
বাটন
##বািহ
অনভিপরেত
##কাও
রাজনাথ
গরযাজ
মহামানয
সহদ
অবধারিত
রহসযের
পরসেস
দেওযাটা
হাবিল
রাখতেন
রোদে
##ৎসনা
টাকাপয
মনেই
##াধন
পদবঞচিত
টিপে
##ামাটি
চাইল
সমপাদককে
রানবির
এনইসি
মধযদিযে
সাতশ
রাতেও
তাহর
২২৬
##arr
পরসতাবকে
##ality
হলফন
এইচটি
সরবোততম
নেমেছিলেন
সনদরগঞজ
দাডিযেছেন
চতরঙগ
মডেলিং
রামেনদ
সেতটি
কানাই
সমভাবনাকে
##ope
নিরমিতবয
৩৪টি
পিরকઈ
ভযানচালক
ফেনসিড
সোনারগাওযে
অযাকশনের
সাধিত
কণঠের
ককষপথে
তরাণমনতরী
ফযাশনসে
ইউপিডি
শোধনাগার
speak
ডবলিউএইচ
রহমতগঞজ
brother
others
মখারজির
সেকেনডের
এলিযট
যোদধারা
নিনদনীয
এজাহারভকত
অઘাল
বઘবએઐা
ইযাকব
তিবব
##তবিরোধী
বযাবসা
বকষরোপণ
আহাজারি
পরচারাভিযান
garden
উযেফা
অਛাত
দাগনভ
bank
আিদ
ঊন
এেস
কহ
কশ
দাদার
বশের
লবি
শিকল
হরল
##জাদের
##বতা
##গচছ
##তালি
পরমো
##কেটের
##তেদর
নিভ
জননির
##করী
দলবদল
এরও
##রথিত
ইসমত
সহকারীর
ভাবন
চলক
শেষবার
হাথর
পরতী
##থিব
শহেরর
সরবনাম
পরিবেশমনতরী
রোববারও
মহাসথান
শধরে
রিচি
২২০০
কালজযী
কতটি
##itive
শাটল
উঠলো
##িংযের
ডেপ
কলাউডা
ফেলেছিলেন
পাকিসতানিরা
পঞচবারষিক
##ধেয
বিরোধে
ভযসী
কবিগর
আইনশঙখলার
কলাবকে
দবারসথ
মোডানো
##জঞানহীন
উডনত
এডিশন
ভযানটি
জাসটিস
যাইনি
ভীতিকর
chang
ছাপার
পরবাঞচল
ফিলমসের
রণাঙগ
সাউদারন
বানিযেছেন
মোসতাফিজ
ইচছায
রেডকর
ভাবমরতির
ইনডাসটরিজের
লজজিত
knowledge
শীঘরই
রিপাবলিকানদের
গরীষমের
চানদগাও
আবদাল
সসমিতা
এভিনিউতে
সমসামযিকবিষয
সদিচছার
সাকষরতা
সামঞজসযপরণ
বিশরামে
কষিজমি
অতলনীয
লাদেন
যৌগিক
পািটગর
নাইটরোজেন
ফারমাসিউ
অমাবসযা
শারাপোভা
মাগরিবের
ঢাকঢোল
হলফনামা
হাথরসিং
litt
কাকসিকষত
ভায
ভগে
ভমিতে
রাদ
৭ই
##ফাস
##ইসট
##no
করদাতা
##যােগ
##িরার
##িযেটিভ
সংিশ
অনিম
অনশনে
এইজ
লাও
কেনদ
ইউএসবি
বহষ
দেখাশোনা
টিটো
মখেই
পরাযর
কলিনট
##গাং
হকসহ
শিশশরম
বাডিঘরে
##onment
হাতেও
নিশচিতের
নিশচিতভাবে
অগো
দীরঘাযিত
কারাভোগ
বেসরকারিভাবে
লালনের
ফিলমস
ইরানে
ফাটিযে
জমিজ
##পণযে
মকতমনা
আতাই
োদেখ
অধিকাংশের
area
জাফরের
ঘাটিতে
টরেডিং
পাটগরাম
such
সদবযবহার
দজনেরই
রবেলকে
ছডেছে
পরাঙগনে
নাচতে
একতরিত
কনসোরটি
সবযসা
plant
বিএসএম
মমিনর
##৫৫ঘ
বেডাচছেন
ভিনসেনট
ভোজযতে
জীবাশ
ডিজিএফআই
এহসানল
আগারগাওযে
##পরাপতির
পরিলকষিত
অবযবসথাপনা
##পেਉর
গরাফিকস
পরসততিতে
কচছপ
হালিমা
uncle
পেনসিল
কপোতাকষ
শভকামনা
government
জাদেজা
একচেটিযা
হরলিকস
little
ca
same
কিসি
কখযাত
চিম
জঙগী
রপির
লাসি
##সতার
##টরা
##ever
##কিশ
##ভানস
##ঝিতে
##੬ীর
##বিহ
##বিবি
অনাদা
##রেখা
বলেযার
বিশঙখল
আসিনি
##চারি
বযাটের
ভারেতর
নামান
৩০৪
মানষগলোর
খেলেননি
মাসতান
গোডায
সারার
সেনস
পিৎ
বযকতিস
চেযারমযানদের
##চছবি
োਉেਠ
হেদাযে
উদধারকরমীরা
গাডিও
বিপকষেই
জোযারে
সমপরকোন
ভিডের
বিলট
সৌভাগ
নদীগলোর
আনাগোনা
ডরপ
ভোররাত
পাইক
ভিডিওর
##lymp
পরশংসায
রাসতাটি
ভিততিসথাপন
রোডমারচ
ধাবিত
দৌরা
মেলান
বাগদাদ
করাইসট
গোলাগলি
সামানযই
চামচ
exc
মজিবকে
সোহাগের
মযদানের
অনােন
পরতিদবনদবিতাপরণ
তীরবরতী
বিশলেষকদের
লঙঘিত
##সঙগীত
আফরিদির
##পরসাদ
##েযাজন
ডযাফোডিল
ফরাসউদদিন
##সনধযা
সমারকে
বিমরত
##ccess
রাজযসভায
বਡઙবઘ
নেকসট
সিমনস
কামরাঙগীর
অবতারণা
হাইলাইটস
মযাজিসটরেটের
হাতছানি
girl
200
kill
xi
আজি
ঘির
ঘিও
ঠাট
ডেজ
ডযাব
তরে
বম
শরিয
হেস
োসা
##পণে
##ধির
##থেকে
##ভিজ
##ঝির
##dd
সমতিতে
##িসিযাম
##নিযকত
পরতিটা
পরতিধবনি
##যেনসের
কাতর
##চিপ
রাজেনদর
মানচিতরে
কেস
খেলনা
খেলবো
শাহী
খেলাকে
মনমন
পডলাম
জনগনের
১৭১
জোছ
কাজেও
রপদান
সমমেলনককষে
টাইটেল
ইকযেড
অতটা
আককেল
##imkhan
সলতানের
মনিটর
##abul
িনেদગ
৪৪টি
কাদা
ছোডার
পলেসি
উততরাঞচল
কবরের
আকবরের
এএইচডি
অগনিসংযোগসহ
sea
নৌকাটি
কনসালট
িদেনর
ইংলিশদের
অরডারের
কলোনির
##ডামারা
জোগায
ভালবাসার
বৈচিতরযময
মহেশখালী
##মনতরণালযের
পৈতরিক
কলাকশলীদের
নিউকযাস
কদমতলী
সঞচিতি
munimkhan
দরখাসত
কারিকলাম
envir
rest
swe
অদি
অলৌ
কাযকো
ঝোক
টসে
তাকায
ধরি
ভপা
রলে
রঙগ
রেবে
##হলের
##জিকে
##ণীর
##ফজজামান
##ইর
##ਗল
##yr
##ઍটার
পরতন
নিদ
##পরীর
একগযে
আরশাদ
তাগাদা
##ডেজ
##সিএল
উদগর
ইসতাম
তিনবারের
মারকা
চালিকা
তোড
তোকে
##েনটস
গোডার
সমপাদকসহ
বিদযার
যকতরাষটরভিততিক
ওযাচের
ভিডিপি
উঠতেই
মজরির
##ics
আপনিও
অযালেন
খেলেও
অবযাহতির
আমিরাতে
##uth
##ভোটে
নিরমাতাপরতিষঠান
works
বিচছিননভাবে
৫৪টি
ভোগয
doct
শতরর
above
##যাতরীদের
শোনালেন
ইচছেঘডি
ডাইভার
দবনদবে
বিআইডিএস
খজছেন
দারন
পাওলো
সিডল
##বিধবসত
রিমানডের
passive
বটতলা
রপতানিম
dress
লসকর
পাকাপোকত
গাডিবহরে
উপদেষটামণড
সবাধীনতাসং
রকতকষরণ
দরশনারথী
বারিধারা
বিভরানতির
birds
উইকিপিডিযার
অযাথলেটিক
ৌবঠে
ইমারত
অনসরণের
কেনদরবিনদতে
ভটভটি
শাি੪
মেদভেদেভ
জনদরভোগ
আহমমেদের
ফারমাসিউটিকযাল
pur
tort
ওঝা
তপত
রমের
লযান
লামা
সেলের
োপা
##বযানড
##ফিস
##ছবির
##াযত
##রাণ
##রাটের
সংহত
জনৈ
জনবিচছিনন
অনধর
##ওযাশ
সেটের
##কাির
বিষাদ
দাখিলে
বেটার
সংসথান
দইদিন
হারভারড
আইনকে
দেখাচছেন
##এমএ
মাহতাব
ঘটনাটা
কামনায
রাযগঞজ
ইংগিত
অপমতয
পরীকষাগলো
উচচতার
অবসথানকালে
নভো
উৎকর
অতিবাহিত
সবিদ
জডান
সমসযাটা
উঠি
মালিকানায
পચশ
মহাখালীর
কামালউদদিন
এফডিসির
সবাভাবিকের
নিযমিতই
হেলও
শিবিরকে
আশরাফজজামান
state
সাননি
আইএসবিরোধী
মঞজরী
আবদললাহর
##িলিযন
সেমিস
সোনাইম
success
অশানত
নাটযবযকতিতব
সসথতা
সটরোক
পেসাররা
##েবশ
শরেষঠতব
##দশગ
গোলরকষককে
বণটনের
৯৯০
মোহামেডানকে
মেজাজে
একতরফাভাবে
ভিকটর
আমলাদের
উডোজাহাজের
পরতিশোধের
সসপষটভাবে
ঘটাবে
বততের
remember
গযারানটি
listen
খতিযান
ফরযাঙক
বঞচনা
please
জোকোভিচ
শিরশছেদ
ঘটনাએઐেলই
ছোটাছটি
লকোচরি
কসংসকার
সবপনভক
পাচলাইশ
বহষপতিবার
ভপাতিত
jam
night
আিজ
কফিল
চাকার
পানে
পতরে
ফিসট
বসব
হটাতে
##হরি
##পারা
##ઘাস
##co
বিত
##ালীয
নিগ
নিউট
##িযেনট
##বারগে
দেওল
অনপাতে
সেগলোতে
##দরের
##েষর
রাবি
মোম
##ফোরডের
##াপের
সিলেক
##ংশা
লাঞছ
দিনগলোর
অবকষয
দইজনের
চললি
পরথমদিকে
ধরনা
এলডিসি
কেনেন
##তবিকষত
##পাটে
ইনতে
তথযপর
##ert
কলহ
সিনেমাতেই
##খযাতি
শিশবিষযক
রেখার
কোরের
##iter
##ised
পরসকারে
বিনীত
##চাষ
পরভাবমকত
হিসাবেই
আমিনী
##ছনীয
হইতে
##imes
বাছাইযে
মোসতফার
দোকানদার
যকতিতরক
দোহার
িনেত
ইলিযাছ
জেনেও
trad
আরাফাতের
সংগঠনে
বেদন
নিচছিলেন
কাসতরো
রেশম
এমপিওভকতির
##ared
লডবে
সওগাত
নযাযবিচারের
লোকেশন
ঝকঝ
ফাতেহা
কমગকতગ
মিরসরাইযে
পলিটিকস
ভিসার
সকোযাড
মানোননযনে
তেতলিযা
আমলাতানতরিক
মরিনহো
মােঠ
জাযগাতেই
##মেটিকস
শরীকানত
ভটটো
জলকামান
দোরগোডায
ঝোলানো
মেডিসিন
ডিসটরিবিউশন
eas
ill
less
mus
olymp
কাকত
গটি
পਠ
রফিউর
শঙখল
সানতি
##িঠে
##গপতের
##eign
##ইযের
##২৪
##form
বিঘ
##তাবসথায
##নেতারা
সংশি
##বিভাগের
কোঠায
নিরীকষ
আরদর
কষতবিকষত
##মেইন
বিশবনাথ
বিষযা
কেয
অভিযোজন
##বযকতিক
বাসচালক
##ারথীর
চালাতেন
দিবে
দশেক
গোদা
রাষটরগলোর
জাবি
ডিঙ
পাচদিন
##erc
পডান
গরামবাসীর
বসল
কামড
শিপন
মরার
পরণয
টেলিটকের
নেওযারও
হমক
উঠছেন
আইনজীবীকে
##ention
এনেছিলেন
মসলল
তারপরই
##পথের
বিজঞপতির
কমপোজ
টানাট
##ওযেলের
শরীফের
ইতিহাসবিদ
##করমীকে
কাপিযে
কথন
বিধিতে
ইঞজিনের
ইবোলার
আইএসকে
লতিফের
বাযর
মাতভাষার
##দৌল
চালাচছিলেন
জযাকলিন
যকতরাজযভিততিক
চেমবারে
কিনেছে
শিখিযে
##শাসনে
ভরাটের
##ণঠিত
ডেসটিনি
ফিউরিযাস
ভিননধরমী
শবশরবাডি
িমযা
কઓিপেয
ইনজেকশন
এনামলের
ধরমানতর
কলঙকিত
মলযাযনে
সচেতনতার
ডাযালগ
বিজেএমসি
শেকস
xiii
রিদম
foods
বাগমারা
বাঞছনীয
ডেসকটপ
জাসটিন
এরআগে
environment
জনৈক
brit
win
খডে
ডাসট
ম੬ণ
লটে
সোস
##বদের
##ল¬
##রিকে
##ধরি
##োভিচ
পরলে
বিউ
বিযাম
##তরার
একপর
##োগরাম
##বরিযেল
কারান
কাপত
কষণা
হাসন
দেখবো
থাকলেন
যায৴
দেওযাসহ
গণসবাকষর
##োজনে
##োটো
দশে
ধারাকে
পরকোপ
ফিরলেও
বযাপারী
##ature
১৬২২
তলবেন
ভাইযা
পরিকলপনাকারী
কালবৈ
নারীসহ
সতযকে
এইচআর
অফিসারের
পরিণতির
পরতিকলতা
ফরিদল
লোহানী
চরকি
গাছগলো
আজাদকে
ইতিহাসকে
##জযনতী
বদনাম
##কানন
আহসানল
আদরশিক
মোরচা
পাততা
গজরাট
চোরাব
বারসেলোনায
অসথিরতায
নওশের
মিতররা
োবগম
সাইফজজামান
আরজেনটিনাকে
অযাটাক
উদভাবনের
##বিজঞানে
##ઍটચ
তাণডবে
বযবহারকারীকে
শযামা
আইএমএফের
অকসিজেনের
সেসবের
সিপাহি
বাংলালিংকের
ইনজরির
দামেসক
ঘোষণাকে
পদমরযাদার
চেহারায
লোকসানের
শহরতলীর
িবশੴিবদઘালেযর
সরবসমমতভাবে
এজিএম
কষতিগরসথ
ধিককার
রেসকোরস
পরারমভিক
সিকানদার
ঘিরেই
25
bes
won
আি
ঝগডার
ধলে
ধলো
পযাক
ভবানী
মলার
##মগধ
##লজি
##টাস
##ઃপ
##ঝম
##ারার
পরাজ
পরোযা
সমকাল
অনাদ
##থাংশ
পাডের
রাষট
দেশটিকে
কাপা
কষটিযায
কিয
গরহন
সিডর
উদযন
কেযামত
নামি
##চৌ
##োকেন
##ঞচির
হারাল
##পেকটর
মাসক
বনধবানধব
গোপী
##ীলায
##ছাড
টিফিনের
##সটাইন
##সনধান
১৮১
বাহক
১৪০০
##মলযাযন
সটযান
পোনা
পকষেও
সবাবলমবী
আটশ
বাদামি
২৩১
হমকিতে
উঠানে
বানিযা
রপলাব
সপরিকলপ
পরকৌশলীর
##irm
requ
সবারথসংশলিষট
৪২০
ডাকাতরা
ফযাদ
সনদি
হাফিজের
##িকসড
অনশীলনী
মযনামতি
soon
লযাভরভ
মদরাসফ
জিনস
অকতরিম
রাজীবকে
বযানারজি
কযালেনডার
পিকেএসএফ
বিহারি
হাওলাদারের
চারজশিট
পাঞজাবের
বিচকষণ
উমমে
পরসপরবিরোধী
আচমকা
আবহমান
তামিলনা
মাযানি
শিলপাঞচল
সবৈরাচারবিরোধী
##াসংকরানত
দরগতদের
ওঠানামার
বিততবান
আরমড
বনদকযদধের
গামছা
আডাআডিভাবে
আলেকসান
অভিযকতরা
নিতানতই
ইযেমেনের
পিরেব
ফরেনসিক
জীবাশম
লাসিথ
ঝকঝকে
কালবৈশা
রপলাবণয
national
rul
আণবিক
এডা
এযাড
ঐশী
কংক
গানি
জੴ
ডোম
নহ
ভকতি
যিশ
লির
লসি
সতার
সদান
##ণযে
##থনের
##੩টর
##ডেভা
যেগলোর
বিশবর
দরকারি
##াপদ
##সিদধ
##নারি
সহিদ
ঘটলো
বিভাজনের
নিজামল
বিষযও
উনারা
দেখাচছিল
বিভাগেই
পরিবেশকে
পিচে
ছবিই
হওযাকে
ইউনিটির
জলদসয
##ারিও
ছেলেটা
ছযশ
দেখেও
কালামের
হাতেন
জনমসথান
##িরাবাদ
সনতরাসবাদী
কমেছিল
হতদরিদর
##েনদরনাথ
পরভাবশাল
ভলগলো
জেনারেশন
দাডিযেছিলেন
ইউরোর
জিতেছিলেন
ইনসপেকটর
অনরোধের
দমকা
নেততবকে
পরশাসককে
সাবধানে
আলাপে
pract
৮০টি
ইযাশ
ঘনিযে
পলাটন
অগনিপথ
কসাই
মাহফজা
রাজনীতিকের
আবিষকত
পোরটাল
লৎফজজামান
রিপোরটার
রাঙাব
আঙিনায
গারডেনে
নাইজেরীয
সদসઘেদর
লডছেন
সারবভৌমতবের
গেইমটি
সলোভ
ঢেউযের
##মিলিযে
আছডে
লাহোরে
বজরপাতে
দামেসকের
তিলকর
##পরাপতরা
িনযગ
ফারগসনের
জেরারড
বহদদারহাট
চઓিਡઙ
শানতিনগর
গালাগাল
beautiful
খাজনা
ভোকতাদের
অভিনেতরীদের
দিবযি
দেশাতমবোধক
আরতনাদ
উদভট
চকরবরতীর
আইসকরিম
গোলাবারদ
বোরহেস
হিযবত
পরামানিক
সারোযারি
সংিশઆ
সবযসাচী
fox
hab
son
আচে
আকম
ছডার
দব
দপের
দলেই
বমি
বদৌল
মেলো
রঙগনা
শভব
সোসিযে
িঠক
##হানির
##গডি
##কডা
##aid
##ha
##ro
##આা
##েরল
##টিএ
নেটে
সাউদ
সাধার
পাখা
তাডিযে
উপলে
কমিক
অভিসর
##াপাত
বযাগে
বরতায
বেঙগাল
##তিরোধ
এলইডি
হাভিযের
##যাযনের
রাখছি
মারাদ
সিনধ
##মদদিন
লিফট
টরিলিযন
গোলেই
##শনারা
##ভিটা
শাহদীন
করমসচী
মননী
ভারতসহ
জলপর
এনজি
সিদধানতই
শোযার
শোবিজ
োযেত
হেযার
সকলছাতরী
মোহামমদপরের
অফিশিযাল
গলাকাটা
জনমভমি
কমিশনও
অধিকারকে
হলগলো
বিশবাসকে
বানচ
পনরবিনযাস
অধিগরহণের
পঞচগডের
নাজিব
সইচ
সইফট
নিরযাতনে
সপারিশও
আলমগীরসহ
আননদময
পাবনায
এডওযারডস
টানার
পলাট
নাযিক
হচছিলো
নোযাখালীতে
অমতা
বরগফট
ছাপানোর
হিনদধ
দশকেরও
next
তাহেরকে
ফকিরহাট
সামপরদাযিকতার
সথানানতরিত
টরানসফর
বলযাকবেরি
রিটারনস
নশংসতা
টরানজি
খাগডাছডির
১ঌঌ
গোলডকাপ
সধাস
পযারাগযের
বখত
নিরবাহীদের
ঘাতকদের
সবতঃসফরতভাবে
early
##মাতললাহ
উেਣ
আনিছর
ইনসটল
entertain
জগলল
সেরনিযাবাত
িভিਡেত
পাবગতઘ
অনাদাযে
ইকযেডরের
##ডেভােকট
pat
গামা
গিযার
ডালে
ঢা
ধনট
বথা
লয
##লযা
##গব
##ফক
##ফরি
##ফাযার
##োনে
করবার
##যাং
##যাগা
নিমত
একাধ
এককালীন
অনবাদের
##ধানো
পরতিসথা
##টকই
মাগো
সবক
সবગ
সবমিলিযে
কারক
আসলেও
মাননাকে
দরনীতিকে
কিপার
বরদা
আলতো
অবজারভে
##পাডে
বিএনপিপনথী
গাট
উলযাহ
হতযাকারীরা
বিপথ
জলীয
আহমেদও
দাযিতববোধ
সামনেও
শিবস
হাতেখডি
োটি
##জেট
পরবঘোষিত
বইটা
১৭০০
বরিফি
##reed
ফটোক
একসপোরট
মিরর
##ards
লাগান
পালনকারী
দিলর
উঠেন
শাসকেরা
ফটবলকে
নবনিযকত
কারযকরমও
বেলক
লিখলেন
সইতে
হযাড
চতরথাংশ
##ote
রামদিন
দঃখে
সেতমনতরী
ছডিযেছে
চাকরিজীবীদের
##ides
বাচান
ভালোর
দাডালে
পাবলিকেশনস
সবারথান
গতিময
তারকাকে
তরিপরায
পরসঙগটি
নিখোজের
রিযালকে
বরগমিটার
রোজী
কটনীতিকেরা
##osp
গেইমার
বেদখল
হরিপর
অতযাচারের
আইনগতভাবে
খণডকালীন
শহিদললাহ
সকাউ
নশংসতার
সাকষাতকালে
আমপাযারের
শাসনামলের
চোপডার
এনাযে
ইনভেস
birth
িকছઓ
মাকসদল
তઓেল
রজারস
ভেনেজযেলা
added
##গরাহক
ধরমাবলমবীদের
##সাধন
affirm
নছিমন
গাঙগলী
পরলোভন
gener
##মালিকানাধীন
করাইসটচার
affirmative
maj
nation
tan
এেক
ওআরপি
খিলা
ডবলম
থবডে
বালো
ভেরি
মমরষ
##নগরে
##রণে
##িঠ
##ৈনিক
##ced
বিযান
##াকট
বলাসট
জানমাল
নেছার
রাধ
রােখ
##গরেশন
বাংলাদেশই
বাংলাদেশীদের
আসছিলো
গরিল
হাসিব
##চছেদয
সকরি
বরন
বিএনএফ
আলফা
বছরকে
গণডি
উততাপ
মাসত
দেখাও
মলনীতি
টিফিন
পালক
রেদ
কেনদরগলোতে
পডতেন
হওযাই
আলোচনাও
পরশনপতরের
গতকালই
অধযাপিকা
৪৫টি
মসণ
খলশী
অফিসিযাল
চিতরটি
ঘটনাসথলের
চিনির
আগরাসনের
জিতেছি
ফাযেজ
##গোলা
পেরেই
গারডার
##ures
নিবনধের
ওসিকে
##হিও
আধনিকাযনের
মদদে
অভিভাবকের
গিগাহারটজ
পরতিবেদককে
সবতবাধিকারী
##িকরমী
োকউ
সমরাসতর
পরিসংখযানে
গઝহণ
লকাস
ভরাততব
১৯৩২
১৯১০
হারানোয
টেলিস
group
রোকেযার
study
মাইনল
তিতমীর
বাসসটযানডের
পরফেশনাল
info
সেকেনডে
টাওযারের
করতোযা
বডিগঙগার
সাংবািদক
করোমোজ
রাজাপকষে
সিঙগেল
বিইআরসি
বিকেনদরীকরণ
পালাবদল
verbs
বারগমযান
বতગমান
বকশীবাজার
মাংসের
এযাবৎ
ইনটেলিজেনস
mit
wa
অতির
ওসে
ঔদধ
ঔষধ
গজল
টেরি
নথিতে
লটারির
শরিযা
সানির
হজের
##ফলের
##ষযে
##ઃপা
##ানઘ
##টিফোর
##াসার
##পরত
নাপোলি
আমরণ
অনসবীকার
কোসটার
সবজির
উপযোগ
একটিই
আহামমদ
সহন
কিনলে
ভাণডার
সামিনা
ধরলেন
মারাক
নিরবাচনটি
ছাতররাজ
জিইযে
তৈযব
অযাগযের
পথনাটক
##দরশিত
বধবারই
ছেলেটির
অধযাপনা
নিরদেশিত
##read
##মারজন
##iting
##রাহাম
হরতালও
মাঝপথে
২৭৫
টরাকচাপায
শিকারের
আকাকস
দেবপরিয
একদিনে
৩৭০
##তিকরমে
নিযমনীতি
মানববনধনের
নিরমলে
২০২২
##পাটગ
##thing
ঝলমলে
ছাডিযেছে
ইংরেজদের
মিনটর
ভরাডবি
কাচপর
জনেক
নৈরবযকতিক
গলোব
পরতারিত
মাঝামাঝিতে
নিষঠার
কযামপেইন
বরকতউললাহ
অপবযবহারের
##াকরমীর
অনઘানઘ
সবভাবের
পারফরমেনস
সরকাির
phys
আশলিযায
মযালের
টযাকসিক
পনরনিরধারণ
মননজান
culture
##riate
তাইওযানের
অযাঞজেলিনা
বরষপরতির
সমতিচারণা
আদালেত
ইনসাফ
দলাভাই
চামডাজাত
##ropriate
ফেনসিডিল
অনিমেষ
bad
sad
জওযান
ডযানস
ধোলাই
মাযান
সাযী
##বনিযা
##ner
##ঘের
##খাত
##yp
পরবাদ
পরমিত
পরিকর
##টিট
##েশা
একদা
##িরভর
##াতাম
##বিধার
দেবার
থেকেছেন
উপানষঠানিক
যােব
কষানত
মেকান
সিঅযানড
মহায
লাট
##িজের
সংসকারে
বিষযই
##ভাগেই
আইনজঞ
সমপাদনার
সংগরাহ
হওযারও
চিতরে
জীবনা
লাখে
পরতিষঠানই
ফলহযাম
োছে
##ানতরিকভাবে
অবসথানকারী
অভিনযও
নানাবিধ
সমাজসে
আরেকজনকে
পরারথনার
অপরাধীকে
সবাসথযগত
সনতরাসীর
যৌনতার
শানতিচকতি
সবীকতির
বাতিলে
শামিম
##০০০
যদধবিধবসত
এনেছিল
নাজমন
গহহীন
দঃসহ
করমচারি
রেকরডটি
বাছাইপরবের
সবারথকে
ভাসছে
মাততব
কিউরে
করীডাঙগনে
হিনদতব
রেজওযান
পরিষকারভাবে
টানেন
তোলায
পরিশোধিত
অযামি
িতিন৷
ইবরাহিমের
অবিচছেদয
try
পরিতযাগ
১৯৩১
ইভানস
ছডাচছে
রোমের
উমমা
ইযেস
বরবরতা
পদমাসে
ইনজাম
ফজিলাতননেছা
গণসবাসথয
সথবিরতা
offic
শৌচা
অনতিবিল
মেগাপিকসেলের
break
ইকরাম
ফরিলযান
হািসনা
শাকসবজি
তামাননা
ওযাটসনের
টঙগীতে
আজঞাবহ
বরদাশত
ডবলমরিং
অনসবীকারয
full
xiv
ইি
ডম
ডমিন
দক
দিস
বপন
সতে
##পলা
##বচ
##শকতিকে
##ভঙগের
##¬ষট
করিতে
##ামন
নিদের
সমতার
নাৎসি
সংঘট
আমমা
##ডিএ
রাজিন
বিশবাযনের
আইনী
##দাকে
##পারাজ
ধরপাক
ইউসি
##বাসা
বহনের
##সহীন
আযমকে
##তাযন
আনব
নারকীয
##সতানের
পাঠকেরা
ধারাটি
অরডিন
হতযাকান
জীবের
হকও
##িটোলা
ভরানত
চলচচিতরকে
বিষযটিই
পরণতা
তলল
হেযেছন৷
##কসংশ
সিনেমাই
সমপরকটা
##চরযের
##িরাও
উঠত
রপকার
লালমোহন
নবীর
তরণীকে
যতবার
মযানযেল
টাইটান
জমমা
হিসাববিজঞান
মিথিলা
পজিটিভ
মাধযমিকের
ওসামা
তরিমাতরিক
নিঃশেষ
অঙগসংগঠন
বারবারই
টেকের
বাজান
এমপিদের
##৩০ঘ
টিকেটের
এবিষযে
তফাত
গোলাপি
ভীষণভাবে
নতনতব
ঢাকামখী
শিবনার
টিকফা
##ection
ডিসিপল
দিইনি
শাহিনর
দকষিণাঞচলীয
সমপরদাযকে
কইনযা
জামিলর
চানদিমাল
famous
সাঈদীকে
মফিজল
করিসটেন
কাকরাইলে
লেখালেখিতে
অরপিতা
বিহঙগ
গরেপতারকতদের
অযাডিলেড
guided
নিশচিনত
এলাকাজডে
রিভলবার
শাসতরীয
গযনা
নেপথযে
fitzy
মেরিটাইম
বারধকযজনিত
িবেઍফার
মরালিধরন
tradition
সাযীদ
wr
এযা
তও
থামে
দবীন
পচা
বততির
রশনারা
লকষে
##ইজ
##থনি
##৩৭
##োহা
করচি
##ামক
সমাপন
একরাম
##িরের
নাউ
তারলয
অনমিত
##বরষণের
##জনম
##ডাও
চেচ
এসপানি
##নদাজ
সিজার
আহরণের
গণপরিবহন
বৈকি
চারচ
হারলে
খেলডে
অভিযোগটি
সালেহা
ধরেছিলেন
অযাওযার
##জাতি
বাডী
##গাথা
সিনেমাকে
২৫৬
মধযবিততের
জযশঙকর
##আরএস
##গারড
নিরদেশেই
উদধারকাজে
সাহাদ
জাহে
অবসথানকে
লাশগলো
জেডিসিতে
কষমতাবান
উপাখযান
রপপরে
ডাকওযারথ
পরিণতিতে
##নিরবিশেষে
পরষদে
ডরট
সংগীতবিষযক
সিংকে
বরষপরতি
রিজভীর
জানাতেই
সপষটতই
োথেকই
ঘাড
পরতিনিধিকে
ফযাকস
নিকোলা
পরতযেকটা
suf
সংরকষক
৪৭টি
বরেস
বরেইল
অবলীলায
রোজিনা
জেলখানায
সাহেবকে
আইপিওর
টরানসপোরট
মনীরের
পরকারানতরে
আরসেনিক
নেইমারকে
বোমবে
##উইচ
##পরকরিযা
হযাটটরিকের
এভারটন
লাহির
গিলকর
articles
কোসটগারডের
সাকষরতার
শাযেসতাগঞজ
সালোকসংশ
তোপখানা
examination
বাদযযনতর
ঝামেলায
রীতিনীতি
বারলিনে
নবানন
আরনলড
একনাযকত
অসবচছ
ইতোপরবে
কিনডারগার
আিদবাসী
অনতিবিলমবে
dest
moun
অশেষ
কশীল
ডগ
ঢালি
থামার
ভাদ
মশা
মদয
শিলা
##যং
##gry
##pur
##বেজ
##িরকা
##াইজের
##বােদ
সেচের
##নিও
আরকি
মাশা
সবায
কষিক
##পিজেড
বযাপতি
কোনোমতে
আইআই
সমযসীমার
বরডের
বেধ
বেযার
শেষভাগে
আশীষ
গণক
রোভার
##ধরষ
টরফ
ঘোচ
##মিট
চৌকস
বারডেম
অপরদরশিত
##িসতানে
##কটরেট
কারণটা
শিশস
##ফাযেত
শনিনি
নিরদেশও
পোলা
সকলগলোতে
##মপদের
##বোনের
আগেরদিন
বেডেছিল
আতমনি
পચেযাজন
কাদেরকে
শরীলংকার
মিথযার
আধিক
ভিননভাবে
মিসেস
মানবাধিকারবিষযক
stop
পরতযকষভাবে
মাঝেও
সতরকবারতা
হরর
ঘাযেল
পিডিপি
জেরজালে
িনেজর
বেনজে
কণঠভোটে
সবীকতিসবরপ
পাহাডতলী
গিযেছিলো
পেসারের
নাসিমন
শীতকালে
টেলিফিলমের
জেলেরা
আকাঙখ
আমানতের
হিমঘরে
মতযদণডপরাপত
বাপপি
ইচছামতো
নিরবাক
সটোরে
ঝাউ
মাঝেমধযেই
অসবসতিকর
গপতচর
ডরেজিং
##ock
মেইলের
আবদেল
ছাতরাবাসে
road
মাযেরা
ঘোষণাপতর
কযালিফোরনিযা
অযাডিলেডে
হাইকমিশনের
উপতযকায
পিকেটাররা
বাহাদরী
পরোটিযাদের
রাজাবাজারে
খলিফা
আ੪জગা
পেযাজের
কযাথলিক
কালভারট
ভগনিপতি
বেদনাদাযক
সবারথানবেষী
fact
tig
ওহাব
খনে
চটর
পটার
রপের
শিযাল
সেশনের
হতবিক
িভ
৬৩০
##মভব
##লযের
##গহ
##কিত
##কবি
##hr
##ঠনে
বিরাতে
##ামালা
জানলাম
অনশো
সরযা
নিরণযের
##নিযাম
বযকটের
##টেয
দেশসেরা
##িযাখালী
##ওযারক
গরভব
দেখতেই
সিযেরা
উদভাবিত
থাকলো
দিনার
রহমােনর
সামিল
ইসলামে
হিসযা
##দেবী
হারামের
লিমা
সিদদ
চাইলড
তথযগলো
চিড
নিশো
বধবারও
ফলিনট
ফরজ
লোকসংগীত
শনযের
##ানতরের
সহযোগিত
সনতরাসে
সননযাস
ভিতગ
নগরবাসী
তততবাবধায
ডেট
তরফে
খোডা
পোশাকশিলপে
জারন
বেগমগঞজ
অধিবাসীদের
অসতরসহ
ফিঞচ
মিথযে
সবাইকেই
রিজওযান
িনহ
৩৬৫
৪৮টি
গযাংস
উচতে
শটটি
রেজওযানা
আশপাশ
সদন
বઘাপক
৪৯টি
রবিচনদরন
সমমিলন
শতরতা
পশচিমাঞচলে
যানজটে
জিনাত
সটরাইক
জাগপার
ফকিরাপ
মনসটারস
##ourn
অংশীদারিতবের
ইভান
নডলস
ফিলিপাইনের
নিরদবিধায
গৌরবময
এমইউএ
পেটরলবোমার
কোতযালী
সটযাটাসে
সকেলে
খনীদের
হাইডরোজেন
ফসফসের
গচছিত
তারপরেও
কিযেভ
অবযবহত
উপকমিটির
বনাঞচল
অডিটোর
ডিএফএ
ইচছাকতভাবে
পরোফাইল
সেশনজট
মরহমের
ফেরনানদো
দিমিতরি
করিমিনাল
রেবেকা
বদৌলতে
etc
pi
rich
sleep
আবরণ
ডিলার
তষ
থি
পসরা
বজ
ভগরভ
শবন
সযদা
হতি
হেলে
##দবয
##াসতের
##বাবের
সংએઐা
##ঙগেল
নেসা
##করাই
কাধের
পরধানরা
ছিলই
##পিংযের
২০৯
হাসনা
দেখাই
দেখছিলেন
সিএফসি
বযাধি
আইডিযা
##দাওযা
##িজার
দিনরাত
ইসিকে
ইসরাইল
আলর
অবজঞা
ভারপચাਮ
রহমাতললাহ
ইউপির
##শিপে
সভাপতিমনড
হারনান
দেনা
বডভাই
জাভি
ডিপিড
ডিউটি
সেনার
সাংবাদিকতায
গোলই
জলর
অনষঠানমালার
ফলমল
ফলতলা
োশা
জামাতে
নরী
খাটিযে
ওযেলস
##এইএ
সংবিধানকে
২৬৬
দরশনের
চিতরনাযক
ধারক
চিনে
thir
ডরযিং
মিশরণ
বযসীদের
foreign
যনতরণায
শহরটির
সনদেহাতীত
অপারগ
হঠাৎই
ধাওযার
অঙগন
##টিনির
##বযাধি
কাঠা
আশরযকেনদরে
পারিবারিকভাবে
আে੯দ
নতজান
কেরেছন
কামরন
পাওযেল
সবগলোই
এখেনা
অবযয
সামিটে
##aving
অঘটনের
দরঘটনাসথল
##মালিকদের
মাহমদউললাহর
জভেনটাসের
playing
ফকনার
probash
##গনধা
মাপকাঠি
নিউকলিযার
িবশੴিবদઘালয
এিটএন
এসইসির
পরিদপতরের
রদরিগ
ডিভিডি
ইবতেদাযীতে
ইজিবাইক
অরডিনারি
মাধরয
চারিতরিক
ধীমান
সপলিনটার
কাশমীরে
বিপথগামী
রেদওযান
আ੪জગািতক
beng
mag
আপরাণ
কনিষঠ
ধৈর
পোক
পযানড
মলি
লটিযে
সপির
সজানা
হেনস
##সতবক
##ধবনির
##mb
বিদধ
বিঘি
##বািরক
বলটা
##বারতার
জনমা
##োগা
যেকোন
দলবদলের
রাধা
সকোযার
বেতনে
গণনার
আজমত
মারলে
বিকতি
সদসযদেশ
আদতে
টরন
অপরপ
অপরকাশ
অপরযাপত
অযাপারটমেনট
পিউ
গরেডে
মযাচও
খবরা
মঙগলবারও
মোহনা
এনটিভিতে
কারযকরভাবে
##চছিক
##সারের
বইও
কোরিযায
##পোরটের
একসপো
বাদির
ধারণকষমতা
যোগাযোগমনতরীর
ওযারল
পরযাযেও
পચએ
রযেট
মাহমদকে
মানবজাতির
অনততপকষে
এফডিসি
সইট
আলমগীরকে
অরথমনতরীকে
সাকষাৎকারের
৫৫০
রকতদান
বাচবে
কথামালা
চিকিৎসককে
জিতলেই
ভমিহীন
১৯৪৪
তাপসের
শেরপরে
সদহার
সজনশীলতা
সমারটফোনটিতে
গোলাগলির
মনাফ
##એ੪ান
মদরানী
সংবরধনার
সোনাগাজী
মকতিযোদধাকে
কনসটরাকশন
মককা
কৌশলপ
গরাহককে
নিপীডিত
হতাহতরা
সেনাপরধানের
loc
গণযমানয
বিএনপিকরমী
পলযানটের
ভিকটোরিযার
বাটটা
বাযারনের
পাঠযপসত
express
strong
চਜগઝা
দরভাগযের
বঞচনার
বিমোচনে
মাউশি
সটরেইট
মচলে
পিপডাবিদযা
দহগরাম
অনতবরতীকালীন
জযাসরিযা
সপারহিরো
জমিজমা
পিৎজা
কংকরি
bag
pos
তলো
তমা
পোদ
পজির
বোক
বনদে
লোন
লডাক
হালের
হযাপী
হিপ
##ীপত
##জেলা
##সকর
##লজজ
##ইং
##book
##াতলা
পারভেজের
উপবযবসথাপনা
##বসতি
মধসদন
আসম
##ডাপ
দরবিষ
হাসযর
পেথ
আইয
মহিলার
ছাতা
কেনায
সমপরচারের
পরকাশকদের
আদরে
শিকষাঙগনে
সপকষে
পদযাতরা
টিএসসির
আননা
পাচছিলেন
পিযের
মনমোহনের
পডলো
গরেপতারও
ফলিত
কামান
ডিসক
##ats
ভেডামারা
কোরি
বিসওযাল
পরতযাশ
খাচা
জীবনটা
সপারমযান
সনমান
হরতালকে
জেনর
ভাবলে
বানায
দরঘটনাটি
সলইস
লাভলী
সবাধীনতাবিরোধীদের
ফেলবেন
ছাডেননি
গহযদধে
সিরাজদি
আকতে
##aken
লেখককে
মহিষ
রাজজাককে
কিউরি
বযেটে
১৯৪৩
show
ইনসটিটিউশনে
আমনতরণপতর
কষণকলি
মেধাবীদের
সালাহউদদীন
##anger
মেগাওযাটে
পাখিদের
সরবসা
peace
dear
অপসারণে
হারাচছে
শিবচর
মেহেরপরের
পিসিবির
মেহজা
সাইটটি
িশਉা
হলিউডে
রোনালদোকে
িনবગাচেন
দবৈরথ
ফিলডিংযের
সটাডিজের
উডোজাহাজটির
লেবাননে
গোসবামী
forms
নেশায
রাজপথের
দখলদারদের
রাইফেলস
রকষণাবেকষণের
পরামরশের
িবচারপিত
রাজাপকষের
ফিনযানসিযাল
যোগসাজশে
farmer
ইততেফাক
চিটাগাং
সাবরিনা
নিযমানযাযী
কাকতালীয
দরবিষহ
journ
song
ওআইসি
কনা
চেরা
লযাট
ਉমতা
##িগ
##চং
##চাকে
##mis
##ments
নিলেই
বলট
বলিযে
অনৈ
নেভায
সরজ
##নাধীন
কোলাহ
এইটা
পরিহিত
পরিজাই
##টকও
সবপনা
পারথিব
বিশঙখলার
মোন
গরোথ
বযাঙ
মতত
বেত
দিনটিতে
ইসত
সহকারে
৩০তম
##তযাগ
কিছসংখযক
সাংিতক
১১১টি
##সেপ
শিকষাবরষ
বিজনে
বারনা
পাঠশালা
জীবদদ
বিপৎস
যান৷
##ines
শিলপাযন
কেউবা
আলীমের
বোরকা
কোরান
কোরেশ
খােল
ওযেজ
##চরিত
জনমতের
বৈঠকও
মারকায
উঠার
চানদিনা
পরিবারকলযাণ
ঘরপাক
সিদদিককে
বিরোধপরণ
অপেকষমান
শবদটা
উদবোধনকালে
কমপলা
বাচচার
বিধির
সমপরণরপে
বিচারককে
মাতাল
রাইফ
গমভির
##ামারী
চালাবেন
৩৯টি
বাবকে
পরশংসাও
নকশায
জেনেছেন
অপহরণকারীরা
পরবণতার
পরতিদবনদবিতার
দরিদরদের
মাসটারের
ভযেজ
নগণয
আনসারললাহ
বাশারের
১৯১১
ইযারডে
ছিনতাইকারীরা
১৯২১
জমেছে
বযালানস
তালেবানদের
মহাকাশে
পিনাক
ইঞজিনচালিত
colle
অপারেশনস
##নিরভরশীল
মেলবোরনের
পাউবোর
পাপডি
যথারথই
যথাসমভব
সৈকতের
সিদধিরগঞজের
জানাবো
পরতিকলতার
পৈতক
লীলাবতী
ইতালীয
মানোননযন
এমবিবিএস
সাইকলোন
শাযখ
এনপিপি
কমবোডিযা
বিপিএলের
ভাইরাসের
গরামাঞচলে
ডোনট
পাতিল
সহাবসথান
মদিনায
জোলির
শবাসরদধকর
উইকেটকিপার
উপদেষটামণডলীর
হাতেনাতে
টরানসফরমার
বরিফিঙে
mita
করচিপরণ
গরভবতী
bengal
val
অড
এরিযা
ওভাল
ঘষের
ছতে
জণઅ
দবગ
নখ
ফযাল
বনি
বোট
সਮ
ের
##বিযে
##উডার
##াকো
সংযম
আমে
আমলার
##িসথ
সেবাস
কোটিরও
আরশা
করেন৷
২০৮
দেখেশনে
সকযানড
এমটি
##িমকত
গেডে
##বেনর
ধরছে
##দিযার
বিভকতির
রাখল
১১০০
মযাংগো
সদসযই
দাযবদধ
বডড
তোডা
দশটায
পদবি
সমপাদনের
##ষটিত
করমকরতাও
পডছিল
##সটরি
১৮তম
বাহরাই
১৬তম
##সারকিট
বরিজে
বিশববিদযালযটির
শেঠ
কনঠে
বৈঠকেও
##িউর
কযাচিং
##সমাজ
এলাকাকে
২৯তম
টরাকটির
যদধাপরাধে
পদকষেপগলো
মাঠপরযাযে
লিখেছিলাম
কঠিনই
আওলাদ
রশপনথী
পালিযেছে
সানডার
তাজরিন
অধযাযভিততিক
সনদপতর
নিরমলেনদ
তাডাশ
পলাশী
িদেযেছ৷
মযানেজমেনটের
সরবসব
কলমবোর
অফিসারদের
টইটারের
সিডনির
নাদালের
চাপাইনবাবগঞজে
among
হিজবললাহ
পীডনের
মভমেনট
বনদকধারী
পিঠের
এডিপিতে
আবদচ
হংকংযে
বযাটারিচালিত
পেইজে
বেসিসের
এমএলএম
ইতালিতে
রিহযাব
লযামপার
বরাদারহড
চাষাবাদ
মরিনহোর
দৈরঘযের
দঃসবপন
মারামারির
পািরবািরক
কাশিযানী
হডোহডি
পরতযরপণ
ছদমবেশ
ঠাটটা
বেনজেমা
পরিজাইডিং
hare
sir
voice
জডাতে
দানা
রতনা
শোল
##ণডি
##দাহ
##ভকতি
##port
##ਠী
##ਫার
##েরার
##পরদায
##পরারথীদের
বলতাম
সরসব
কোযানট
পাবলিশ
##মাটি
কাহার
দরধরষ
##নীতে
সামছল
শেখে
ধরণ
পরকাশনার
##দধেয
ইনফর
বেশিদিন
আনানের
পিআই
মিলটন
মিলিব
পরযাতের
হকির
এনরিক
এনডিপি
ফলও
তদন
বোতাম
োড
োডে
সমরথকের
গলদ
উইকেটটি
নিরাপততাহীনতার
শাডির
##কলযা
মালিকানার
চাপানোর
জোটসঙগী
যতদর
বেলট
নাটযর
অগরগতিতে
##শিলপীরা
আমিনীর
রমনার
মৌলবাদের
##ider
শহরগলোতে
চরিতরটিকে
কংগরেসকে
খালাসের
পরশংসার
পযসার
শভসনধযা
হরন
চকরানতের
খলেছে
জনপরশাসনের
সংকটাপনন
রেজিসটরি
এজাজ
ককষিগত
শফিউর
োজাট
গઝઔ
থামানোর
ফরেমে
দাডাতেই
তললাশির
জলিলকে
শলথ
নেতরীদের
খণডিত
একেকটা
একাডেমীতে
নিজেরাও
আসতানা
পরাসাদ
অযেলের
সযট
মৌখিকভাবে
আধারে
মজতবা
লিংকন
টানাপোড
সংযোজনের
##শিশদের
পতেঙগা
উনমাদনা
পেশোযারের
উেদੴ
ফটিকছডি
একসপলোর
programm
বযাকটেরিযা
নিশিগনধা
চযাটারজি
ইনিযেসতা
দপচাচিযা
কাযকোবাদ
সনদিহান
ভগরভসথ
positive
অমত
খেনর
খশী
টযারি
দদলের
নিকে
বারা
মઘাে
হরষ
িপি
##ইএন
##io
##ost
##ছেলা
নিমনতর
##পরিনট
##বারা
সাপল
##যানোর
##িশের
কারনে
রাতরি
##গরতবপরণ
গরহে
থাকাই
আলভী
অবলো
##ছিড
##ীবান
দেওযাল
সরকারেরই
লিগা
জিহ
সপটে
সারাজীবন
মখটা
##এমইউ
অযাচিত
##মেরী
সোযে
আলীসহ
পরণিমার
##rehen
২২৭
##ধারীর
ছোটবেলার
শেভর
২৩৯
মহানগরী
পরসকারজযী
খেত
জমাট
ঘণটাখানেক
উৎসবটি
অযাডভানস
answers
পিডিবির
লিগযাল
দরদশার
োনওযার
special
সেঞচরিতে
ঝলছে
excl
অনিরাপদ
comprehen
usually
নেতরীরা
এখনি
আঙলের
অহং
কলিপ
collect
সাকষাতকারে
বিএমএ
কইনস
নোটিশে
রকিবউদদীন
উদীচীর
ফযজল
ঝটপট
লোহাগডা
কচকাওযা
শিষযদের
জোহানেসবারগ
অমিয
বেপারী
কসোভোর
বিলবাও
##হোলডার
আউটসোরসিং
phrases
টাকাপযসা
উদগরীব
olympic
সমাপনীর
job
noun
অঘোষিত
এি
খাব
চিরা
জই
ঢাকে
তমাল
সসংবাদ
##পলেট
##সানা
##চান
##থওযে
##ਤর
##োদর
নিহিত
সমীকষার
##পরভ
বলছিলাম
নাবিলা
##বিং
জানেত
##টাউন
পাবার
আরোগয
সবদিক
কারম
উপকরণের
কাড
রাজপতর
কিচির
গরমে
গরডন
পেতেই
ছাযায
দিনরা
ভারসন
বেশে
##ারথীরা
বিএনপিবিহীন
বডির
দিਉণ
তথযই
মনিকা
বযকতিবরগ
পরযাকটি
২৫৭
অপশকতি
বাসতবের
কমিটিগলো
ফেরানো
আটজনের
সপারভাইজার
২৩০০
আটককত
আটকাতে
শিকষারথীসহ
পরতিবেদকের
অনযানযদের
২৯৫
##মাধযমে
বঝবে
যতগলো
অসতরবিরতি
হযাং
ফোরকান
নদীগরভে
ধরেননি
পজিবাদী
হানার
ভমিদসয
সবরাজের
গোপালপর
নাটযতততব
ওরাও
জাকের
গেমশো
পরিশোধে
ইনডোর
৭৭৭
এগোযনি
##লিউশন
দষণমকত
নৈপণয
সচিবসহ
লৎফল
মালেকের
জডেই
টেলিযোগাযোগমনতরী
মোনাজাতের
টেইল
বশীর
উমেশ
চডা੪
কলাসেকারা
##ieve
খেলাধলাবিষযক
মীমাংসার
events
পনরগঠিত
বহিরবিশবে
জোসে
রেলসটেশনে
স¤পরসারণ
ধবংসসতপের
িতনিট
বযাচেলর
month
মহাদেশের
ঘোরাঘ
ভিভিআইপি
কেনাবেচা
হটসপার
পসপসতবক
ঘমানোর
মনতাসীর
হালিশহর
সহনশীলতা
শবনম
ধৈরযের
অফর
ঝোপ
ভঞা
রত
১শ
৩শ
##পতা
##সটে
##দপর
##শিযেটিভ
##টিকি
##ms
##ph
##ઘার
##con
##েনত
##িকরণ
##েলন
##বরজিত
সেতব
সেদেশের
##যানে
পরিপক
পরতিচছবি
কারের
কারেনট
রাডার
মানেষর
হাসে
##টিরই
মতভেদ
পরথমদিন
মিডিযাম
চারিদ
##াধনী
ধরেছি
সারে
পাঠালে
কলনি
খেলাও
##কারীকে
শতাংশেরও
কারযবিধির
মহাসিচ
বসতায
##িটাস
সিদধানতটা
ফরমান
মরসির
##ating
অধযাপকের
রিড
##টসা
ভাইজান
##ভেজা
কনসয
খাচছেন
##জনেরা
লাগোযা
সননিবেশ
২৮৮
মাঝির
তরিনি
বঝলাম
ইনটারভিউ
ইনটারপোল
পনরনিরবাচ
জনসমপ
##বিদযার
those
ফাডিতে
৩২তম
রামদা
দেখিযেছিলেন
কবিদের
সবারথবিরোধী
তরিবারষিক
উভযপকষের
ফযাবরে
নীিত
শানতন
টেসটেও
দীপঙকর
টানানো
োনতেতੴ
পরতিশরতিবদধ
সতরাপর
অবিসংবাদ
টেলিফিলমটিতে
##চিনতার
তোরা
ছিদর
বিজঞাপনচিতরে
কাচাবাজার
১৯৩৬
হবিগঞজে
কযাপসল
##১০ঘ
হিটলারের
বেকসর
বানদরবানে
লেগনা
ডাযরিযা
টেকনোলজিস
বচচনের
বাশখালী
কোনদলে
গরীষমে
অনপসথিতিতেই
দালাই
ওযাকআউট
helps
মিটিংযে
মরিচ
ওযারকশপ
রেলসটেশনের
সাথিযা
বিহাইনড
against
বিসততি
গোছানো
বিজেএমসির
শরদধাবোধ
এযারওযেজের
বিছানা
উਭযন
টিচারস
various
ফઓট
সিমফনি
বাথরমে
রপতানিমখী
torto
cut
done
sing
ইঞচির
ওিস
ওডার
ওডনা
চণড
জযর
জোযা
যাদর
রশো
রিলি
লযানস
শেরি
সপি
##নাসহ
##জিযা
##পকর
##পডা
##মাদ
##দদী
##দদিনের
##ফকে
##ফকস
করযের
##যাডিযে
বিংশ
##িসার
##ওযাতের
পাছে
##যানায
##মানব
##িশত
কারবার
কারনি
##ডেকস
কমো
##পিএস
গরতে
সিমি
কোনোটি
আইএইএ
বিরশাল
##ীগোষঠ
কিনারা
দইযের
আগেভাগেই
অসখে
আলোকস
গণবিরোধী
অরথযোগ
##পতযের
হোসটেল
মিখ
##here
উনমখ
##যামপ
বিজযনগর
রানআউট
মাহী
বাডিটির
সিদধানতগলো
কামডে
মসলা
রিমেক
কতবার
চাচার
হাসানজজামান
উপদেষটাকে
যোগাযোগবযবসথা
##রাফট
সমসযাই
খননের
সটেইনের
পাযরার
পরাণহান
জোরেশ
জনসমাগম
##বততিক
চিতরকলা
##রকষা
ফিওর
ডরেনেজ
##ece
ফোটে
কলাসরম
ইলিযাসকে
মেলাম
করিসেনট
বরগনায
গাযেব
১৯১৩
অনােনর
ছাযাছবি
prof
##জেনসি
অযাকাউনটের
ধোকা
ডেনিম
ডাকাতদের
সপরিচিত
পরোটিন
আইপযা
ইউএসএ
োগাপন
বািহনীর
উপারজনের
ডবিযে
উনমোচনের
নজরদারিতে
পডালেখার
নানদাইল
##চকরের
হতযাযজঞের
অযাভিনিউযে
এনটারপরাইজের
রিহযাবের
ধবংসসতপ
উইনটার
আইপিএলের
কারসাজি
##বিবরণীতে
ঢালাওভাবে
খানেকের
বিপণিবিত
রামকানাই
population
আেনাযার
ডবলিউএইচও
সৌভাগযের
ম੬ণালেযর
এনজিওর
বিযানীবাজার
তততবাবধাযকের
সভাপতিমনডলীর
খবরাখবর
টযারিফ
comprehension
tortoise
game
অচিন
এমা
গনাহ
জযান
নম
পটল
মগা
রঘ
##জপর
##যমান
##শিতে
##শানতি
##ਕামান
##িনেজ
বিমরষ
সমবল
সংহতির
জনসহ
সেযাগ
##রেডস
আরএইচ
সবকীয
##নতাই
কষকরা
##মেটেড
##চারাল
সিমপ
আইজ
থাকাকালীন
কাজলের
ভােলা
মানষটির
সথায
ধরষ
মারলন
টরফির
##থিং
উলট
##বেরির
ডিগরী
ডিগরির
সেনাপতি
অযাপারট
আপযাযন
ছবিগলোর
বধির
কোনভাবেই
নিশান
##িটেশন
ফরমা
বাহবা
১৩০০
তালাবদধ
নামেও
সকলটি
##মারচের
কালকে
যাওযাই
বদধিদ
সবাসথযসেবার
ইনিশিযেটিভ
উঠক
পশচ
২৭৭
অবসথাকে
সমনকে
সথানেই
রপসা
কামালকে
খাদযনির
পরষেরা
সবপনকে
ফিদে
সবরাষটরসচিব
জিলল
দেবেনদর
বাজেটকে
রওনক
করিকেটারকে
রাইজ
পরাইস
নীলা
মেননের
উডছে
সেগলোও
সাধক
অিফ
শাহজাহানপর
##ছানল
বরাহিমি
জিনিসপতরের
মৎসযজীবী
শৈলপ
কমানডারস
১৯৩৯
ফরেড
বেইজ
એઐােন
সিসিডি
সীতাকণডে
ডিভাইসের
রোমিও
poet
উজানে
উসমান
ফলোরে
ইউজিসির
##োগরাফি
ডিজিইএন
পাগলাম
অদকষতা
অযাডিলেই
গভরনরের
জারনালিসট
ভোলেননি
টাকাই
পরিবহণ
অনসনধানীমলক
পরভাতী
##vision
মাহাথির
ভারজিনি
লোহাগাডা
mill
sk
অহর
ইদানি
এলা
ডেক
ডরিং
দবয
পচন
পিকিং
ভবনধ
মীম
রઘা
লিল
লটারি
শরাফ
িসর
##রোষ
##ইবি
##ভালের
##ছট
পরতাপ
##যাতে
নিলো
##পরো
##াইডের
আমর
নেহাত
হযানি
তিনিসহ
পারছিলাম
সরকারগলোর
দেশদরো
দরবী
এসডি
গরান
আইথরি
এমও
অবন
##পারক
ইসলামবিরোধী
হািব
অংশটক
দেনাদার
লিথ
বডজোর
উততরসর
##সততরের
জাগান
অপরাস
তৈল
কলেজগলো
##গেণর
আপলত
গরাময
থাকেল
এনএইচ
শোনায
সডঙগ
পরকলপগলোর
##বোধয
রিমেই
কতদিন
##ars
নিরাপততাহীনতা
পতরিকাকে
শেযারধারীদের
মজিনা
শতবরষের
পચদান
পચেশর
ডাকসর
চাদে
যদধজাহ
৩১তম
দজনকেই
ভবনেশবর
কমিশনারদের
ফখরলকে
এফএইচবি
##পরাষটর
বিদযালযগলোতে
কযল
##বাধীনতা
বরষাকালে
##aces
দমনপী
reach
৩৩০
দাডালো
সথাপনায
পযাচ
##মণডলের
করণার
দোহা
nob
৪৬টি
৭২টি
sports
গোলাপী
সিলিকন
োপেত
৮৫০
trave
composition
সথলসীমানত
কইরা
এডিটর
কিমশেনর
সাফারি
মনীরসহ
##াইজেশনের
টেলরের
ভঙগর
বিহারে
সবিধায
টরানসম
##িনিযোর
রাঙামাটিতে
শযটিং
মখোশধারী
বিশবাসযোগযতা
দোসত
ভিকষা
জাইকার
ছাগলনাই
জেদদা
লিনড
রাশিদা
লিমনের
পাশচাতয
অনসরণে
মাজেদ
বোঝাবঝি
ফযাসিসট
পঠিযা
গবাদিপ
পরজেকটের
থারাঙগা
লযাটিন
অবিসংবাদিত
rivers
sol
taken
অ੪
ইবি
এদেশ
টযাল
ডরাগ
দবছর
নঈ
পচে
পষট
মগন
লেস
সিযা
হৎ
হজর
৮ম
##জেনর
##ডডি
##সাস
##গনার
##ধাক
##শাম
##শঙখলা
##৹৷
##ey
##ma
##ষকাশন
##ভিনের
##pr
##৬০
##েরাধ
##যেখ
##যেকে
##যাগো
বিবির
একধাপ
বলছিল
সংਠઙা੪
##ঙগো
দেডেক
অনশনের
সরণ
সরযার
নিরমান
সবচ
তাড
কমবলে
কমরেডস
কাটেন
করমজীবন
কষতিক
আইএমই
পলানট
এমটিভি
সমযটাতে
পরযকত
বেডানোর
চলছেন
##ঞজয
এলটন
মামলাসহ
তিনে
##এসএ
মারি
বৈমানিক
মযাডো
লিঙক
টরনে
পডেই
##ভাবী
গাভাস
##আইএ
##আইইউ
সরবনা
সরবজন
চটটগরামকে
মিলিশ
ছবিতেই
পাকষিক
সোমা
চেযারমযানরা
োভ
বাইসাইকেল
তললেন
ছোটভাই
লেদার
হাতকডা
সফিউল
চিতরনায
ভমিকাও
ভলিতে
##তবেও
##বিলি
##ential
বনদনা
খেলেছিল
অগরযাতরার
সবাধীনতাকে
লিখেছি
করিমিযার
ভাষাভাষী
হযাকারস
বালাই
গডানোর
ফলাওযার
যাতরাবিরতি
ফরিদগঞজ
বদলাযনি
ধাতর
পালটাতে
মমতাকে
দোলে
সিসিমপর
##ਡઙার
রেজালট
কমিযেছে
গণমাধযমকরমীদের
শরিফে
সাজেদল
শোনানো
হিউজ
##২০ঘ
ওপেনিং
গণপরজাত
মোটরসাইকেলটি
লেনোভ
ফৌজদারহাট
পরতিহতের
তারিকল
োগেছ৴
march
বিএফইউজে
টেলিকমি
অবએઐান
ফারমগেট
ভাবেননি
কতবদিযা
ওপেনে
appropriate
sometimes
অকলানত
শিকষানীতিতে
নিরবাসনে
##সাপেকষে
বিমসটেকের
তেহরান
ডবরি
শৈশবের
মনতরনালযের
উিਣন
##কৌশলের
কযালালামপরে
হাবিলদার
মসললিরা
একপরকার
অভিসরবণ
কিউরেটর
মচলেকা
di
আটের
ঈগল
উডি
ওলাদ
ওগলো
কঙগনা
ঘটকের
ছই
নওর
পেরা
বোযা
লোম
শযার
শচী
সিকত
হাপ
৭ম
ਨઔ
##জাকে
##লিকা
##িਉ
##চছিলাম
##loy
##ગত
করিজে
##তেক
একজোট
জনগেণর
জানাজানি
দেবর
সরযস
সাট
এইউ
নিরাময
সবকটি
##করমিক
কারামকত
আগযেরো
রাঘব
কমরেড
আসস
##মেত
দেখতেন
##সিতে
##তিকাল
বরক
##রথনের
##িতেত
ভারতবিরোধী
ইসলামাবাদের
অসত
##াকারীরা
উতপনন
খেলছিলেন
দিবেন
##ভারের
এসেছিলো
বিপণ
পিਠ
সিনেটে
আগামীকালের
মাহাম
শনছি
োছাট
বেরোতে
বযাংকসহ
পরতযাশী
পরসতাবগলো
দীরঘশবাস
শিরিনের
শাসিত
পরেসিডেনটকে
শামক
শামছল
একটখানি
পরতিকারের
বিরোধিতায
পরযোজকের
খেদ
##দদছ
##সলিম
বদধিবততিক
বিবিধ
বরষায
গাইতেন
শহরটি
টেনশন
ইকবালকে
জঞাত
জালালের
জীবনেও
wear
তবলা
ফাযারফকস
আখতারের
বযানডদল
বসতবাডি
মারফত
পরবাহের
মককায
##পরতিষঠানের
ডালিযা
খারিজের
ফলাইং
ভারসামযপরণ
আইটিউন
উদদীপত
নিলামের
কোষে
কিবরিযার
অনઘিদেক
যবরাজের
টিএসসিতে
কনভেনশনে
ঝরনা
famil
দরঘটনাসথলে
জািনেযেছ
মকতাঙগনে
সযাবিন
গহবধকে
197
বেইজিংযে
কাননাকা
গণঅন
##গরাউনড
ঝালকাঠী
টরাইবনাল
মনোরম
িবদઘਅ
interesting
এটআই
োগােয
সবখানেই
গারদিওলা
দরগাপজা
নিঃসরণের
কেরোসিন
সংকরমণের
ওযাহিদা
পরিতরাণ
কাদমবরী
পিরকઈপনা
সানতিযাগো
british
সোসযাল
অবজারভেটরি
ঔদধতয
টরফিতে
ইদানিং
cow
অপি
অশিকষিত
গালে
জংশন
টকট
পতি
বারণ
ভিলা
ভনড
ভাতের
মফি
মঘল
রিনা
সশর
সানী
হোর
িমর
##হেল
##পশ
##ৗল
##সডক
##চઓ
##ককারজনক
##খশি
##ਠা
##੩টা
বিটস
বিবাদীদের
নিভে
##াসম
##াসনে
##াসতরের
##পরাস
বাশির
##বাষ
দেবের
পাভেল
অভযদ
কষোভে
দরভিস
##াপতির
গরজন
বযাযাম
বযাটারির
সামার
ধরল
##মিকা
##বাসনের
নযককারজনক
##কাশনের
বৈরত
মযাসা
আছে৷
হারারে
দশজন
সপিল
আনদর
গাডিকে
জাভা
ফিরছিল
মনড
নেতসথানীয
থাকেত
বঙগানবাদ
##আরএফ
বাজারমলয
উদযোগও
বযাংকটি
ফেরেনি
ভোকেশন
গলানি
সমাজতনতর
ঘণার
##সাধয
তততবের
শতবরষ
বঝবেন
##জলদি
জোরপরবক
ভলতর
কোচকে
ফিড
কমিশনারকে
করিমকে
ছাডলে
হযাটরিক
সহজভাবে
সিরাজের
এসএমএসের
িবিন
বোমাবাজ
হাবিবের
সিরিযাকে
কারখানাগলোতে
চীনকে
আলাপের
নিরভরশীলতা
জাহাজটির
সঙগত
prot
বকসিং
ইবোলায
শোনাতে
সমদরপষঠের
##োযারা
পিরচালক
চিরাযত
##ীকানত
বেনগাজ
অযাকসেস
রকমে
জাপানকে
##িলেত
অসংগতি
৬৬তম
রোমানা
নগদান
clues
হাওরের
অকষরে
অগরাধিকারমলক
সমপরসারণে
তীরথ
দেহরকষ
এহছানল
বযারেল
টাইগাররা
এজেনটদের
জোহরের
##সঙগত
শরটসারকিট
মটরসাইকেল
রযামপ
ডিএমপির
চিকিতসক
ছিটমহলে
লিওনার
মইনদদিন
যমনায
বাঙালিকে
রাঙগনিযা
পতরপতরিকা
ভাজক
ਊরઔতর
অসটরিযার
উততরবঙগের
জলোচছবাস
television
জনসভাসথলে
শিকষানবিশ
ঝরণা
বদধিজীবীরা
কালরঘাট
অযাপারেল
নিরঝর
কিযোটো
একাধারে
পোদদার
কোযানটাম
দরভিসনধ
occ
অਖ
ইরশ
ইআরডি
কঋণ
কদদছ
চডাই
জসি
জতার
ঠাসা
নানি
নਹর
বকা
ভাসা
ਗমিক
##ওলার
##ef
##ংেকর
##থেরাপি
##তলি
##sc
##যোর
বিলক
##তিযান
##ামেক
জনন
জানলে
অনগর
নেটো
##িসটের
কারটার
শরদধেয
দরবরতী
দরবসথা
বিশবপরিচযের
সিভি
কথাশিলপী
বরমন
ইসকা
সংবাদদাতা
৩০২
মারজিন
ইনটি
বিচারকে
##েনটাইল
চৌমহ
সংগতি
কলস
রানও
আপসহীন
শিলপকলার
ডিসটরিক
জযনতী
জানােনা
অনযাযয
োচেয
উৎসক
জাহিদর
##চরণের
##ভিশনে
এইচপি
মজর
সৌরশ
পরেসকরিপশন
পরাণীদের
লালমা
অভিনেতাদের
মহাপরিকলপনা
পারিপার
hear
পরতযাহারে
সইমিং
জনপরিযতায
গারডি
রমাল
বগির
##িমিডিযা
কমপিউ
সারভিসে
টরেনটির
পরশিকষণপরাপত
শাসতিযোগয
মহিমা
মেঘনার
##শিকষার
##বিনিময
কষককে
সফটওযযারটি
সিআইপি
খযাতির
িশকার
cross
ডাকাতেরা
বরখাসতের
লেগসপিনার
পিটিশন
দেশপরেমের
ইজতেমায
অকারণে
known
partic
গণপরতমনতরী
বেলারশ
তানজিম
##ঘণটার
ভটটাচারযয
বাউচার
মহেশপর
অননম
আনদরেস
জািনেয
অরাজক
সবাযততশাসন
সামরাজযের
গডিম
আਲর
পিএসজি
সজোরে
পরিশরমী
গাদদাফির
##নিযনতরণ
সবেচছাচার
িবেশষਛ
চটজলদি
পরিবীকষণ
ফতেহ
মেগাপিকসেল
আরকাইভ
মিঠাপকর
বহিসকার
পলযাটফরমে
পনরমিলনী
টরিটমেনট
ইযামিন
মযাডামের
হলফনামায
পনরজজীবিত
উপসংহার
বিনিরমা
সচিনতিত
টরানজিটের
ইসতফা
মিখাইল
টেলিকমিউন
অযন
আটা
আপি
আষা
ইএ
গজে
জকি
তদে੪র
থরো
দারস
পাসে
লফে
লগি
িসির
িসই
##ীমা
##জিল
##জিকযাল
##েবা
##বড
##চকতির
##oke
##যাডা
##যাইল
##াদিযা
নিমনা
##াকাত
##েশান
সমকামী
একানতে
করে৷
##াইস
তারিন
সেজ
সেকস
পািঠে
পরিপতরে
পরিধেয
আরটিভিতে
মােস
শরীন
কাবল
বাংলাদেশেই
##াপলত
২০৬
মহরম
মহোদয
##িজর
অবজার
আগেভাগে
পরসব
আলোকের
ইউরিযা
##লিঙগ
চারট
নিরবাচনকালে
লিটারে
##ীকষণের
জিটিভি
সপেলে
সমমতিতে
মলমনতর
##বাধা
##erry
হামিদা
চটটগরামসহ
গোলমাল
পডছি
পডানোর
শিলপীগোষঠ
কারণগলো
গরেপতারকতরা
সালভ
ফরিক
শিপিং
৪০তম
ফটপাতের
আতমত
আলোচযস
লাগছিল
টেসটেই
বিলপতি
হাইম
##খাওযা
আসািম
সেলফ
চিতরগরাহক
অধিবাসীরা
জোটবদধ
তরণীদের
চাদর
ছাডছেন
শারল
##ower
ভালোবাসতেন
দঃসমযে
চলাচলও
বরণনায
যনতরণার
পরসততকারক
জিতল
কাটবে
কলাবটি
হরাসে
মিউজিকের
ওরিযেনট
তবকের
নিকসন
শপথের
তাকওযা
বিপরযযে
রবীনদরনাথকে
রিটটি
ইউএনএফ
শীতবসতর
কাহিনিতে
সপিনারের
বযানডউই
রেসপন
সিসটেমস
মেশিনের
সেলিবর
আবেগাপলত
১৯২৪
বাধযতামলকভাবে
ইনডাসটরিযাল
follow
এনআইএইচ
িবেকেল
##ઔেপর
হোলডিং
িতনজন
জেসিকা
active
শিলপাচারয
looked
উৎকণঠার
থাবা
বরিসবেনের
ডলফিনের
ঐকমতযে
আলজেরিযার
অধযযনরত
বিওএ
চাষাঢ
োলাকজন
বোঝাবঝির
গৌরীপর
বযাডমিন
পিকআপের
কনফেডারেশনস
কষাকষি
একশরেণীর
ধারাভাষযকার
মছতে
িকেশার
কাফরল
কনসোরটিযাম
বিএসএমএমইউ
ৌবঠেক
১৬২২২
মাশাযেখ
জীবদদশায
ইরশাদ
fish
hosp
jun
sis
অমক
আঙগল
উগান
ঐচছিক
গরাফ
ছোযার
দপকষ
পংক
রেলি
রিমি
রলস
##হઙ
##পঞজ
##ণামলক
##দযার
##ক৴
##খায
করতব
করোন
##িনীর
বিউট
##বেষটিত
##াদিও
একবারে
বাએ੪
##তাবে
সংએઐার
##াতীয
নেকস
দেশভাগের
আসকত
পরধানসহ
রাজৈর
কষটসা
##খনড
এমস
মহাম
##েমার
বরাইড
বিরদধ
##ীনার
লাঘব
দিনেশ
১০ম
ভাবী
৩০৭
আবত
পরসে
বাসটিকে
আশাক
গণেশ
বিষযগলোতে
চারতলা
আইনটির
জিযান
শাহিদা
আলমসহ
শোবার
##চছাদ
োઍ
ছযবার
পানতা
সটপ
অপছনদ
intr
ওযাসিফ
ছোটো
গাডিটির
ফারিযা
দীরঘকাল
জডায
নিযোগপরাপত
শাসকের
ঘরেই
হাইেকা
বানিজয
দিকটা
নদীত
নজরলসংগীত
##নিরধারিত
সাদাত
চাকমার
##হরতে
লিখবেন
##নাথপর
বিকরিও
বাঙালী
সিংডা
রমনি
বরণবাদ
সমপদে
ভালকা
##ঘাটি
লাইনআপ
নিরপেকষতার
করিযেটিভ
পিলখানার
বীরেন
আডাইটা
জঞানী
ভাডাভিততিক
মখপাতরের
জববারের
শানতা
করমকাণডকে
আশবাসও
মিডিযাতে
nothing
আেছ
এএপির
উততীরণদের
def
self
জলাশ
##੯দহ
১৯৩৩
এসএএ
ঝিনাইদহে
পোরটার
বিপদমকত
পাখিরা
িশઈ
বযাংকিংযের
গরনথনা
brought
মীজানর
##৩৫ঘ
নশংসভাবে
কেমার
ধীরগতির
ইযেমেন
কডিল
everybody
সংকরামক
পযગেব
##চরিতর
পনরবাসনে
complex
সেভিযা
##পোসট
নালিশ
তারানকোর
অটোমো
অઘাডেভােকট
নওযাব
মহারাষটরে
খাওযানোর
walk
মেটরোরেল
ওনারা
ঘেট৷
##খেলাপি
পরকরিযাজাতকরণ
ডকমেনট
ওযযারলেস
মডারন
##শহীদ
লাইসেনসের
ওরিযন
অઘালবাম
##কিশোর
নিগহীত
বালোতেল
সরবসাধারণের
সকযানডাল
মহাসিচব
কষতিকারক
োগােয੯দা
টেলিকমিউনিকেশন
কষটসাধয
24
ey
hot
just
jerry
ওক
খসে
জেবেল
বেনি
বাজিত
সদীপত
হারণ
হচছিলেন
##পিস
##চেনা
##ণীয
##থযে
##que
পরির
##কেলে
##লেটে
নিবতত
এককে
বাথ
##েলও
##িরযা
সরফত
কোকিল
কোনোর
##নিহিত
পারফ
রাগে
রাকেশ
মোদ
মোবাশ
বযাগের
পলিজ
সমযকাল
অধরা
সহিদল
খালেদের
চারঘাট
হারমো
পারে৷
আদিত
ভালোমতো
পরাচী
মলম
টিটিপি
কলঙ
মিলা
মামলাগলোর
পডব
##int
ঘটনাটির
রোববারই
সোমবারই
এনডর
এনটরি
##ories
হেগ
২১৯
সাহসের
কতী
টেলিছবি
##বালী
মনোনিবেশ
দীরঘকষণ
ভিএকস
##টিকেই
অবসথাযই
হাইবর
ছেপে
রাজনীতিবিদের
নাসরীন
সাদমান
অসতরধারী
মযানহাট
মাসেরও
মাঠপরযাযের
পরষতানতরিক
ছাডেনি
চরচায
বিদযালযকে
আখের
##ested
দশযপট
টযাবলে
আশঙকাও
বাযমণডলে
দোতলার
নকশ
নাযলা
temp
sohr
goes
নিলযের
রোমানস
বেদীতে
পবিতরতা
শিমলিযা
টিকিটে
রিপোরটের
রিকসা
সরদারের
কিসতির
আলেযা
হিরণ
##বাকয
করসফাযারের
করিসটিযান
উসকানিতে
নিরভযে
দিপিকা
অভিশংসন
চাইনিজ
পেশোযারে
মালযশিযা
উਡর
talking
িনবગাচেনর
লেলিযে
অলৌকিক
doctor
বেলকচি
destr
আষাঢ
sohrab
cook
lim
opp
অলাভ
ইজজ
ইকোনো
এখােন
কটা
কেমবর
কশপ
ছার
ছাত
জাজির
ঝিম
তিলা
দগ
দবারে
পেলো
ললিপ
িডি
োকে
ਊিলি
##জিক
##ডও
##ডনে
##পডে
##পিযা
##মথ
##বশয
##রযা
##ভানি
##ছোযার
##খনদ
##খলি
##েনায
##িনং
বিচছ
বিধানে
করেব৷
সংার
জানবে
অনবরত
সেবামলক
পাংশা
##যানসের
করাচিতে
মাখা
সবটক
উপশহর
আগৈল
রাউটার
কাঙখিত
##নতীর
দরীকরণে
সমযটক
বেজ
বেডান
##িজযে
বছরবযাপী
##পারটি
অভিঘাত
আবাসনের
তিনটিতে
হোসনি
চারবারের
অনযরাও
##ভাবনার
##বানির
বযবসথাপ
উলফ
##এমএল
কলেজসহ
##গাছি
শিলপকার
মযাচটিতে
মঙগলবারই
বসিযেছে
জযই
নেততবদ
তালপটটি
ততটাই
সটাইলে
##oud
সমাবেশকে
২২৯
২২৮
কনমিং
জেটি
ভিততির
মালিকপকষের
২৮৫
২৮তম
ছাতরলীগকরমী
পনররনি
বাকিগলো
টরাককে
##দরেক
সিলেটগামী
সভাম
ভেঙেছে
অরজনকে
দবিধ
৫৫টি
ref
real
অযাডহক
অতযধিক
##হিদজজামান
দদকে
হানড
অভিজঞতাও
দৈনিকের
আডত
মালযেশীয
এযারএ
আদরশকে
shah
নাকাল
বৈধতার
মঠবাডিযা
জনতাকে
জাতীযতাবাদের
উততরাঞচলীয
উললাহর
মঠোয
ফজরের
করমসংসথানমনতরী
পরযবেকষকরা
দরবযবহার
গলাচি
কসমেটিকস
কাপরষ
বেগনি
##ife
জিমবাবযেতে
আইসিডি
উচছঙখল
ঘরণিঝডে
আবেগে
gramm
ডবলিউটিও
লরডস
দাপটের
মনসীগঞজে
অঙকন
সকটলযানডকে
কেরানীগঞজে
গৌরবোজজবল
ফিলিসতিনকে
অনননত
এলিফ
পাহারাদার
আওতাভকত
মধযসথতাকারী
ডিসিসিআই
কারযকলাপের
সটযামফোরড
গণমিছিলের
নিবেদিতপরাণ
দসথদের
উপকমিটি
বৈরিতা
অনকরণীয
সামলানোর
মারসেলো
জনপরতিনিধিরা
সিরিসেনা
বরাসেল
চালিকাশকতি
কমગকতગারা
জੴালা
entertainment
বদধিদীপত
দবযরথ
অপরাসঙগিক
ਨઔত
অলাভজনক
কশপতত
hus
mil
wood
আনধ
ইলিন
কઘাে
গলোর
ছবিকে
ডয
দিম
ভেষ
লোর
শংখলা
সারথ
িবেদ
৯ম
##ওনের
##যিক
##েভ
##মভাবী
##বট
##সৈ
##সজজ
##গনি
##ੴর
##row
##ਭান
পরকারের
##াকামী
বাটেকস
নাপোলির
আমারা
অনমেয
সাবেই
সে੯দহ
নিরলি
কারশিলপ
বযর
##টেকার
##কতামলক
##নতনতর
হাসয
দেখলেও
##সিদ
আইযে
দাউ
অবানতর
অবতরণের
ভাডার
সভাপতিকে
অরথই
মারকো
##সথয
##সেਔ
লিখি
পদচারণ
নারকেল
সারধ
বারই
বারোটা
ধারােলা
এনআরবি
ভরতিতে
এগচছে
রকষক
চলছেই
চাওলা
আতমসম
লাগলেন
২৩তম
নগরাযণ
অবরোধকারীরা
সংসথাগলোকে
কযাটি
পચশাস
পাওযারের
জবােব
উৎপাদক
##কতিকর
পরতিমনতরীকে
ধারনা
নজরলসংগীতের
সফলও
##জারে
অযালমিনি
বাকশ
অলং
পেরি
উৎপাদনশীল
দঃসথ
দবিবারষিক
আসবেই
রকতমাখা
জমিযতে
##লীলা
##tern
বীরের
বযাখযাও
কষেতে
তাপবিদযৎ
working
সবজবাগ
##যবশত
মিলনমেলা
ডানকান
doing
গভরনিং
পডাশোনায
মদরিত
গઝઔেপর
রাজনীতিবিদরা
অংশীদারি
ঘনিষঠভাবে
পৌছাবেন
িদেন
১৯৩৮
পটযাখালীতে
মগধতা
আইডিবি
আনতঃশিকষা
ইশতেহারের
আলেপ
সবৈরাচারের
ছডাছডি
কমলগঞজ
রপরেখ
বিআইডবলিউটিসির
##বাণিজয
ভাগাভাগির
উনমতত
চৈতর
টিনশে
এসএসএফ
নীতিনিরধারক
চিকিতসা
corr
অনপরবেশের
িবষযক
ফযসল
##ংগোর
কটটরপনথী
লাইবরেরিতে
মালযশিযার
অসটরিযা
অনতিম
কারসাজির
ভিভিএস
শভাশীষ
communication
মারটিনের
শামসননাহার
সারারাত
অদিতি
নিউটরি
সংশি¬ষট
টানাটানি
ফটোকপি
সথাযিতব
শৈলপিক
dist
অকে
ঈশ
খডিযে
গই
জযেনট
ঝম
দাদি
ধবনিত
নের
নটিকযাল
বযেনস
মঙগা
রমী
লেনস
শবস
শালি
##জাম
##চেষটার
##দকষ
##টটা
##ভিনন
##ততরে
##ven
##ঘির
##formation
##uct
##িননদন
##ামর
একবিংশ
##েলগঞজ
##বিষট
##বরী
##ওযাদ
##লাভের
আরার
##িশমা
##লাদার
দেশও
কাঠি
##িযালের
করমযজঞ
মানছে
##াপার
থাকো
বিরকতিকর
অবঝ
গেসট
চলতেই
চলছিলো
##তিরেকে
অসাব
জানিযেছিলাম
বাসযোগয
আশবাসের
আজাহার
বহনন
[...]
