[PAD]
[UNK]
[CLS]
[SEP]
[MASK]
ং
ঃ
অ
আ
ই
ঈ
উ
ঊ
ঋ
ঌ
এ
ঐ
ও
ঔ
ক
খ
গ
ঘ
ঙ
চ
ছ
জ
ঝ
ঞ
ট
ঠ
ড
ঢ
ণ
ত
থ
দ
ধ
ন
প
ফ
ব
ভ
ম
য
র
ল
শ
ষ
স
হ
া
ি
ী
ে
ৈ
ৎ
ৗ
ৠ
৤
৥
০
১
২
৩
৪
৫
৬
৭
৮
৯
ৰ
ৱ
৲
৳
৴
৵
৶
৷
৸
৹
৻
##ি
##র
##া
##জ
##ক
##ল
##ে
##ৗ
##ট
##প
##ী
##ন
##স
##য
##গ
##ম
##ফ
##ই
##খ
##ধ
##ব
##৪
##শ
##ভ
##দ
##ড
##ও
##চ
##ং
##৫
##০
##ঙ
##ত
##ষ
##ণ
##৲
##ঘ
##হ
##১
##ঐ
##উ
##ঠ
##৭
##২
##ছ
##ৈ
##এ
##অ
##ঞ
##ঃ
##ৎ
##৩
##থ
##ঝ
##৬
##৮
##৹
##৷
##৴
##৯
##আ
##ঢ
##ঈ
##৵
##ঌ
##৻
##৤
##৳
##ঋ
##৶
##৸
##ঊ
##ৱ
##৥
##ঔ
##ৰ
##ার
##ের
##ো
##ান
পর
##যে
##েন
কর
##যা
##িন
##িক
বি
##াল
##টি
##ায
##তি
##কে
##তে
##বে
##াম
##তর
##ছে
##লে
##াদ
নি
##াস
##াক
##াজ
##েশ
##িল
সম
##পর
##িত
এক
বা
করে
##েল
##ির
##িনি
##াই
##িযে
##যার
##াব
বল
##নে
না
##বার
##রা
##তা
##কার
সং
##দের
##কষ
আম
জন
তার
##াত
হযে
##ঙগ
##নতর
##োর
##নের
জান
দে
##ছেন
##বা
##াপ
##িস
অন
##োগ
নে
##েকে
সর
হয
##বর
##ীর
##ওযা
##াহ
##ীয
থেকে
##না
##টা
##াদের
সে
##বি
বলেন
##রে
##ধান
কো
এই
##রি
##যান
পরি
নির
##নি
করা
তিনি
##াবে
পরতি
আর
##ংল
##মান
##লো
##িশ
পা
##টক
সব
বলে
##সথ
##াকা
হবে
##দর
##ালে
##াড
হযেছে
##যোগ
##কর
বাংল
##যের
পার
কার
##ষঠ
বয
##দধ
##েষ
নিযে
##টে
##বং
##নো
সরকার
উপ
যে
বিশ
##জন
##মা
এবং
##ঙগে
##িযা
জনয
দল
মা
আগ
##যেন
তা
##িকষ
দেশ
##াদেশ
কম
##িকে
এর
সা
##উজ
রা
##তব
##গর
শর
সঙগে
##বাদ
বাংলাদেশ
##ানে
##ডে
##তার
##ছিল
##কতি
অব
মধ
মো
অভ
##লা
##নতরী
দিযে
করেন
##টার
আস
##টর
পরধান
করম
##কা
##াগ
একটি
##চি
##যাল
##ফোর
##থা
ছিল
শিকষ
রাজ
কা
কষ
##যেনটি
##মে
মান
বিড
করতে
দর
##োধ
যা
কি
##ওযার
##েখ
##যন
##টকম
জানান
##িনিউজ
বিডিনিউজ
##নধ
মে
##যেনটিফোর
ডটকম
টো
চে
এস
##ডি
##পি
২০
গর
##বাচ
তাদের
হাস
##চার
##নদ
দেখ
বিশব
মধযে
##এন
##তিক
টোযেনটিফোর
##চছে
সি
##মনতরী
##খন
সক
##োল
বযা
পে
##েলা
##েম
##সি
বিষ
##াজার
বিভ
কথা
পল
কোনো
আই
নিরবাচ
##িতে
গত
উদ
##টির
আহ
এম
মহ
##ীন
বযব
##কের
সময
##দিন
বর
##ভাবে
থাক
##নী
মত
##ংশ
##নার
##রথ
আল
বির
অধ
বে
তারা
##তন
##সল
##ছর
##দা
##থম
কাজ
ঢাকা
বিএন
##ানের
##িজ
##কত
##িম
##দল
দিন
সভ
আব
##সত
সহ
##ীগ
##যো
কিন
##তির
১০
০০
সথ
সংবাদ
যায
বছর
পরশ
গে
কে
আমরা
##মী
ঘট
##দেশ
##ারণ
হো
##ছি
##ষটর
পলিশ
ভার
দই
নাম
চল
##টের
##িব
##লপ
##ঞজ
##পার
##াডা
রহ
অনষঠ
##তের
সাম
পরথম
করার
আগে
শেষ
কিনত
ওই
##কষে
শেখ
অভি
##ষণ
তবে
##ীদের
##সলাম
ইসলাম
মার
##িনন
৩০
হিস
##গলো
মানষ
বেশ
ধর
##ালের
##াতে
##দস
অনে
##ালো
##ণে
##তযা
##চে
লা
##লি
আমাদের
##দন
##ীব
পরধানমনতরী
আলো
এল
##তরে
কিছ
দেওযা
নিজ
জানিযে
##ধয
##যেছে
সংস
বাস
কেন
হচছে
ইউ
দলের
সাং
মাম
আমি
##দযাল
লীগ
পরে
##দি
রহমান
করেছে
##ানি
##সেন
সো
উত
তিন
হলে
##নন
পরিচ
##মিক
দেশের
আশ
##ারথ
আওযা
হাজার
##ানা
##বেন
##িনা
অস
আওযামী
##নায
সদস
নয
গণ
জাত
অরথ
##লার
##শি
##লের
১৯
সরকারের
##েবে
বিভিনন
করেছেন
##এস
এখন
আজ
রাখ
##পত
##কাশ
##যায
বৈ
##হার
জাতীয
বহ
##সথা
১২
মি
খালে
বিক
##ামী
##সে
##াপতি
সমপর
১১
##াকার
মযা
দাব
রো
##পতি
##তরা
##ষট
##ছিলেন
##ঞচ
হিসেবে
চাল
##যনত
##সহ
##িকার
পরতিষঠ
##ণের
##াতর
বিষয
রযেছে
অনেক
##দে
চার
হোসেন
##বেশ
##াকে
সদসয
আছে
##ানো
##খানে
অনয
সমপ
হার
অংশ
##যানড
আমার
##ধারণ
##ডা
##থয
##োট
সিন
##সব
কমি
##ারা
তো
বাংলাদেশের
##চিব
##যাপ
নতন
##জি
##েলে
##বিদযাল
রাত
খেল
সভাপতি
পরকাশ
##চনা
কাছে
খালেদা
##বল
##ৈতিক
ছিলেন
করমকর
##োক
দায
অভিযোগ
বিএনপি
নেই
আইন
বিশববিদযাল
##মদ
দেন
টাকা
আদ
পারে
মনতর
নিরবাচন
তাকে
##পির
##দধে
মন
ইন
##যেক
লি
##ীরা
পরত
##হত
পরযনত
নেতা
##মি
##নৈতিক
সকাল
ছাতর
দিকে
আপ
হাসিনা
মনে
বক
##কাল
মাস
##বিত
সেই
মতো
##ীকষ
বড
##তম
পরিচাল
বিষযে
##েক
##বাস
টর
##ধর
সালে
##াধ
বেশি
ভালো
##ঠে
কল
উপজ
বিজ
মাধয
##তবয
##গরাম
দপর
১৫
সপ
##তায
##ণড
ওপর
জিযা
##সের
বিচার
##হী
##সট
ভা
যোগ
##াকায
##কি
##োধী
পডে
##ভাব
ঘো
##তো
বিরদধে
##ডার
দশ
কী
শিকষা
দাবি
##রত
কযেক
##সম
জি
গেছে
##চিত
চেযার
##েনট
অবসথ
ধার
পদ
বনধ
##শে
হতে
##ীল
আরও
উততর
দেখা
আন
পরীকষ
কারণে
সমম
গো
নাটক
##যোজন
মল
##দার
পরা
পথ
##মন
সাধারণ
নেত
##সর
টি
##শন
উনন
##যাম
##ানত
এমন
##ফর
##াদক
বিএনপির
মকতি
দিতে
বিভাগ
সার
২০১
##পতর
##াবাহ
##ফল
জাম
চৌ
##ভার
উই
উল
##বাধ
##টট
ধরে
##তরী
##বনধ
বিশেষ
নার
##োন
##েষটা
পাল
##িলপ
##আই
সনধ
##েই
সিদ
চাই
খবর
বার
রাষটর
##বান
অভিন
বলা
##তিতে
##ৎস
সরব
মখ
এসে
##লেও
বাড
পরায
##ষণা
##তান
পাঠ
রে
২০০
কোটি
##মাণ
অপর
পরসত
কষম
##ণাল
ডি
খান
পাচ
##রল
##াইন
তথয
সালের
##এম
##ভি
##যারি
##াযক
##পাত
সন
পরক
##ঠন
রাজনৈতিক
##লোর
তলে
বৈঠ
মাধযমে
সেন
চৌধর
##িকা
অর
##বাদিক
সাংবাদিক
সংগ
চটট
হাম
হওযার
##েলার
তৈ
আদাল
সমপাদক
##জা
##েমবর
##েতরে
বযাং
পরস
শিকষারথ
বিপ
মনতরণাল
চটটগরাম
গোল
তত
##বির
দেশে
##চচ
সথান
কলে
জীব
হা
##বারের
হতযা
চি
##লেন
উপসথ
##গঞজ
লাখ
শতা
কলেজ
গান
বিরোধী
সমমেল
##মবর
শাহ
আনদ
অযা
বিদ
পরিবেশ
কমিশ
এটা
মাহ
হলো
পি
##িদ
তাই
জা
লীগের
পড
আবদল
করমস
কেনদর
##ষটি
##রণ
গিযে
সাবে
দি
সাবেক
সিনে
রান
এসব
##ঙগল
ছাডা
আগামী
যান
##যর
##টো
আনদোল
ফির
##থি
করছে
##পরি
পাওযা
##তমান
এতে
খেলা
##ধি
##নীতি
থান
##কারী
##চছ
বরতমান
করমকরতা
##পে
চৌধরী
যাবে
সির
##ানোর
একজন
ফে
##ভব
আহমে
##সন
একটা
সচিব
##মের
বাংলা
ধরনের
দেয
ধারাবাহ
##উন
##াপা
নিয
যক
ঘোষণা
##সা
##গত
##িকি
শিলপ
##েরা
শিকষক
ধারাবাহিক
##দরশ
##মযান
##ধা
##িতব
##চিতর
হাসপাত
রোব
##মবার
##ডের
বযকতি
মাল
শতাংশ
লকষ
মিল
বধ
কোন
গরে
জল
দবিত
##পরণ
মামলা
তখন
একই
সংসদ
সরকারি
গরাম
##তী
তৈরি
হযনি
যদি
জেলা
হওযা
ছবি
সিদধান
নিশ
হন
আবার
পারেন
মঙগল
##খনো
ইউনি
আরো
কারয
সযোগ
ভারত
বযবহার
পৌ
সিনেমা
নিহত
পাক
##যোজ
অনষঠান
বছরের
##িং
পাশ
##রের
নেওযা
উইকে
পরতিনি
বলেছেন
আলোচনা
বযবসথা
মানষের
কারণ
পরযা
##গলোর
##সং
##লায
বযাপার
দবিতীয
##দী
বধবার
##বেদন
খব
এলাকায
মযাচ
জনগ
রোববার
##খযা
##িনার
দটি
চেযে
##পা
##মনতর
দেওযার
##েলি
বহস
ঘটনা
আহমেদ
বহসপতি
সেখানে
##জাত
##বাধীন
হক
##াযা
##টায
বাহ
##পতার
শিশ
জানিযেছেন
মহাস
পরশন
এটি
##পকষ
গরেপতার
##সার
অনষঠানে
২৫
কষেতরে
মঙগলবার
সংশ
সোমবার
সনধযা
##দিকে
ডটকমকে
এরপর
পেযে
গতকাল
বাডি
বহসপতিবার
লেখ
##মখ
মোহ
সাহ
পাকিস
উৎ
মিনি
কেউ
##মনতরীর
শনি
পরব
থাকে
কমিটির
##মার
পরতিষঠান
আলম
##জজ
##ঘট
ভারতের
ফল
সাল
এন
দকষ
বকতবয
১৮
সিদধানত
##পন
করবে
মধয
ফর
কাম
##উদ
##াপত
##ষয
নিরা
##াইল
কারযাল
সথানীয
১৪
করিকে
বো
##হণ
দাযিতব
বঙগ
##িট
পরিস
আনতর
চলচ
##টিতে
নিতে
দলীয
##েরে
শনিবার
##িতা
ঠিক
##সক
##গে
##মল
##তয
##তারা
##াযী
৫০
করত
ভর
##হন
সামনে
##লেখ
##গম
##াডে
##ামমদ
বিশববিদযালযের
ছেলে
শহ
##গা
যকতরা
০৫
পো
এগ
##শীল
এবার
রেখ
দিযেছে
করছেন
##জে
শেষে
##দধা
##োযা
মর
ডিস
শধ
আহত
##আর
##ভা
হযেছিল
আলী
১৩
বিদয
##শা
চেযারমযান
##তবে
##েনে
আহবান
উললেখ
বন
পরিচালক
##িকিৎস
##জাতিক
##ীত
পরতিনিধি
সাত
##ারি
দরঘট
##াযন
করমসচি
হাতে
রায
##াইকে
##শয
ঘটে
##লাহ
শকর
তদন
পরো
চিকিৎস
##ছাডা
বাজার
১৬
দিযেছেন
##করম
লাগ
শন
লোক
##দধার
চলে
রাতে
পকষ
##থায
পরযোজন
ভে
নিজের
সবার
##ফা
অধযাপ
পরধানমনতরীর
আনতরজাতিক
##াসন
৪৫
অনযায
##কম
সড
ইতি
সাক
সাংবাদিকদের
জব
##বন
বিজঞ
##জঞ
##ীতি
উপসথিত
জয
হরত
চলচচিতর
সরাস
পান
সরাসরি
##ডিযা
শকরবার
পরয
##েশন
বিষযটি
অধযাপক
##বেদ
গরতব
সমস
সমরথ
##হে
রেখে
বঙগবনধ
তাল
উপজেলার
সাডে
পরকলপ
শো
নিশচিত
থানার
##ীতে
থাকা
চেষটা
বিনি
বোর
যকতরাষটর
বের
##াজে
ছয
গাড
অক
করি
হে
##টিং
##রাষটর
##ফিক
বাই
##পরাপত
পরণ
বাহিন
মনতরী
রকষ
ফলে
তল
৪০
নিরাপত
সবাধীন
পরসতাব
##কাপ
করবেন
জানা
নামে
রাজধান
বযাপারে
০৭
তাহ
বই
নিরদেশ
২১
১৭
হলেও
দিনের
রাস
##শাল
##িণ
উননযন
পরিষ
##বোধ
##উদদিন
##জীব
নিজে
পাশাপা
সট
অগ
##াসের
পাশাপাশি
বিশবকাপ
##খে
উদযোগ
যারা
সকালে
##ভে
এছাডা
##বী
##োপ
অপ
বরি
সমভব
পযেন
পরিসথি
উদধার
জামাযা
অবশয
বাসতব
সমাবে
যেতে
এগিযে
যাওযার
##তত
সতর
##মো
অনযাযী
ভাই
##ষা
সকল
##িকলপ
বিভাগের
থাকবে
০৯
নিরবাচনের
##মপ
##শের
শীর
হাসপাতালে
যাচছে
শীরষ
পরিবর
শরমিক
দাড
কোর
##াট
নর
বাক
মোহামমদ
যাব
নিরবাচনে
টে
জাহ
বিশববিদযালয
হযেছেন
##িসি
##বরতী
বিকাল
কাল
বযাংক
রি
যখন
দকষিণ
পরীকষা
সদর
ওযা
সমমেলনে
নজ
কমিটি
ঘটনায
পলিশের
পকষে
আরে
##োজ
২২
দা
সবচে
দেখে
উদদেশ
উচচ
কত
উপদ
পন
##খান
ডিসেমবর
দশমিক
##যদ
সবচেযে
সমযে
ফের
##বাহী
বিদেশ
জড
##রিযা
##টন
লে
জানযারি
##কো
##ময
নেন
##াযোগ
জে
পরচার
##টাই
##ীকে
দাম
আট
ফার
পরিকলপ
জানিযেছে
পরাথম
বযাট
##ধার
সহযোগ
চকতি
##বিধান
ছোট
সৈ
বাংলাদেশে
শে
ফট
##পরে
পরাথমিক
২৪
##কদের
কন
##াপন
সবা
পরতযা
নিউজ
অবসথান
অভিনয
সভায
জীবন
##ামা
উঠে
আশা
##পোর
##নিং
ভাব
টেলি
##ামান
##দলীয
যাওযা
নভ
চলছে
##দান
জানতে
বিপকষে
আনদোলন
##যব
##যনের
##যাস
অফ
গলপ
জো
নমবর
##মিত
ওযে
মজ
নানা
মির
উপজেলা
উদদিন
##রাহ
##ালি
##বাহ
চেযারপার
কেনদরীয
মারচ
আগের
##তনতর
এখনো
##চছেন
বাণ
আরেক
ভো
সমপরকে
পযেনট
আযোজ
থেকেই
গডে
বাদ
গা
বেডে
##তেই
ফেবর
হাসান
##জনের
বিদযৎ
গল
##লিক
নভেমবর
বৈঠকে
জানায
আযোজন
##েলায
সপার
মনতরণালযের
হাত
আতম
জিযার
সিনেম
করলে
##লাম
##বো
অকটো
সষটি
তদনত
গরহণ
অকটোবর
নিযনতর
জাতি
বিমান
##াসে
সনতর
##গের
উদবোধ
সমাজ
ধারণ
যেন
##বিষয
ভাগ
কষতি
বস
##াসট
বদধ
দেযা
মহান
আলোচ
সংঘ
লাশ
সী
মাতর
##রম
##ানতি
##পটে
বেলা
##েনদ
চা
##এই
মনো
শকতি
ওসি
২৩
##সী
চরি
##ঙক
নারী
উইকেট
##াযের
০৬
জায
অবর
জানানো
ঘণ
মনতবয
##িজঞ
##নিক
সংল
উপদেষটা
নেওযার
##াসথয
মাঠে
##লক
বযবস
নিজেদের
রাখা
যোগাযোগ
মহাসচিব
##তরিক
ঢাকার
ততীয
পালন
সেপটে
ভমিক
সংখযা
শরে
মযাচে
পাকিসত
সেপটেমবর
##উল
আটক
পরারথ
গরামের
মারা
##পরের
##ঠনের
##ীরঘ
##হের
##থে
তাহলে
শহী
ভি
জর
##সিড
দিল
##তাব
সেটা
মিনিটে
মৌ
##ণয
ো
মতয
##চর
ছাড
আসাম
##কেই
দীরঘ
এখানে
বাইরে
মেড
আপনার
বযবসথ
##ডাই
##কস
সপতা
অতি
##কষেপ
বলতে
সংগঠন
ফিরে
সাই
##এফ
##ভিশ
##চল
সমপরক
মামলার
নিরাপততা
##তরের
গবে
অপরাধ
পাব
অযানড
##োভ
##এইচ
আবল
##রাফ
জলাই
##মর
বিব
সবাসথয
##কষণ
##উর
##কাণড
শি
সবি
বাণিজ
##াদা
আদালত
কঠ
সনতরাস
##ালা
##জজামান
৩৫
সতয
##শল
হম
##িযেছে
করিকেট
জনগণের
##লেই
বৈঠক
কাছ
কযাম
অথ
একস
কমে
মোট
##কারি
##ভর
##শার
পথে
##ষঠান
০৮
##পেকষ
সমালো
ডে
বিদযাল
##শেষ
সমসযা
হত
জনম
ভরতি
##শিযা
নিষ
ইনিং
বিনিযোগ
##ছরে
মেযে
মনতরণালয
অনষঠিত
হরতাল
সংবিধান
মারক
রানে
০১
লকষয
তততব
##িরা
কমিশন
উঠ
ভিত
শিকষারথী
##েলের
লেনদ
দরত
এত
গেল
##ারে
মালিক
নগর
ভোট
ভারপরাপত
##াকর
খো
বিস
হাসিনার
আবেদন
মেডিক
এলাকার
সংলাপ
মানব
শেযার
গঠন
অবরোধ
সবাই
থাকতে
##াঙগ
##নীতির
পশ
##ভাগ
অধিকার
দেখতে
কষমতায
আসে
##রিক
সটে
অনযান
কযা
গলি
জেন
ঘটনার
তাতে
একে
বান
পানি
পরেসিড
আদালতে
বলেও
কারযালযে
##সদ
করতপকষ
চো
চাপ
ধরম
চযান
গরতবপরণ
গণতনতর
##গরিক
##রোধ
##যদধ
##লেট
হল
ওযার
পায
২৮
সহকারী
অসটর
কযেকটি
এইচ
##যানডের
সৈযদ
##লীগ
থাকার
ডলার
নিযোগ
আক
পরমাণ
২৬
##টিকে
##ঙখ
পরশনের
মামলায
মহানগর
পরতিবেদ
খন
বিশবাস
বাণিজয
কিং
উপল
আইনজীব
সংশোধ
টাকার
সহায
গাডি
##বনদ
লেনদেন
চান
##াসথ
শত
বসে
শা
##শর
##পক
তততবাব
কোমপ
পরিবারের
দরনীতি
পরসকার
পরযকতি
ছাতরলীগ
অবসথায
মাঝ
##কল
##যেল
সেরা
##যোগয
২৭
বকতব
অধিন
এসেছে
বিল
পরিসথিতি
বাবা
তিনটি
##পাদ
##ধযে
##োলার
##বদ
##শাহ
রাজধানীর
খাত
চায
যৌ
পররাষটর
##িকত
গেলে
##েজ
##িলা
সফর
##পের
দিব
০২
শরেণ
যেমন
##গন
সিটি
বাজে
##ডিযে
মেডিকেল
##বহ
হামলা
নব
বেসর
সচ
ঢাকায
শির
পরযাযে
সরবো
পাঠানো
শাস
পরেসিডেনট
ঘরে
সডক
##লিষট
যার
##চাল
নামের
করছি
কারযকর
পরবরতী
শহীদ
খেলার
মাসে
রাখতে
তর
দয
হাই
কাজে
##াজী
##েমন
বরতমানে
পরতিবেদন
আছেন
দরশ
বিবে
নিরমাণ
খল
সথাযী
কষমতা
ছে
##সংঘ
মাদ
সমি
সৌ
দরঘটনা
##উট
##কট
অনযানয
১৯৯
##করানত
অবসথা
বেসরকারি
বযাংকের
পনর
সফ
চেযারপারসন
পরিকলপনা
##ধাযক
##দিক
##মত
##াজিক
##চয
##হা
আয
জাতিসংঘ
##ানির
সতরী
পাওযার
শানতি
সংসদে
রাজনীতি
মারকিন
সিরিজ
আসা
##গলোতে
বিন
##জের
পাশে
সবী
##এসই
আমাকে
পরশাস
পরভাব
##েনি
যকতরাষটরের
১৯৭
দপরে
সাজ
ইতিহ
##চের
##হীন
রাজশাহ
আগন
সংশলিষট
পরিবরতন
সমন
সাংসদ
২৯
সথানে
রানের
হারিযে
কের
উপা
নাগরিক
নেতাদের
##সভ
বিতর
##রষ
নীতি
পরাণ
##মাধয
সরবোচচ
নৌ
বঝ
##বের
করেছি
তততবাবধাযক
রপ
অধিনাযক
##গরহ
##ৗশল
পরদরশ
লাল
##িকভাবে
অভিনে
পোশ
রযে
##জল
জবা
নেয
##সটি
পশচি
##খা
সংসথা
চাইলে
খেলোযা
এপর
##মধযে
ঘটন
##িযার
##ডিও
ইংল
ফেলে
##ঙকা
লাই
ইনটার
এপরিল
টক
বাতি
উচিত
করপোর
##সিং
ধারণা
চড
##ছিলাম
জবাবে
অভিযান
সারা
পেছ
##ভিশন
ডাক
দিক
##ামত
বিষযক
বছরে
গোলে
উৎপাদ
হলেন
##ইন
বিকষ
##েনদর
জঙগ
##রাস
##যকত
নিউ
রাষটরপতি
##পরাধ
পরিবার
পরতিমনতরী
নিরমা
মকতিযদধ
শাম
ভল
জোর
সামাজিক
রকম
জনগণ
সেল
কমার
সল
পরতিবাদ
বযবসথাপ
##এল
সিনেমার
##সতা
##সমযান
##দিনের
কখনো
পাকিসতান
বাহিনীর
নেতারা
ইস
চলা
যব
##নদে
মাহমদ
অফিস
চালিযে
ইং
পোশাক
##মব
আফর
সমা
পদকষেপ
পারি
সমভাব
নিরবাহী
পৌছ
জডিত
দিনে
##ধব
পরতিযোগ
যগম
নাস
##াযণ
##সিল
জার
##পতরের
##ভীর
নিরবাচিত
ছেডে
চিতর
##ালী
##শিযার
অঞচ
##াবার
পরমখ
##এসসি
এদিকে
কারযকরম
কামাল
##বয
রহমানের
##তিরিকত
##বায
##তল
বেগম
নাই
রং
##যাক
আগেই
টরাক
বযাটসমযান
আসামি
ওভার
যদধা
বাকি
বাধা
যদধাপরাধ
##াবি
উইকেটে
কযেকজন
করেছিলেন
পরতিষঠানের
যাতে
##রশ
উপলকষে
ভমিকা
খেলোযাড
চযানেল
টিভি
সমমেলন
ঘটনাসথ
রেল
ইংরে
জররি
ফিল
##নদকার
##েলো
নিযেছে
থানায
গাজী
##করা
হওযায
বিপর
##সাই
পরসততি
##হর
খাদ
ফাইন
##তানতরিক
রপত
##চারয
সবিধা
ফখ
কিংবা
অতিরিকত
##তাস
দাবিতে
##নাম
পরিণ
আফ
##ারট
ভব
সমযের
সমাধান
সঠ
মখে
বোঝ
সমমান
##টিযে
কমিশনের
নেমে
নজরল
ভারতীয
শিকষারথীদের
##যকষ
চডানত
##০০
নদী
পেশ
ওঠ
কেবল
বযরথ
পরিচালনা
দলে
সনদর
##তনের
পারটির
##াদার
ফি
সফল
##জার
বেল
আনদোলনের
জোট
অনমো
##াবাদ
তরণ
##েশনের
বিজঞান
মিযা
উৎসব
যাযনি
আদেশ
##তাদের
##ফোন
##ীনে
##ঙগা
##ইউ
কাদের
পরতিক
যত
##মক
জেনার
কান
পঞচ
##সফ
কষি
##ধে
অধি
অধিদ
##কালীন
পরিষদের
সীমান
পরকাশিত
##ঙখলা
সহিং
##নির
সমপরতি
##গরি
চিন
ইউর
একট
রাখার
শরীল
তে
জনের
##েনের
##মেনট
ঘর
খে
সংঘরষ
উৎস
এলাকা
ভাষ
##িনের
নযা
বিশবের
অসতর
মহা
পাকিসতানের
দেবে
তারেক
উন
জটি
পাস
##দীর
ভবিষয
সমাবেশ
##তেন
জামাযাত
##ঠি
সমালোচনা
পরতিটি
##রকষ
বাজারে
মযান
পরিচয
##গঞজের
সটেডিযা
##করণ
##বিক
##নদর
নাট
মাহব
পেযেছে
পারবে
নেততবে
কথ
##িসট
পতর
বিজয
ওযান
যদধ
##গরে
সিদদিক
অযাপ
লাভ
মিছিল
কাউন
মলয
##দায
হিসাবে
রব
থাকলে
বিরোধ
##ফি
রযেছেন
##টিভ
##িবির
##ফে
পরসঙগে
##নড
জেনারেল
পারেনি
ধরা
আপনি
লডাই
কীভাবে
মসল
পরযোজ
##চা
##াসহ
চাক
বনদ
পরাম
যাচ
##রির
অনতত
অযাল
অরথনৈতিক
থাকলেও
##মিন
লেখা
##বাম
খা
আসছে
খর
কবির
নো
##টিভি
এমআই
ইর
যথ
ফেবরযারি
অনযতম
##িনদ
আসার
ইউনিযনের
মাসের
##মাতর
নারাযণ
নাক
##ঙগী
দো
অধীনে
আনা
দরকার
এনে
কাপ
সঠিক
পদধ
বোরডের
##জনয
##চছা
##কেরা
রাখেন
মিরজা
জরি
অনযদিকে
##ভিত
##দরশক
দখ
##াকষ
খেলে
সরকারকে
আইনজীবী
হযতো
সংসথ
মাই
##ঙে
গড
পরকরিযা
দলকে
সভা
জিতে
পরশাসন
বিদেশি
জমা
বযাপক
##ভকত
##ঘাত
সেনা
হতযাকাণড
সোহ
আগর
আসতে
যেখানে
পদে
মতামত
অগর
হোক
##কতা
করমী
শহরের
মাঠ
করব
##পরিয
আনো
##গরসত
গেছেন
##পাল
সহাযতা
৩১
##দয
##যাট
যাতরী
টেসট
আনোযার
##িনী
ডিএসই
করমকরতারা
চলতি
বিকষোভ
##গান
দজন
লিখে
সবপন
ভবন
থাকায
##সান
পরষ
##দরে
আলোকে
সনধযায
টেক
রাজশাহী
সামরিক
পণয
বিকে
ডর
পরিমাণ
##গার
কোচ
হতযার
হতা
ফেল
পরিয
##ভাবিক
সত
সমরথন
মকতিযো
অবযা
০৩
##সনের
পরামরশ
##দদ
লিখ
করেছিল
##কারীদের
নাজ
##নান
উপাচারয
কমিশনার
পরতযাহার
সংসদের
আযোজিত
##জর
সভাপতিতবে
পরেম
মেযা
অনতর
##পদ
করমীদের
ফরি
অধিবেশ
##ভিততিক
ফখরল
মাছ
##নয
##ণা
বাডিতে
##ামে
কাজী
##শিলপ
##চালক
সিলেট
তারপর
আইনের
অপেকষ
##বাসী
সই
রিযা
এফ
##শো
মিশ
অভিযোগে
জঙগি
ঋণ
##াযার
##াডেম
##পথ
খবই
শার
##দরশন
হিসাব
সেনাবাহ
##দলের
ঘণটা
শবদ
২০১৩
করিম
##যনতর
পডেছে
##শালী
মহাসড
ইউনিযন
সদসযদের
গণমাধয
হামলার
ঐক
টাই
বললেন
নরল
##ততর
ভাঙ
সদসযরা
নিযনতরণ
বিপল
বেডেছে
৩২
কঠিন
এভাবে
জিল
হাজ
অবৈ
সহজ
সাব
বাধয
পরীকষার
পরতিবেদনে
আও
বিচারপতি
বাল
ঈদের
সবরাষটর
মখো
ইক
চাদ
##ফার
##সকতিক
পেরে
##গীর
##ৎকার
##ঠাম
##মলক
মেযর
লো
##গরহণ
খেলতে
সবাধীনতা
সাংসকতিক
পেযেছেন
অথচ
এরশ
নেযা
##িতার
পাহ
পরিণত
ওঠে
পরও
দাযের
বযবসায
অনষঠানের
ফারক
জম
##টিশ
##জনক
সমাবেশে
নিরযা
কারাগ
শিকার
আকরম
তৎ
গভীর
চতর
জাপ
##নাথ
##িতি
আরথ
দৈ
হতো
মোব
আদালতের
জোটের
সহযোগিতা
পরারথী
মড
খাতে
ছবির
ইনডি
আসেন
ধান
##াতার
কবিত
টযেনটিফোর
##বছর
##চির
উদবোধন
কলাব
অবৈধ
িব
০৪
ভাষা
ইংরেজি
মাথায
অল
গযাস
জযে
পিছ
##ঠিত
গরামে
কিশ
গানের
##িলের
খেলায
পারবেন
পরশিকষ
সচক
##ফিজ
##সির
##টারস
আহমদ
সিরাজ
##যামপি
দিলে
চারটি
বাহিনী
##যাপী
জনপরিয
একাডেম
আমির
অভিজঞ
দোক
উদবোধনী
পরযোজনীয
জিজঞ
গণতানতরিক
##ভত
সপারিশ
৬০
নিরবাচনী
জবাল
##ামের
সংগঠনের
খার
ভালোবাস
##গায
ইউন
চযা
উৎপাদন
পথিব
##ষিক
পের
বাসতবায
যেসব
এদের
মেনে
কাউনসিল
বিকালে
ভেঙে
আলোচনার
পরতিদিন
বিকরি
দঃ
##টস
পডা
আমিন
মনতরিস
##সটে
ভোর
গার
রাম
অরজন
মযাচের
কিশোর
বাঙ
এসএম
ফোন
অনমোদন
পরথ
গলশ
ছাতরলীগের
##েনড
রফিক
সবীকার
চযামপি
গোলাম
ছাডাও
দবি
বাতিল
ভিততিতে
থাকেন
লকষযে
ফটবল
বাসায
অতিথি
##বরে
নেততব
সিং
বলছেন
পরের
বলি
ডা
দেযার
সপর
আবদর
রকষা
##লিযা
পৌছে
চর
চযামপিযন
ফলা
পারেননি
অনরোধ
কযামপ
যৌথ
করমীরা
ফোর
আলমগীর
দেবেন
##ংক
দরব
জবাব
অসটরেল
##ানতর
অগাসট
শিকষারথীরা
নিযেছেন
পরেস
##কৌশল
সাহায
চালক
কোমপানি
##তাম
যকত
ওযেব
জাযগা
জনকে
আগসট
সাফল
##খানা
সরবশেষ
পাই
মজি
রম
##লর
মধযেই
সবাভাবিক
##বাল
করন
##যনে
শরর
পেছনে
বযবসথাপনা
সনদে
বিজঞপতি
দারণ
বাসতবাযন
##েনস
হযা
##বাচক
অত
##রয
##সময
খনদকার
##বিদ
সংসকতি
ডিজ
##মিটার
মস
কিছটা
##সটিটি
পত
জেলার
আলাদা
মানষকে
ভয
##ফো
করলেও
##দিষট
মখোমখ
বলেই
চতরথ
সেটি
হাল
চলাচল
##গো
ছিলো
সবর
জীবনের
##মতি
কষমতাস
কলেজের
বরণ
আলোচনায
অরথমনতরী
পাবে
মোক
বযকতিগত
আমের
নিরধারণ
চিহন
কাজের
তালিকা
মিথ
ইনসটিটি
ওর
আসন
সেত
উপর
এসআই
আখ
##িমি
তেমন
গাছ
##ফিল
##শনাল
দাডিযে
করমকরতাদের
মখোমখি
ইসলামী
বকতবযে
আপন
সংগরহ
এবারের
বিশববিদযালযে
ধবং
করমচার
##নেস
বদধি
##ওযান
অবশযই
##বযাপী
আসাদ
শরদধা
পরকলপের
##তরাজ
আধ
মোবাইল
শিলপী
##দরো
পরীকষায
##সথান
##েব
ইসলামের
কমপ
পেটর
বযবসা
পরতিপকষ
নিযমিত
বিকেল
সবাইকে
##কেও
চোখ
##িনে
হসত
##িকায
বগ
সমতি
টানা
বিরোধীদলীয
##ীরে
##কেট
রপতানি
##কষম
উঠেছে
বরাদ
কারযালযের
অসটরেলিযা
মতি
খাদয
কাউ
আসলে
বিদযালয
##পরা
##ওযে
এমনকি
বযবসাযী
কারখান
উতত
শটিং
##ভিস
##ছ৷
আসবে
জাযগায
ময
বরং
মডেল
আহব
সথাপ
##িনদা
চটটগরামের
দিবস
অযালবাম
ভিনন
উদদেশে
##শী
বোরড
জযের
লোকজন
##ষক
অনেকে
##লেক
যকতরাজ
জাহাঙগ
##পতরে
গবেষণা
##ফের
দিচছে
২০১৪
##াহি
##গঠন
বিবতিতে
মাদরাস
##পততি
২০১০
সটেডিযামে
২০১২
##সভায
সনতান
আকর
জাহাঙগীর
হেল
সশ
পরকৌশল
সষঠ
মিনিট
তারি
##সতর
সাকষা
রয
##বিড
##বিষযক
শোক
রেকর
শরতে
##েষট
##গলোকে
##গিত
##কোর
৫৫
ফিরিযে
##িলো
আজাদ
##কির
##াতমক
বযয
কট
গঠনের
২০১১
মোশার
পরতিষঠা
আননদ
ভোটার
চরিতরে
চাকরি
##খী
আরেকটি
##রিয
ইউরোপ
বোল
##টেড
বনদর
ওযেসট
শরী
কয
অবযাহত
রকত
##তনে
করায
##নযা
##ফাজ
দাযী
বিশবকাপে
ছডিযে
##ধানে
ধরেন
##িতয
##বাধিকার
চী
সদসযের
##যাণ
##মকত
সমিতির
বলেছে
অভয
##কারের
##বাগ
ইতিহাস
##পণ
##বাব
একশের
##টোর
কক
কষমতাসীন
##করমী
গাই
মহিলা
সেলিম
সাদ
সেক
বিকেলে
গহ
শিবির
##পিএ
সিরিযা
দখল
##বিরোধী
সংকরানত
গরামী
কঠোর
পারব
পদতযা
উদদেশয
আওতায
পেতে
চলবে
কষতিগরসত
শিশদের
অসথ
গরামীণ
কেনদরে
পরিচালিত
রাজনী
নেতত
তেল
ধাক
হাইকে
##ষটির
পরথমে
মকতিযদধের
##ভাবেই
নেততবাধীন
হই
করেই
মহাপরি
সথগিত
দী
রোগ
আপনারা
ইযা
সেবা
##ঠা
##ধারিত
অধিদপতরের
##ষণার
##ঙকার
জমি
##ঙা
##গতি
##ামল
##ানস
##কালে
##াসিক
##উনড
অনেকেই
খজে
পরিব
কণ
সফরে
##খয
গোযেন
সামপর
সমপদ
##হিত
##পল
##লিউ
এড
একশে
অনি
জিজঞাস
##ঝো
দেব
বলেছিলেন
জারমান
লনড
সমভাবনা
ওযানডে
উপজেলায
আনষঠান
িন
হাসপাতাল
রিজ
দেড
ফাস
বিসতার
##োস
##াইকেল
যনতর
বাচ
ঘটেছে
##ভয
বযস
বাজেট
শহর
ওযেবসাই
নন
##াজিত
পৌর
টপ
##পনথ
চিঠি
যদিও
##পরতি
নিচে
##েনা
##গল
কমান
##াধিক
মিস
চনদর
জানাতে
বাডির
শনে
মঞচ
চিকিৎসা
মানে
##লী
সমঝো
সাকিব
ভিডিও
ইনিংস
নদীর
##খার
ইতযা
টরাই
##উটার
দমন
##হাট
১০০
##নত
##সাম
##কোনো
##ঠামো
নেতার
সপিকার
১৯৮
##িনীর
জানযার
পারটি
##বিল
অসটরেলি
জযেষঠ
নজর
বেরিযে
##াতের
জিযাউর
কবি
২০০৯
জারি
জিম
##লেঞজ
বাধ
শিকষার
মানবাধিকার
ভেতরে
##সিক
িত
##বেল
বলছে
নেতরী
আরথিক
বিশেষজঞ
চরিতর
##মস
বিভাগে
এরশাদ
সেখান
সরবরাহ
##মণ
চযালেঞজ
##তিহ
নেবে
বরা
শাসন
মহর
##জয
##জেনট
##ঞচে
করলেন
##ালেন
বকতবযের
জাতির
রাশিযা
##াকত
বিসফোর
ভই
হোসেনের
করমসচির
শহরে
##টিক
যাদের
##চেতন
##েধ
সংসথার
##ষিত
মতযর
কমপি
কোনটি
আমনতর
খলনা
##েস
করমকাণড
মিলিযে
##ীনদর
সারভিস
যেকোনো
##কিং
ঐতিহ
##মাল
শিকষাম
আশরাফ
দরঘটনায
অরথনীতি
পরজন
হমকি
ধবংস
আকরমণ
বদ
পরিষদ
চিনতা
##ডায
ফা
ষড
নিবনধ
আত
##েনটের
বরাজ
একমাতর
ইম
কালো
একাত
##নর
##যারিস
##িরে
খরচ
সতরে
শকতিশালী
##পাডা
দষটি
##চছি
মজিবর
পরিবহন
যাতর
হমাযন
আকতার
এটাই
একাধিক
কাট
কারও
পরাক
পরিচিত
টরেন
শাহজ
সান
অথবা
##ডিং
ভবনের
পাহাড
শিকষকদের
অনমতি
বযসী
পিছিযে
বরাদদ
আহবাযক
বিজে
##চরণ
##ভো
বোমা
কাহ
নাশ
খারাপ
৩৬
##সটার
চিকিৎসক
বিসি
সবাকষ
সবাধীনতার
পছ
কিছই
আশরা
##খালী
##কারীরা
অরথা
মাধযমিক
দম
বাছ
সংসদীয
বিশবকাপের
নিজেকে
মশ
বষটি
সভানে
আইনশ
২০০৮
রেকরড
ভাল
মলত
##যাগ
ষডযনতর
দরনীতির
অযাড
সপতাহে
##মহ
ইনটারনে
##চনায
বরষ
অরথাৎ
আবেদ
পরিদরশক
টেন
বিদরো
পরশাসক
অরধ
##ারের
পরশিকষণ
##ভোগ
কমপিউটার
জানি
বলার
পরবেশ
আশরাফল
##াসী
নাকি
ধারা
নারাযণগঞজ
রবীনদর
##াজন
গঠিত
##করো
##কতির
মিথযা
##ধিক
সাথে
##াহান
##জনকে
বাংলাদেশি
লেখক
কং
দেশটির
মোল
##চন
পকষের
হরতালের
নিহ
##াকরমী
সরে
হাজির
মনির
শাসতি
##াজা
##বযন
জেকে
##নীত
##িলোমিটার
বযাটিং
পঞচম
সংশোধন
সাকষ
আঘাত
মিলনায
৩৩
আসনে
নিরধারিত
পররাষটরমনতরী
খাবার
বিধান
সংগীত
ওস
সকলের
সমাজের
এখনও
অনযদের
তহ
বাছাই
##মালা
বেতন
গোযেনদা
টরাইবযন
##বাজার
আমলে
উননযনের
পাচটি
##দীন
মের
টা
শরমিকদের
নীল
##াদে
পদমা
কারাগারে
রাষটরদ
##দবনদ
পডতে
##টেন
পরসতত
করী
কাউকে
##রফ
ইতযাদি
ইনিংসে
জাতিসংঘের
রও
৭০
জামাযাতের
নেযার
করেনি
শামী
বিদেশে
##ডির
নিজসব
ইকবাল
##বীর
বরিটিশ
বাংলাদেশকে
##খযান
লেগে
মকতিযোদধা
দিযেছিলেন
কোথায
সবামী
##বধ
বিচারের
বযকতিদের
অভিনেতা
জবালানি
সপষট
অংশগরহণ
বিকলপ
##ানী
ফটব
বিজঞপতিতে
চীন
দেখার
বোলার
পরদরশনের
সমারট
বাংলাভিশন
শনানি
কংগরে
চলমান
বিদায
##গাও
আপনাদের
ভাষণ
তাম
##িসত
বৈঠকের
##লযানড
##তিকর
আবদস
হামলায
সনদেহ
মিজ
হতযাকাণডের
পডেন
অপার
##হি
পরপর
৩৪
##রধব
##গধ
পরতযকষ
ইতিমধযে
তারিখ
উননত
সথাপন
চেযারপারসনের
পাবলিক
##গির
মও
হেরে
টোযেনটি
##াধীন
জিললর
দেখিযে
##সভা
কারযালয
কেটে
বঝতে
আনতে
##বিশ
তমি
##মণড
সিনেমাটি
মকত
##জাক
পযা
##লাই
##তিত
অতী
পালিযে
টেলিভিশন
##শোর
বিযে
সাংগঠন
আধনিক
আইনশঙখলা
পরীকষারথ
রাই
কথাও
একবার
রক
রাজধানী
বরিশাল
পরচারিত
##বেগ
সমরণ
চরম
##বযব
##াপে
কিলোমিটার
খাল
বঙগবনধর
নিষি
##সকল
পরচ
##নদন
##রিযার
উদযোগে
পরতিরোধ
পরতিশর
##যাব
সেনটার
যদধাপরাধীদের
নিরমিত
মাহবব
রযটারস
বাবার
ইফ
অসটরেলিযার
সবারথ
নিষেধ
কযান
হাব
ছবিতে
##হিদ
কারণেই
দঃখ
লাইন
তলনায
গতি
যারি
৪২
নারীর
দবার
##াতক
তোলা
মখয
সহযোগী
নিরভর
নিষিদধ
পরযবে
বিদযালযের
জাহাজ
##লড
উদদেশযে
সবাকষর
সনতরাসী
কারা
শাক
পরশং
##কিছ
##েদর
বাংলার
বিশলে
এজনয
োদ
দদ
রংপর
অধিকা
দফা
অধিকাংশ
সমসযার
পজ
##পতির
সতরক
নিরদলীয
সমপরণ
কোথা
এসইউ
হান
৩৮
রাযের
বেশির
নিরপেকষ
কাটা
গরহ
##িসহ
##গতিক
রাজজাক
আজিজ
২০০৭
মসলিম
সতযি
অবসর
সাংগঠনিক
##রিযায
গরতর
কালাম
ইতো
দশয
এরই
আকাশ
একদিন
মেঘ
দরে
##ণডে
উননযনে
চিহনিত
মাঝে
পরেকষ
জামাযাতে
ইঞজ
পারলাম
দেলো
মিলে
পির
আনদোলনে
রাসতায
পরযাযের
##চছিনন
দেলোযার
তারকা
রাজি
যোগয
সারাদেশ
বিতরক
আরি
ইব
হঠা
৩৭
সিনেমায
করিকেটার
জিত
##মকে
ভযা
সমনবয
ফজল
##তেও
৯০
আনার
সজন
অতযনত
ভাস
##জান
মহি
##রাট
চৌধরীর
সডকের
তব
থানা
কমিল
মনোন
##াগলো
জলবায
লাগে
বিবেচনা
জনযই
ঘন
##ৈর
পরবে
##ততি
মহামমদ
##ঞা
সংকট
নেতাকরমী
##জডে
বৈশা
হঠাৎ
৮০
ার
মিউজ
সবে
মোটর
ডাকা
##িতায
সপতাহ
সমান
করপোরেশন
মহাপরিচালক
##শিকষ
##দো
অনপ
পদধতি
আইএস
##শেষে
ফাইনালে
তরি
রানা
নিউজিল
ভাষায
শভ
৪৮
বিশাল
রাষটরদত
বদল
রাসতা
##াকারী
রেজা
লতি
চাহি
হাসপাতালের
সংগরাম
পরতিদবনদ
##দানের
আফগান
আইনে
টার
রাশিযার
মঞজ
আপিল
হবেন
ককসব
ককসবাজার
পয
##েনর
রাতের
মোশাররফ
নিযেই
পিল
আশঙকা
মকতির
নাসির
##বাদী
বীর
তৈরির
মিলনাযতনে
সাহাযয
বায
উভয
মাইকরো
##খি
##বাডি
চোখে
অভিজঞতা
##সচিব
সপতাহের
ভারতে
চালানো
##লাইন
হেফাজ
##ভী
তোম
করতেন
শরম
বিচারক
জামাল
ইতোমধযে
সমমেলনের
পরদান
নিরমাণের
##শেদ
##নগর
ফেরার
আসনের
ইংলযানড
##ীরণ
ফরিদ
একক
মাননান
আচরণ
করিযে
##সতফা
পদতযাগ
সভানেতরী
##সকে
করণ
ডেকে
পডার
তলতে
সচেতন
কারখানা
বাডানোর
মনি
খস
সমদর
রাজনীতির
বারতা
সালমান
কমেছে
লিখেছেন
দৈনিক
ঝকি
এটিএন
মনতরণালযে
করো
##েদ
উপসথাপন
পরযোগ
##ঘা
ছাপা
সাহিতয
বযান
মামন
শনয
সকষম
অগন
##লীর
##ডর
ভিততি
##েত
যাচছেন
সাফলয
শভে
লিমি
আগামীকাল
দোকান
মাত
বিজি
নিরযাতন
শফিক
নিঃ
মাহম
দরঘটনার
##বদধ
জিযাকে
মাথা
সবাগত
পাশের
আরব
করেননি
মসজি
নিখ
##কারে
##ইল
আজকের
রোড
আডাই
পরশনো
সরঞজ
নিরদেশনা
থাকবেন
বাঙালি
পরতিবাদে
অঞচলের
বিভাগীয
কোথাও
দরবত
গযা
সিলে
তোলার
##চছিল
##ালাল
সপরিম
##ভবনে
ওসমান
যথায
বিজনেস
জিপিএ
ঈদ
খনি
সচিবাল
মনোনযন
সিনি
পারলে
ধরমীয
োস
বযকত
##মখী
চত
অবদান
মহরতে
ভমি
ঘোষণার
কবিতা
চীনের
যশোর
##পনথী
কাগ
টরনাম
বযাখযা
যথেষট
##হান
নিরমাতা
যকতি
##োযার
##বারে
সকালের
সাঈ
##সিটি
##নাল
মিউজিক
##োদ
মেলা
শব
যেভাবে
অসসথ
সবাগতিক
জঞ
জীবনে
সডকে
একসঙগে
##কায
পরদরশনী
আহম
গানে
##গামী
##টারি
সিনিযর
দটো
দেখানো
##বরধ
কিনা
জাফর
খোলা
ওভারে
##পো
করতপকষের
এগলো
জনসভায
শিকষামনতরী
বকত
##ণী
পরশনোততর
নিচের
ভাইস
ফেডার
##ঘর
সনত
কিউ
তাজ
ফলাফল
তালিকায
সংযোগ
সেদিন
অঙগ
ধাককা
চালায
শিরোন
##শবর
পরাই
গণতনতরের
উচ
পরতিবনধ
##েরি
##চেঞজ
কৌ
##নীয
অযাস
পাবেন
##ককে
##োগান
বদলে
তী
##দানি
পণ
হি
খাতের
মৌস
##যম
ভইযা
সাভার
##কান
পরিশ
মজিব
সালাম
এশিযা
পরকত
মোড
নিরদিষট
গৌ
আউট
দলটি
হায
##টনে
সোযা
পরতিনিধ
বোধ
##াজি
##কষা
কোমপানির
চির
নান
ঘণটার
##থেক
দেশকে
গম
জেলায
তেম
মহিত
মতে
শভেচছা
রহল
পরেসকল
জানযারির
বযসত
##পাতর
১৯৫
এরা
দিযেছিল
দপরের
ভবনে
করপোরেশনের
কলযাণ
অনসার
পরবদধ
তীবর
সহিংসতা
##মতো
খানের
পরিবরতনের
তান
##তরীর
##নাকে
এমএইচ
অযাক
জনসং
##টেই
অভিনেতরী
যথাযথ
আড
আবদললাহ
শানতিপরণ
আবারও
একসচেঞজ
ফো
রিক
োথেক
অপেকষা
শরীলঙকা
বোলিং
কেমন
ধনয
ভাডা
##সয
লতিফ
তোমার
ফেসব
গরহণযোগয
রফিকল
তেমনি
নিশচয
দারি
##ডেন
ইতিবাচক
দেশগলোর
সাগর
##দৌ
তৎপর
নিষেধাজ
মালযে
নষট
আগরহ
##ঞচলিক
মাতরা
অসা
সংগী
মখপাতর
িবিড
পরই
##িবাজার
বযকতির
সাময
##িলি
আঞচলিক
মাযের
বিসতারিত
##জিত
##টিন
মম
গলিট
দারিদর
দলটির
অধিবেশনে
ইমর
বযে
বাডিযে
রাষটরীয
চকর
মেযাদ
##ামার
কষে
সংবিধানের
সরিযে
নিযনতরণে
পতাকা
অসবী
আদায
##িসির
মযমন
##চনার
মানিক
বযবহারের
পরিসথিতির
৭৫
হাট
সামপরতিক
ঘাট
কৌশল
##শত
##াবর
হিনদ
জটিল
দরবততরা
আহসান
সেমি
এসএসসি
বিপরীতে
গরাহ
নিযম
পছনদ
সংখ
মিজান
ভেবে
শিগ
সফরের
জরিমান
##ঘন
টেসটে
এযার
সকলে
দোষ
নগরীর
করীডা
আটকে
বোন
ইউনিভার
মধযরা
সংসকার
মাসদ
মহাজ
কখন
##হির
সীমানত
##াকালে
##শনের
##টেল
লিখিত
হাসিনাকে
শিগগির
##িনউজ
নী
ফযা
সবকিছ
পৌনে
পাকিসতানি
এলে
খলে
শট
##ভতি
দরবল
##সারণ
মেন
##পিকে
##ন৷
মযমনসিং
##যাত
##বাহন
পরিদরশন
##ষটরে
দিলেন
##ীক
##সটের
##ালির
##ীগঞজ
দীরঘদিন
মনদ
##জঞান
দশম
সটক
দীপ
##হেত
পিডি
শামীম
অপরাজিত
সঙগ
##কেনদর
##িতিশীল
তিনজন
তাপ
##বোর
সেম
দরশক
পশচিম
মোতা
##িপ
বিবেচনায
পরথমবারের
##খযাত
দৌ
হামিদ
উড
চলতে
উতথ
##পরিষ
বিধ
এএফ
বিবর
সবজ
খালেদার
জনপর
উনি
শামসল
খবরে
সংঘরষে
িবিডিনউজ
োগ
##বলিউ
আনিস
মাছরা
ভবিষযতে
##ভেল
মশফিক
আফরিকার
##নিযা
পরশাসনের
ঘটনাসথলেই
শরীলঙকার
##বনদর
পাঠিযে
৭১
ধা
সারবিক
শান
সেগলো
পরতিবেশ
মানসিক
সাডা
মেধ
ইনটারনেট
ঘটনাসথলে
পজিবাজার
##েরর
কারি
গরপ
কষমতার
উৎসাহ
সহসভ
##োসিযে
হাক
ধনযবাদ
##কয
##ওল
বাব
মিরপর
ইংলযানডের
পথিবীর
খোক
বেধে
১৯৪
##ারক
কাশ
সটার
সিদদিকী
ইঙগ
শতাধিক
যাবেন
##শিদ
গলিটজ
##তাই
সহিংস
##যযার
খোজ
আলীর
কযারি
আমদানি
সবলপ
নিরাপততার
৪৩
##কলা
খশি
পরবাসী
৪১
আশরয
বেচে
মঞচে
অসম
মাছরাঙা
বারবার
শেযারের
মাদরাসা
জের
অধযায
িনে
পরপরই
গরেপতারের
গেলেও
চাওযা
##াদী
হাবিব
বিতরণ
##নিরবাচ
সহসভাপতি
পেটরল
ইসরা
তথ
মেরে
##জায
##েয
মোসতফা
আললাহ
নীতিমালা
সিস
##সভার
##বযা
##াডি
##বলীগ
দাযিত
শপথ
##বক
পডবে
মিডিযা
বাডানো
##শিলপী
আরজেনট
৫০০
সংলাপের
##ন৴
৩৯
নিযেও
পরোপরি
ঢকে
##টরি
টকশো
রাখে
আকরষণ
বিনা
শরীর
##উললাহ
পরতিষঠানে
মরযা
যবলীগ
ভেতর
চাহিদা
##ইট
অভাব
##শিষট
অটোর
মোর
##িযাল
সমপরকিত
বেন
নিক
পথক
জানালেন
দিচছেন
##যোগী
পরিপরে
এসেছেন
জযা
বযবহত
বাসের
দপতর
৪৪
কপ
৬৫
কোরট
অটোরিক
পরান
তাক
পরিপরেকষ
২০০৬
মতব
ভযান
টরে
সমপনন
ডিজিট
বযবধানে
আদরশ
পানির
##ঙগের
রাহ
জামিন
২০০১
পরকাশের
টরা
সাকষাৎকার
চাপা
অযান
##েলর
শোন
##েষটার
ইঙগিত
বাজ
পরতিকরিযা
##চিতরে
ফেন
##তোষ
আনষঠানিক
ইত
সোনার
চালা
ইনসটিটিউ
রেখেছে
ডেম
সকরিয
চটটগরামে
কাঠ
##পরধান
##টল
আশবাস
রেজ
অবরোধের
##তিতব
নিরম
##ঞচল
##উস
অনধ
##দেশের
মাশ
থরি
পরতিষঠার
সামনের
##িকিউ
যাতরা
করমসং
এসইউএম
অরথবছর
অগরগতি
যিনি
##াউদদিন
নযায
##থর
তাৎ
রহমানকে
পাট
১১টার
মামলাটি
ঐকয
##টিযা
##েশনে
পরিপরেকষিতে
পরতিযোগিতা
নিহতের
##পরয
কলাস
শাখা
বাসতবাযনের
বিচছিনন
জিমবাব
শের
দষট
পরতযেক
নেবেন
জাগ
সেনাবাহিনীর
ছযটি
চকতির
লিগ
অযাসোসিযে
পেল
কলক
কেনদরের
মদ
পাসের
ইউসফ
মনতরি
আলোর
সনদ
সৌদি
গরহণের
শরত
বিনিময
বলিউ
##জির
দলগলোর
হোস
##িকের
কিছদিন
##হতি
##নথ
##যেছ৷
সাধ
পেলে
আকরানত
১৯৬
সোন
সবেচছ
##িনট
শীরষক
ধীরে
##িসের
আমনতরণ
মহিউদদিন
সংক
##িনারে
ডিজিটাল
নবম
খসডা
##মনা
পেন
খায
অতিথ
শাখার
শীরষে
বিষযের
##রাম
পরসঙগ
হানি
একা
ভোটের
গাডিতে
উঠতে
উৎসবের
##েনটে
আহমেদের
কারখানার
পরতযকষদরশ
মনতরিপরিষ
ডলারের
ফাযার
মেজর
##ষণের
আশপা
শঙখলা
##তানষঠান
##পী
অপরি
হাফিজ
##িপত
##মযে
রাষটরের
অনেকের
ছাতরদলের
আযোজনে
##নতরীণ
পরশংসা
গি
পাত
রঙ
##যয
##মবে
পরদিন
দরদ
টযা
##াকাব
##ধিকার
পরতযাশা
নিখোজ
##তবেও
শিরো
##ংস
গোপাল
বোরডে
ইট
এসময
রাসতার
ইউরোপীয
জাস
১৯৭১
বিজযী
শোনা
ফজলল
বাসা
জডিযে
ইলিযা
পরযালো
কষদর
হারে
মতোই
টন
যাই
গোষঠ
##ঘাট
একথা
যাওযায
পরকৌশলী
##টিভির
##খযক
মযাক
থাকছে
মানববনধ
জরিমানা
চম
বসব
##পথে
জনগণকে
বৈশাখী
মেল
##এমই
বযারিস
##াবেন
ডিগরি
সবারথে
উপায
অভিভাব
সবীকতি
সোহেল
রবীনদরনাথ
করমসচিতে
ভালোবাসা
তৎকালীন
উদযাপ
##ঞচিত
সেনাবাহিনী
জগ
##লির
সিরিজের
মনতরিসভার
কষণ
এমপি
বযারিসটার
বহি
হাযদার
বসত
সাদা
কযলা
##িনির
রিট
##যানট
পশচিমব
পিলশ
##াজের
লিগের
সশসতর
পরদরশন
অশ
গোপন
গাজীপর
ভট
##াইট
বৈধ
আইস
পরযাত
রাজনীতিতে
ছিট
আসছেন
রিজভী
##িও
চিকিৎসার
অবসথার
হতাশ
ওরা
তদনতের
বোঝা
কণঠ
মনের
##সরণ
দরযোগ
ঘিরে
খাতন
ইমরান
নাহিদ
সজনশীল
কযারিযার
##িকস
বাগ
টান
অসবীকার
সিরিযার
উননতি
সসথ
মজমদ
বাডাতে
রোধ
সদ
##ামম
রশ
ওব
এসএন
##মাতরা
অবকা
##ফাযেল
নক
করল
সংরকষ
গজ
পরিষকার
৪৯
পাচছে
ফান
দাখ
নিষেধাজঞা
ঊরধব
রাষটরপতির
##যবদধ
##ভাই
কামরল
##এসপি
##পটি
আফরিকা
মঠ
##িযাম
বিডি
টাঙগ
##দির
আলোক
পট
আযের
মিলন
নিরাপদ
##ংযের
চলচচিতরের
হাইকোর
মযন
##িসং
মাটি
ইজ
এদিন
দেখি
ইনটারনযা
নযাশনাল
##ফায
ছাতরী
বলব
মেলায
৪৬
কষট
##ডিপি
আরএ
পেটরলবো
জাক
রবি
খোকন
টিআর
বাডছে
গিযেছিল
##িরোধী
##িমের
সমঝোতা
ইঞজিনি
ডিডি
সটর
উদযো
দিনাজ
িদে
বিবিসি
##শকতি
অনশীল
মাশরাফ
দঢ
১০টি
৪৭
ঘরের
৭২
ধরতে
##পোরট
##ফোনে
এনড
উর
জযন
বদধির
কথায
সঙগী
আসথা
##চারের
খোনদকার
অনতরভকত
আসি
সংলাপে
জেল
ফেরত
ছো
হজ
আলাপ
ওপরে
##াডার
বাসিনদা
বারষিক
মরগে
সমরথক
শরতেই
টেলিভিশ
আসাদজজামান
মওদদ
পারফর
উজজ
জেনে
মতবিনি
ওবামা
সনধযার
দাযিতবে
৫২
ছবিটি
মেযের
অভিযকত
পরতিষঠিত
সমিতি
লঙ
পরশনে
নিজেই
োব
নদীতে
এজ
পেসার
োন
##৩০
অনসন
মেগা
##জনে
পরণযন
অভযনতরীণ
পরেকষাপ
চোর
##নিষঠ
পরযোজনে
সযার
##যালি
কাদ
উপহার
অম
টিকে
##ষের
করমকরতার
ইনসটিটিউট
ভী
ওঠার
সমদধ
সবজন
##চছেদ
নরসিং
সততবেও
##ানিতে
জানে
অধিদপতর
সেসব
##াতত
হযেছিলেন
পরতিশরতি
তরা
##শিযান
মৌল
সমপকত
মীর
জানেন
৫৪
এনামল
পরিসথিতিতে
পলে
ষষঠ
##চক
ভাং
নিচছে
কযামের
গযাল
উৎসবে
থেকেও
উদবেগ
সংবাদপতর
রাসেল
ডান
##াজয
পালটা
ইনদ
বারস
পারথ
হর
১০টার
সংকষ
সারাদেশে
পরবের
গন
##জো
জনতা
শরেণির
সালাউদদিন
##উদদীন
মাদক
পাঠানোর
##গঞজে
আছি
ছক
নায
ভযাবহ
##হাদ
শিগগিরই
অজঞ
ভকত
অঙগী
##কতার
বিশবে
সংশোধনী
জঞান
##ধীন
তোল
সরঞজিত
##াবদধ
বিগত
##দেহ
##বাড
কারো
কাটিযে
কষোভ
যাবের
ঘা
৫১
গরপের
##সিম
রেহ
৬৪
##ওযযার
অনপসথ
অলপ
জমির
সঙক
সংর
##ংলা
ভাষার
##সপ
##যেত
##তিযে
কলেজে
মসলমান
মিজানর
নারীদের
২০২
সভাপতিমণড
সেঞচ
অধযকষ
১২টার
অসাধারণ
পরধানমনতরীকে
##ণডের
ইচছা
ইউএন
বিকা
শোভ
উততরা
##বিন
সমাপ
দিযেই
বাসে
ছটি
মৌলিক
জাদ
##খাল
মিযান
পরোনো
অরথবছরের
##রিদর
সমপাদ
ইফতার
##হল
মহাসডকে
সিরিজে
##বস
২০১৫
টেনে
##বাদের
বরে
করাই
##বছরে
ছিলাম
যকতরাষটরে
মোকাবে
নাটয
পতরিকা
ওদের
##কাণডে
অধিবেশন
হসতানতর
সপোর
##এমইএ
আগেও
যেহেত
ধরেই
ভোগ
##ওর
লট
শফি
সিঙগা
আইনি
জাতীযতাব
আশাবাদ
সকোর
##ডস
ঐতিহয
তালক
চিকিৎসাধীন
রাজসব
পডিযে
পরাকতিক
রওনা
বইযের
বগডা
বাম
রিযাল
সযাম
উললাহ
নাযক
অপহ
করিস
তোফাযেল
রকষায
মোটরস
মিযানমার
##িকান
এসকে
ঐকযবদধ
করমচারী
দাডিযেছে
গেম
রশিদ
মঠো
এলাকাব
মধযরাতের
হানিফ
ককষে
৫৭
গরি
কোনও
##দীপ
অভিননদন
মোহামে
দেখেন
করিকেটে
জিনি
সাকষয
পষঠ
ফরম
দারিদরয
মেটর
কোরটের
তহবিল
সতরা
##ঞজন
##োনন
মাটিতে
কারাদ
মযানেজ
যগ
বিযের
১০টায
নিমন
জজ
তণ
ভলে
##শাসন
অঞচলে
হয৷
ইসলামীর
অদ
হচছিল
সালাহ
সংকষিপত
জযী
দফায
জনি
পরিশোধ
কবীর
##ডন
##পরযা
আবেদনের
ইশ
অবসথানে
বাণিজযিক
বাচচ
কলপ
দিযেছি
পরচল
উপন
বিএনপিকে
অংশগরহ
রকষার
কবর
আগনে
##তিকরম
অরথবছরে
কারিগরি
সেতর
##ষধ
নাজমল
তাডা
৫৮
তদনতে
তালকদার
কলা
সষটির
৫৬
জোরদার
মোকাব
মনতরিপরিষদ
##িদের
অঞচল
রচনা
মোহামেড
##সতাফিজ
নাসিম
বহন
কতটা
চিঠ
রকষণ
উপনযাস
##টেলে
ইনডিজ
এএল
##কেল
একাদ
বাজারের
যাতরীবাহী
ডিএসইতে
জাপান
##ঙগার
ওযারলড
সলত
অপারে
##হতযা
বিরোধিতা
হোসাইন
ইনটারনযাশনাল
বারসেলো
অযাপল
সামান
সমমিল
সমরথিত
নাইন
##নীতিক
অনষ
মোদি
সমারটফোন
তফ
নোযা
সংরকষণ
মহাসডকের
##কতিক
ইমাম
##টাকে
দাস
নিনদা
##সঙগে
##ভেন
নাগ
বরগ
পরসতাবিত
##াতন
ভগ
শতর
গলশান
লঞচ
##ফিন
##ারস
রাজধানীতে
লিমিটেড
##তবের
আখতার
কাউনসিলর
মেগাওযা
##পেন
উততে
অপরাধের
এইচএ
পরতিযোগিতায
শিরোপা
ককট
##িযাস
শিব
োম
কাযে
লিগে
উললেখযোগয
মধযা
উপসথাপ
আবারো
খেযে
পরতিবেদক
##টাও
অভিষ
বরাজিল
হাইকোরট
##াবের
গাডির
বী
অপহরণ
পরিবহ
অবিল
উদাহ
কমিললা
মিনিটের
পারবতয
সাপ
##টাতে
পরতিবছর
যানবাহন
অবাধ
দজনের
সপত
মজমদার
চলচচিতরে
সাকষাৎ
অসং
পশচিমা
গভর
##রী
গণমাধযম
অবিলমবে
পাখি
যকতরাজযের
মিড
##বাসীর
##দাযিক
িতিন
ওবায
টিম
লাগবে
করবো
##ীবী
##েট
অনেকটা
মতবিনিময
শিকষারথীর
সাইফল
কায
ককষ
##টনের
##ফাইন
অধিক
হারিযেছে
পণযের
অভিযোগের
সভাপতিমণডলীর
সিই
আকবর
কাগজ
মযনাত
##াডায
##বিধানিক
জনমদিন
উনমকত
তামিম
##যাযন
অগনি
টেলিফিল
পদধতিতে
বলেছি
বিজেপি
ঘম
##শিং
ছাপ
##াযনের
কটনীতিক
##ভোকেট
##বিশবাস
বসবাস
আহতদের
শহীদল
তৌ
কযামপাসে
শিবিরের
সবেচছাসে
ফাউনড
সঞচ
পরিবেশন
##পাট
রেখেছেন
ফাইনাল
মযমনসিংহ
##াসি
সেজনয
##রো
কষক
দেযনি
তখনই
পারছে
অসথির
সমারক
##বলিত
ইলেক
পরবণ
হোটেলে
অি
পরবদধি
কষমা
অরথনীতির
##িকো
##করে
বাডতি
##ষকার
কাহিনি
সমাপনী
ডবে
জাহিদ
সেমিফাইন
সভার
১৯৯৬
সমভাবয
##নাট
নও
ফেলা
৩০০
##সংগ
জাল
##দশ
কারড
ইসলামিক
উপসথিতি
টাকায
##ছিলো
১১টা
##লস
যকতরাজয
##তঃ
ইতিহাসে
োক
অবল
মোললা
##িদল
বহনিরবাচ
পনঃ
দরিদর
##িতিতে
##গণ
পরতিদবনদবিত
দব
##মানের
করতেই
অনসারে
অভিনযের
সেটাই
##াময
আবহা
সপিনার
খনের
নারাযণগঞজের
নেট
চেত
ইউনিট
হকের
##যেছ
অভিনীত
দেখেছি
দরশকদের
বিটিভির
তিস
বযানড
মোজ
শাহজাহান
একিট
##ছান
##ডো
১১টায
রেডিও
বরাত
ইযর
শীত
শাহর
শারীর
সতরাং
তারাই
অনসরণ
উপপরি
##তাবিরোধী
কখনোই
উদাহরণ
ইসি
দণড
বেছে
দবারা
আটটি
সিল
##তাকে
অজ
এবি
ঢক
##ভায
ফজ
##করণের
বযসে
কমিযে
পরতীক
পডছে
নই
##যারটার
রাজা
##মিযার
গোলের
তাৎকষণ
অভিযোগপতর
তযাগ
পরযায
বাবল
অষট
পতরিক
হযর
##টিই
পারিবার
কাব
শরি
ছাডাই
মেযেদের
সখ
পদক
রবেল
সবচছ
দিলেও
ওষধ
তি
##রাই
জাপানের
৬১
বাগের
অঙগীকার
সামানয
##ললাহ
##চীন
মিলি
##কালের
পরতিরকষ
ফেরদৌ
করতবয
##াইদ
আগরহী
শী
বজায
কামনা
বহনিরবাচনি
আবাসিক
পরকলপে
অযাডভোকেট
বরাহ
##শিকষা
বিভর
মাঠের
সথাপনের
ইসয
শোভাযা
সামযিক
করমসংসথান
বিমানবনদর
সলতান
মারফ
সলতানা
##তলা
##ফেন
##িরো
##গরণ
বাতিলের
মযনাতদন
সটেশন
যবক
মতযদ
শরেণীর
তালে
আকা
দাখিল
এমএ
হাকিম
##এসবি
৬৭
বাফ
কোযারটার
হোটেল
##াপি
রকষাকারী
মৌসমে
সিসটে
৫৩
বিদযতের
নিলে
দশকে
##িসিআই
বিদরোহ
বিনো
ওযেবসাইট
সংগীতানষঠান
সমযই
আজম
##কমিশ
গণমাধযমে
পডাশো
নাটকের
বাডবে
মনা
হদা
টরাকের
সারব
পেযেছি
শনতে
##আপ
সভাপতিতব
মাসটার
খেলবে
টরাসট
দান
##পরেম
চলেছে
পালনের
ওযাশিং
সনির
গিযেছিলেন
নিউই
##যানা
শরীফ
ইউনিভারসিটি
রোনাল
বিশলেষণ
ওবাযদল
হচছেন
সমাজে
জিজঞাসাবাদ
পরবা
আমান
সথিতিশীল
নিবনধন
পরবনধ
##এনএ
বেঞচ
ইলিযাস
সমমিলিত
আদিব
পরযবেকষ
রাযে
অযাম
আে
##টিও
ওঠা
জহির
সাতটি
সংঘাত
অতিথির
সের
শিকষাব
##মোহন
রশী
পরিমিযার
সমপরকের
করিকেটের
আপততি
হাবি
করছিলেন
পরতযাহারের
উততোল
কিনে
ধারায
##ছাতর
ওরফে
মেলার
টরাইবযনাল
এএ
বিলি
শাহবা
##ভাস
নিরবাচনকালীন
অনলাই
##যানস
##রাও
যেত
নিউইযর
##ামলক
লডাইযে
##জাদ
##িকর
এইচএসসি
পরতিযোগিতার
পরামা
খেলোযাডদের
যাচাই
মারাতমক
ইউনাই
##দারি
মালযেশিযা
মদর
ভমিকায
##ডটকম
##ভিড
মহল
একসময
বলের
##দম
জনযও
কংগরেস
মরযাদা
৬২
চালানোর
নিল
##েকা
##শব
শও
কাঠামো
সাহেব
ভবিষযৎ
পেটরলবোমা
এএইচ
অবসথিত
বেলন৴
এশিযার
ছডে
মিটার
পরতযাখযান
##ছা
অপেকষায
##িষট
গেলেন
রণ
পরতিবেশী
সিনেমাটির
ভোরে
সফট
যদধাপরাধের
অনসনধান
তাও
##দদিন
বিনিমযে
নিযোগের
সেঞচরি
এএন
০০০
বযবসাযীদের
কাই
##যাজ
বিদযালযে
শকত
সাজে
গণভবনে
পানিতে
আতমীয
রশীদ
বৌ
সমভবত
ভাংচর
পলাতক
বেড
পযান
১০টা
২০০৫
হেফাজতে
##ওযারড
অনমোদ
যানজ
বিনোদন
অবকাঠামো
ফিলম
##করমে
রাজয
শরেষঠ
গরনথ
##াপতির
হাউজ
টেসটের
চারজন
সমাবেশের
ফেই
##ালটি
মিযার
গোলরকষ
##লেকস
সবপ
ওযেবসাইটে
জাতীযতাবাদী
পারিবারিক
মোডে
শাহবাগ
গগল
রস
শিক
বেসাম
নিউজিলযানড
টেলিফিলম
আলোচিত
একর
পরিচালনায
পরাঙগ
কাছাকা
চক
##উনি
সিনেমাতে
বিরাট
টিপ
##পকষের
শতক
ফটবলার
ভীষণ
৫৯
ছেলের
ভযে
শিখ
মাহফ
পাননি
পরতিপকষের
রনি
##িলে
##ওযাত
##যদধে
##মবা
মহাজোট
কলম
ইতিহাসের
সিপি
##দেশিক
করেও
##মলয
শওকত
একদল
এরকম
জানানোর
একেবারে
ঘাটতি
##চিন
পরিবহনের
কাছাকাছি
##বিদধ
দাডায
সলোগান
মঈ
বৈদেশিক
##জিৎ
##াগত
কলিন
##সীমা
সনাম
রাশেদ
নেতাকে
পরকরিযায
তেজ
##টারে
বিশববযা
আববাস
পলিশকে
শিশর
বষটির
৬৬
উততীরণ
চলাকালে
পরমাণিত
কেরে
জেম
##ঘরে
বিশিষট
গেই
৮৫
ফাইল
অনিশ
চাম
পলা
বযবধান
রেস
##মোচন
বিজিএমইএ
ঝল
##বিহীন
##ালেও
অভিহিত
##শরে
সাধারণত
চাদাব
নগরের
সচিবালযে
পারক
দাবির
পরিচালনার
২০০৪
গলশানের
নীর
োজ
জানার
##বরতিত
কামর
লাইসেন
পরজনমের
##াকি
##ভাগয
##িসংযোগ
এখনই
ধানমন
আরিফ
দরদানত
মেগাওযাট
সনিরদিষট
##বসত
গবেষক
অবসরপরাপত
অষটম
হারায
সনদরব
অগনিসংযোগ
##টেক
১২টা
নিহতদের
থাম
##মির
পাযে
টাইমস
বহাল
হোসেনকে
একষ
কমিটিতে
ডেভিড
##াতেই
ককটেল
পিক
বাজেটে
পরতিষঠানটি
বরিফ
বাসতবাযনে
হসতকষেপ
বেসামরিক
পরিসং
শযাম
সংবরধ
##ীবন
নিরযাতনের
##সথার
ঘোষিত
সহযোগিতার
পরচর
##িসতান
##মবাই
নাটোর
পারছেন
উলটো
সাউ
##হারা
হাবিবর
অনলাইন
দশকের
শনানির
পযেনটে
লনডন
সিলেটের
পরচলিত
আনষঠানিকভাবে
দতাব
সাজানো
বকততা
পরিসংখযান
সাঈদ
বাসটি
নৈতিক
##নট
##মনির
##ছডি
পরযবেকষণ
তফসিল
অভিজ
##াজনক
##ামমেল
##বিজঞান
অফিসার
##াধযায
অপসারণ
##কষিত
অধযা
ফিলিসত
##নামলক
ওযাল
ঢাক
গবেষণ
পাযনি
িক
পরশাসনিক
কারাদণড
বযকতিরা
ডেপটি
বিনিযোগের
ছড
পরীকষারথী
ইচছে
ডাই
হেযেছ৷
বলল
আযোজনের
##হনের
##আউট
ওযারড
ইউরো
ইনডিযা
##বিনদ
চাষ
পরেকষাপটে
##িরভত
নরেনদর
পরযকতির
অংশের
যৌন
মৎস
করমশাল
রহিম
এনটিভি
যোগযতা
শাহরখ
##িড
সীম
মক
##ীকষা
##েনেড
বাইরের
তারপরও
ইউনস
##ধন
অনির
একষেতরে
##ঙগি
শকতির
আরাফ
হাসি
রোমান
শরিক
বৈষ
শারীরিক
জনসভা
##বিতর
দাডা
##ডাক
##েরও
মতযতে
##িলার
করেছিলাম
রাননা
মাহমদল
আশপাশের
তোলেন
পরোগ
গলিতে
নাচ
পরণাঙগ
কপিযে
তরাণ
পতরের
সচনা
##ওন
নেতি
করমরত
ধরার
অংশে
ফরানস
ভাইযের
তোর
মমবাই
বযবসথার
সহিংসতার
নেটওযার
শানত
দরবয
শিলপের
ভাবনা
মানবিক
যাচছিল
বাঘ
কলাবের
বযকতিকে
মেসি
দিনবযাপী
অসংখয
##যত
মনোভাব
ভাঙচর
কমপলেক
কণঠে
বরাহমণ
৬৩
সিক
##কারস
এতো
সমর
পাচছেন
##যস
নেতিবাচক
লকষমী
সফটওযযার
বরণনা
##ঘয
টই
##কারীর
সবৈ
ইংরেজ
এখান
গলা
দেশগলো
উদযান
সবরাষটরমনতরী
আবাহ
পলটনে
##াডির
বনযা
বিবতি
মোতাযেন
উজজবল
কবে
গাযে
সোহরা
মঞচের
একাততরের
উদযাপন
##জাল
ভরতির
বিদযমান
জিতেছে
কলার
আরোপ
বাদী
দিবসের
সষট
যোগাযোগের
##যেদ
##যানডে
সিদধানতের
ঘটনাসথল
##নাই
##ডিযার
ইনড
মানববনধন
ঊরধবতন
তণমল
আবাহনী
আরা
##মেন
কমিউন
সবিধ
ফরান
সাতকষ
##বনদরে
##াকের
হরতালে
সোহরাওযার
##ওযাজ
চিতরনাট
ইলেকটর
একতর
মাথ
দবী
াে
মলযাযন
নাকচ
ইসরাযে
চমৎকার
সোনা
রিকশা
##ানিব
##যাড
নাটকে
উপে
গণিত
##োষঠ
বরজয
হলের
পরভা
##ামীর
লাইফ
##াবল
সামরথ
##নদের
##থের
তারই
মনতরিসভা
রাজাকার
চোট
সারক
দাযে
ইনডিজের
বকে
গণজা
সমমাননা
মেযাদে
বরাবর
কাজটি
জাহাঙগীরনগর
ফেসবক
ইবরাহ
মমতা
৭৪
##যেড
##রেট
সেখানেই
সেকরে
উডিযে
সংশোধনের
সটরাই
সপোরটস
##যেনটিফোরডটকম
হাওযা
মাদরি
রাজনীতিবিদ
সিরিযায
৬৯
বিখযাত
##বাডিযা
গৌর
কাপর
##উনডার
অফিসে
মাশরাফি
৭৭
বিষযগলো
ধারার
ইরানের
তাদেরকে
যাচছি
হাইকোরটের
পরদ
গানটি
কযাচ
কেননা
নরসিংদী
নমবরে
দদক
তাগ
বনধের
আনসার
লক
সবস
অভিযানে
করনেল
নিচছেন
মনতরীর
##সকো
এগো
বিসিএস
সপতম
রীতি
হিন
হদয
বাপ
সবাদে
আনতরিক
আযার
##তামলক
##বণ
একমত
##দেশে
বরিশ
পরতিষঠাতা
কারখানায
বরিফিং
অবি
##বাডী
জালে
পরিবরতে
কনসার
চতবরে
জাকির
##সতাফিজর
মোজামমেল
পবিতর
##৫০
একদিনের
সিএন
##লিপি
মিতর
পতরিকায
মাধযম
ইরান
লনডনে
উদধ
পোড
পরামাণয
নত
মানবতাবিরোধী
সঙগীত
##পরেস
নিকষ
গরেনেড
তোমাদের
ছা
মাইকেল
গণপর
বঝে
পরাইভে
পারিনি
সিএসই
দতত
নগ
ান
উপাদ
এশিযান
মইন
##যোগে
নাশকতা
চাকর
শাহরিযার
অংশী
ছাডিযে
িনেয
পরযালোচনা
আপনাকে
রাসাযন
তথযপরয
কের৷
লাইসেনস
মৎসয
চালাতে
ঘনিষঠ
থে
বিলপ
এসেছি
সংগর
ভাতা
সবরণ
বৌদধ
ঘরণ
ছি
কিভাবে
##ফোনের
সংখযাল
##ীবাজার
নোবেল
রাজনীতিক
##সই
##পরচার
এমএসবি
সহাযতায
##ষিকী
তৎপরতা
কষেতর
পরতিদিনের
##পকষীয
আওযার
চেক
ধরমের
বৈশিষট
##কিট
দবনদ
নবী
##২০
পরনো
সাফলযের
এলাকাবাসী
দরজা
সাজা
পারফরমযান
##পরযাযে
##ওযের
সঙগেও
পেরিযে
দোযা
ফেনী
ভরা
৯৬
দেননি
ফাই
টিভ
তথযমনতরী
ফসল
মিন
চালাচছে
চারদলীয
মকতিযোদধ
অসহ
অরজনের
লেনদেনের
গাইবান
ঝিন
মেশ
রাব
কিছকষণ
১২টি
অজঞাত
সোহরাওযারদী
বাংলায
উপভোগ
সমপরচার
সতযতা
##পরাণ
ওএস
##কষেতরে
নিশচযই
ফেইসব
সায
শৈ
বদধিজ
কমপকষে
বরাজিলের
জনপরশাসন
আশাবাদী
##যারস
বেগ
সমরথকদের
জযাক
ছাতরদল
সতরের
বিপরীত
৬৮
এবারও
বিজঞাপন
পরেমের
গণমাধযমের
##চারণ
দগধ
##ওযাল
যবলীগের
ফেরদৌস
##গপত
পরবাহ
বাশার
##পততির
কলকা
বিমানবনদরে
ছিটমহ
##ছল
সাংবিধানিক
অরথের
চোখের
আতা
নেপ
##টরনি
সংবাদমাধয
ঠেকা
ওযাজে
পনরায
উপপরিদরশক
বণ
৭৮
##টাল
সরকারে
সীমানা
গলশানে
কমানডার
সংখযালঘ
সদয
গেযে
পযার
উইলিযা
জিনিস
##পনন
অভিব
মনমোহন
রাসাযনিক
##শবিক
সমপদের
নাটকটি
খতিযে
হদ
##াবাদের
##মাকে
পডলে
##ভাষ
সবেচছাসেবক
##গাজ
##িশন
##বাসে
নিযেছি
উদভি
নৌকা
শানতির
নিচ
সেলি
হিম
##বিস
##পরকাশ
##টেডের
মধযেও
চলার
হইপ
##যোগাযোগ
মহাসডক
সিরাজগঞজ
ঐতিহাসিক
লেখার
হাননান
মাইকরোসফ
পরতিনিধিদের
সঙগেই
সমাধানের
তাকিযে
আমদান
##াপের
ভাগয
বঞচিত
##জনা
##শাস
সবসময
পেটরোল
দার
##ভের
##সথাপ
রিযাজ
চাদপর
ডেমোক
জিন
উননীত
আরটিভি
আবহাওযা
বদর
আসল
দশক
##েপ
নিরবি
পরযটন
##েননি
অলিম
সেকরেটারি
ইসলামকে
িশ
পরিন
অবন
ভেসে
অযাটরনি
ওমর
হযেছি
বইম
জিততে
ঠিকানা
##চযাল
##তথ
পরজঞ
রাজীব
পরতিষঠানটির
থেমে
দেওযায
জানিযেছিলেন
পদারথ
তারাও
এসেছিলেন
সেনানিব
লাগিযে
পযসা
আনিসল
হরি
৮২
পাচজন
দকষতা
৮৪
##ীণ
##িযায
কোনোভাবেই
বরাদার
##বযবসথা
সতযিই
এছাডাও
মঈন
##িকেট
মতিন
পরাণী
##বদল
##ারী
বিআই
##দাতা
সাদেক
অচল
রহসয
আসেনি
হারন
##হীত
শিকষকরা
শবাস
সংযকত
সবাকষরিত
##যাযিত
ফলাফ
সিড
ইউকর
হাতি
গাছের
পশচিমবঙগের
খজ
বলছি
তাহের
৭৬
লঙঘন
৮৬
##টেও
এরশাদের
##মায
১৫০
রঙের
জিমবাবযে
একের
নেতরীর
হযেছিলো
সমালোচনার
পরিত
সথল
##পরতিষঠান
বেশিরভাগ
মিউ
জাহান
বিডিআর
মরত
##সপর
##তিনি
কাচ
চেযেও
মৌসম
আরাফাত
ইবরাহিম
শক
##ডেট
##েকটর
দিনাজপর
অনশীলন
শফিউল
গণজাগরণ
বদলি
হলেই
মতিঝ
মেহের
মনোনীত
ডেভেল
৭৩
##দাযের
##িসা
মকতিযদধে
ভিড
পরতিকরিযায
মযনাতদনতের
##টিজ
আশঙক
চেযেছেন
খেতে
৯৯
চেমবার
পডেছেন
##গতির
রোজ
কলকাতা
শিম
##িযান
দলগলো
রাখবে
গোলরকষক
ওপেন
দষণ
সবয
সটা
বিধি
ফযাশন
চিঠিতে
পরতিরকষা
সহাযক
##লিং
##ঞচলের
##যোজিত
উপদেষটার
আপাতত
টরেনের
সবই
ফলাই
সকযার
আফগানিসত
অযানডর
##ফট
ইসলামি
ছাতরদের
পরারথীদের
১৯৭৫
কাজেই
##জিং
একইসঙগে
খাওযা
ফকির
১৯৩
বিলিযন
ঠেকাতে
চেল
শাকিব
এএফপি
মতযদণড
##াসত
গভরনর
ডেমোকরে
আবি
ঠেক
পরদায
বাজেটের
ইউপি
২০০৩
ইউনাইটেড
সজ
সিআই
টাঙগাইল
ভেন
ডটকমের
##জিও
ঠাকর
##মাতে
এসএ
শরমিকের
আমিনল
মখযমনতরী
জানাই
আইসি
জনগোষঠ
সাকষাৎকারে
কলযা
গবেষ
##ংকর
অবাক
অবসথানের
##সবার
##ঘাতে
##নীতিতে
চাপে
গানধ
বানিযে
নাগরিকদের
##যাংশ
আমীর
নিউজিলযানডের
হবি
##িমা
ফিরোজ
ইংলিশ
আমেরিকার
চিতরনাটয
পরকাশনা
ভাষয
##কলযাণ
ঝড
পাও
পাচার
নিযেছিলেন
ভাবতে
নাশকতার
পরবল
কষতিপরণ
সামপরদাযিক
মেনন
বংশ
াব
পরিকলপনার
কযানসার
শেরে
নিরদেশে
##ধবসত
পতরিকার
গোটা
রেলওযে
অপরিবরতিত
ঘষ
জবান
শেষের
মালিকদের
শারমিন
বৈষময
৮১
##লযানডের
সমপরদাযের
দাও
আদেশে
##কিল
বিসিবি
অটোরিকশা
##কমিশনার
অনলাইনে
পরাইভেট
নৈ
ফলের
গরামীণফোন
পরতিবনধী
যাক
এডাতে
খাযরল
সটি
করমচারীদের
আতঙক
##নাজ
##াহা
সেবার
হননি
পরজ
সাইফ
আমেরিকা
৮৭
যদধের
##িতভাবে
ভোটে
জিজঞাসা
করমকাণডের
##ভেজ
##াইলের
##গরী
বৈশবিক
##ডবলিউ
কাফ
ফেলতে
শিরোনাম
কযাপ
সরয
পাকিসতানে
অভিষেক
উদযোগের
টিআই
তালা
ইচছ
##মাস
##াকস
এমনি
বাসার
ফেবরযার
পরচণড
ঋণের
অরথাযন
##ষযক
পরতিনিধিরা
ইনসটিটিউটের
কলকাতার
কই
শামস
পারথকয
অকষ
উপযকত
আগামীতে
লকষযমাতরা
গাজীপরের
দলই
দেশজডে
ঘটছে
অযাসোসিযেশন
##ঞচি
##সমমত
##ধের
সাহা
সমমানের
সনতানের
অংশীদার
হিল
এডি
পরতিফল
ঘোষ
##তক
আলি
তোমরা
সংরকষিত
সনদরবনের
ওযাজেদ
কডি
তোলে
সমনব
##যনির
##মমদ
পরাযই
মতিউর
রেজাউল
##খালীর
নেদার
যৌথভাবে
ঝিনাইদ
পরথমার
পেশাজ
বাঙালির
নেতাকরমীদের
পাওযায
মাহববর
পোর
জরিপ
বিতরকিত
নতয
##ানার
##িকযাল
জানাচছি
পৌছান
বিসফোরণ
আধা
পষ
##আন
##ামাল
শবদের
জনে
##লিশ
এসি
ঘটনাটি
ফখর
কাউনসিলের
সংবরধনা
শলক
বিএস
ওবাম
##সনে
বারন
পরযাপত
##যেনস
##বাহিনীর
ধসে
োপ
নিরব
লিটন
বিপদ
সামরথয
পারছি
ইযার
বলগার
গরিন
ডযান
লৎ
নিরমাণে
##শিপ
টরাস
কখনও
খালি
থিযে
৮৩
##তপর
উততরে
গলপের
পথিবী
বযানার
##ংকার
টিক
ফরে
কেনার
সোবহ
একাডেমি
আখযাযিত
টিকি
৮৮
সিএস
জারমানির
ফেডারেশন
ফোনে
##েও
##পিং
পোসট
হাতের
ছটে
মিনারে
##াবাড
শরেণী
কবিতার
বিপরয
সিরাজল
আসিফ
ফটে
সনদরবন
উততোলন
দিত
##টিস
১৯১
##মসের
##তাবে
জেড
ফোরাম
অযাকশন
অলি
৭৯
কষবধ
দেখাতে
মযাজ
পিটার
কির
##াকরমে
##ভিন
##ণার
তথা
মযদ
মাটির
সাঙগ
আইপি
করয
কিম
রাজশাহীর
কথাই
সঙকট
সজীব
বাডে
তললা
দযা
##বিলে
হারের
##চারযের
হামল
মতিযা
পরজনম
মোললার
##িঝ
অবহ
সমাধানে
সারভিসের
একাততরে
অতযা
হোযা
করমকরতাকে
ছিন
বরজন
ইউনিটের
ডাকতার
কযামপাস
সমঝোতার
আইসিসি
পডাশোনা
যদধে
অবসান
আবে
করমীকে
বিচারে
নিযনতরক
সৌনদর
মঞজর
রেজিস
মোটরসাইকেল
কমপলেকসে
চিৎকার
জলিল
হিনদি
জেলে
##শনে
হেয
কযাল
৯৫
##শির
##এর
##রাধিকার
অনেকটাই
সৈয
অবরদধ
সোহাগ
ভাষণে
তালিকার
মাগ
##চিং
মজরি
একানত
ফিরতে
মযাচটি
ছটির
পরভতি
অগরাধিকার
কারযকরমের
জঙগিবাদ
শাহজালাল
সিডি
সেনগপত
আসামিদের
আরজেনটিনা
রিস
ডিফেন
৯১
##যী
দবিপকষীয
বিজেপির
এমডি
বিপলব
অসথাযী
ফটবলের
মেহে
গযাসের
নেদারলযানড
হারানো
লযা
হতাশা
##ভাগের
িল
##াযনে
##বারেই
মাযা
উপসথিতিতে
ফাকে
লই
দেখছেন
আইনজীবীরা
শিরিন
লমবা
বিরাজ
শনানিতে
##সিন
##াদর
সংখযক
##াহার
রেড
সংলগন
গরা
##বাজ
একশ
বিকরির
বারাক
পাবনা
পজিবাজারে
মালে
জনতার
সবগলো
দেশীয
পরবরতীতে
পরচেষটা
বিজিবি
অসমভব
আললাহর
ছিনতাই
##নিযার
আউ
বসার
মধযাহনের
##পকষে
বিনিযোগকারীদের
বযবসাযীরা
ইউএনও
জবানবনদ
কাস
জডো
সনতরাসীদের
##িবল
পরচারণা
পরকতি
##নদী
কেজি
বযবসথাপক
কংগরেসের
সাফ
সংঘরষের
##বাংলা
পাখ
টরলার
ঠিকই
এএনএম
##পট
বেই
##ষঠানিক
পেলেও
ডিপ
ধাককায
পটযা
জগন
##ভমি
দেশি
সংখযাগরি
##চযত
চরচা
অনিযম
পিসি
শাব
নিযোজিত
বিরতির
টেলিভিশনের
ফেলেছে
একপরযাযে
নাও
পারত
তারক
পরিদরশ
২০০২
কনযা
অরডার
খালেদ
আইনগত
পরবণতা
মিলিযন
সীমাবদধ
নাদ
শল
সতযিকার
ফানড
কদ
##ফন
##মেদ
মারচের
ফাসির
সংখযাগরিষঠ
আনে
ভাবে
শিকষকের
মলযে
##উনডে
বাকয
বযাটসমযানদের
করছিল
উততম
##দদীন
ফরিদপর
সংবিধানে
পরভাবশালী
##েনডল
শফিকল
উচছ
জডে
সথানীযরা
সযামসা
জেমস
পরাজিত
অসতিতব
২০০০
মরদেহ
ফেরি
অরথে
সাহস
অলিমপ
কচ
টস
গোলটি
হাছান
##ংকের
সেট
##ঞজের
পরাথমিকভাবে
মনোযোগ
সৌর
সহজেই
পরেসকলাবের
আকারে
##থন
মানের
কৌশ
বলযাক
##ধরনের
শিলপকলা
বসতর
মালিকানা
একেবারেই
ছককা
সৈযদা
পিত
##ততব
##াজাহান
##বিধ
মনীর
উপাদান
লকষণ
বযানারে
বৈশিষটয
ছাযা
দোকানে
ফরানসের
মোসতাফিজর
ফোরামের
নং
করলাম
##িযেল
হেড
আকার
##ততম
অনবাদ
অবযাহতি
গডার
১ম
উপেকষা
মাইল
৮৯
##ামপর
পরিচি
একাদশ
১৯২
পরিবেশের
কতিতব
##ীম
নাঈ
পালিত
কটনৈতিক
বিধবসত
##ভাষা
ঘরণিঝ
লাঠি
কেউই
বিসম
পাঠান
একইভাবে
পরিবারকে
বোলারদের
মণড
##শিত
মারধর
নযাপ
ফেলার
অনযের
##টারের
দিললি
অবলমব
সটোর
চীনা
জগননাথ
অতিকরম
তেলের
ভাবমর
পনরবাস
অযাপলের
দাত
পোল
সোবহান
##বাসীকে
বাধযতামলক
টরনামেনট
দত
মারকে
১১টি
ইভ
মধযপরা
সাহাযযে
##কাউন
উদদীপ
##ঞচলে
##াতি
এমসি
দাযিতবশীল
শাসক
নাগাদ
সেমিফাইনালে
##েষটায
শতকের
শতভাগ
লেগেছে
মাওল
শরণ
টরান
কযেকদিন
শতাংশের
পরতিষঠানকে
রমজান
ওযানডেতে
সাউথ
সঞজ
কেনা
বযরথতার
আকরাম
##ীযার
সাহিত
সীমিত
চরিতরের
পরযোজনা
বাগেরহাট
করতবযরত
খযা
পিস
##০টি
তরণদের
উনমোচন
মসজিদ
নাছ
শরো
শোধ
##একস
লাগছে
শাসতির
জনপরিযতা
জারমানি
নেতাকরমীরা
শোভাযাতরা
নীরব
পরোগরাম
##টিত
মেধাব
তাগিদ
বরিফিংযে
সাে
এমএম
পরতিদবনদবী
মমিন
##৪০
পললী
ডিসেমবরে
মোহামেডান
ফাডির
এনবি
রিপোর
ধাওযা
নোটিশ
বডি
রাতেই
কযামেরা
ওঠেন
ইউরোপের
##পরতিষঠ
পজি
উঠবে
তথযপরযকতি
আবেগ
নামিযে
শাখ
অতীতে
মনতরিসভায
কযাডার
জযনল
##মেযা
মাননা
##চেসটার
ভালোভাবে
বিধিম
সচি
##াযিত
একসপরেস
সটরাইকার
##রাতে
##বরণ
বযাংকিং
ইসম
রাঙ
পদোনন
বনধে
বিকাশ
জালাল
পকর
অভাবে
বিরত
শাহীন
যানজট
কমিউনিসট
বলবেন
জনসম
আইফোন
পরযোজক
একসচেঞজে
োকা
৯টা
সবতনতর
মযাগাজ
মনস
ঝকিপরণ
জামান
নজির
অরধশত
হলিউ
৫টি
##লিতে
নিপী
##াসক
অবস
##চিৎ
পরতযে
ছাডার
পেরেছে
কারাগার
মাদরাসার
ঠেলে
সশীল
##ভিল
পরকার
সমপততি
আসনন
দদকের
পাযের
শাজাহান
##াগলোর
শরেণি
সেমিনারে
৮টার
বিবরণ
দেরি
শাকিল
##বিসিসিআই
মাওলানা
চিল
অভিযানের
সেখানকার
টেল
##াজযের
সতরীর
##শায
##থিত
পলি
হেব
চযামপিযনস
হোযাইট
ওযারকারস
নিহতরা
রোধে
##ঙকের
নাফ
উপকল
বরধ
পরতিবেদনের
গোষঠী
মেজ
জিএনএ
পরতিষঠানগলোর
##গাছ
পৌরসভার
টেনডল
ায
একদিকে
চালিযেছে
দেখেছেন
##বাহিনী
গারমেনট
একতরফা
পরিচিতি
##যাতরা
বাডতে
মনোনযনপতর
এসেছিল
হাউস
নেযনি
৯৭
গলায
##সতায
কিনতে
অসকার
হারানোর
উদধারের
মগধ
##াসটরি
ভিক
##কন
##েকের
##দসহ
##কিউ
নাজিম
সথাপনা
চেতনা
##াইজ
ধরন
সাহারা
দাশ
নীতিমাল
পৌছানোর
সিসটেম
চাকরির
নথি
৯৮
##েছ
সপেনের
দবিতীযার
ভালোই
তদার
পাথর
তাছাডা
##দেব
কমিউনি
রিমান
বনদরের
নযনত
##যকর
##চারী
বহিষকার
থাইল
সবামীর
চলছিল
বযাংকে
পরসতাবে
কাপের
ফজলে
##শরেষঠ
নযনতম
##ছিলে
আদাযের
উইনড
রিপ
হমকির
সীমানতে
নেতর
অবদানের
##নদি
সঞচাল
তিনিই
বিডিনিউজট
মহমমদ
মযানচেসটার
তাৎকষণিকভাবে
পরাঙগণে
##পদের
শিলপীর
এনেছে
ডবলিউ
অনদান
অবমান
অভিম
ধাপে
পতন
##সথানে
##েকট
যোগাযোগমনতরী
অগনিকা
এমকে
বযরথতা
আফগানিসতান
রবার
সরবদলীয
মাইকরোবাস
জনসংখযা
আলা
লর
##াগার
৪০০
যমনা
##যারিং
কথিত
কাপড
সেমিনার
বাত
যাতরীদের
##বাজারে
সাঙগাকার
##বেত
যেটা
কারযত
আতমবিশবাস
নীত
সনধান
ভারতকে
মদরা
বাফফে
দেযাল
যাকে
আমেরিকান
জনিযর
##জেন
িনব
শরীরের
##ঙকর
মোদির
সারকিট
হাউ
বাণিজযমনতরী
সটেডিযাম
এভাবেই
পরাপত
##নেতা
অনচছেদ
সনতোষ
পরিবেশে
লিমিটেডের
এএআর
##বই
##ছেল
টেলিফোন
এফবিসিসিআই
ঘটিযে
ভঙগ
##মযের
দরভাগয
পরেসকলাবে
বেকার
ফরহাদ
যাচছিলেন
গলিটজকে
অংশগরহণে
মনাফা
টারমিন
গডা
বটে
হরাস
৯৩
উপযোগী
তােদর
মযানেজার
এলো
একজনের
##িযেছেন
##বিগন
বিশববযাপী
পরাধান
দজনকে
জঙগিদের
সাববির
রওশন
দাডাতে
নড
৯টার
##জরি
##সথানের
বিদযৎকেনদর
সিকিউ
যৌকতিক
জোরালো
মসজিদে
গণশিকষা
পালটে
লালন
জবাবদি
ঈশবর
গী
ডেই
ধনী
মিনার
রোকে
অপারেটর
বিডিনিউজটযেনটিফোরডটকম
দটির
##ওযেল
##হিক
পরোযানা
সাইট
জাসদ
##লয
পরকাশযে
##আরসি
অবরোধে
অসহায
পিকে
##িনিউ
উদবিগন
হতযাকাণডে
##পাশে
ইনডাসটরি
এখ
নৈর
##ালার
##াইলে
ধরণের
তলেছে
এনডি
চকতিতে
ছোটট
অনিয
গরিব
নগদ
##চাপ
বাচাতে
টরেড
রোনালদো
না৷
##টরিক
শাহাদ
নিকষেপ
ডাল
আসরে
সহজে
মহাসম
ওযাই
পরষদের
বৈধতা
বিলপত
সিকিউরি
নাসের
সমপরসারণ
আযোজক
গবেষণার
সমনবিত
বরষের
অতীত
জোন
##ঠনে
মেলে
সংসকারের
বিপরযয
অবলমবনে
##চাত
##বরের
অযাকাউন
##াজির
##াতায
উদভাব
কথার
তানভীর
গরাহক
সবপনের
উচিৎ
##ভবন
তলনা
খেলেছে
সিলেটে
১২০
শতকরা
চলাচ
##তলী
##াবিষযক
মোকাবেলায
তেজগাও
অবৈধভাবে
মিডফিল
আঙ
দপতরে
বলেননি
পারসপর
পারলামেনট
নাযিকা
কডিগরাম
পরীতি
অযাট
সংশয
যথাকরমে
##বোরড
ােম
নেব
##চিতরয
কতজঞ
মৌলভ
পারসপরিক
##ঝি
চেযেছিলেন
যনতরপা
অনিশচয
৯২
আরসেন
বযাহত
##োনেশ
অরধেক
ওযাশিংটন
মকতিযোদধাদের
কোরটে
আদেশের
খোল
গলো
চেন
কষটিযা
##সংখযক
বাহিনীকে
তললাশি
##ঘরের
সংসার
##ারথী
বিদরোহী
সিঙগাপর
আদিবাসী
##বৈ
আলমের
মিউচযাল
##ডিতে
ভারসাম
পাঠায
হাসানল
সহাযতার
গারড
##৪৫
##ারড
##সেস
চাপাইন
ইনদোনেশ
পরতার
নিযকত
হালকা
পরাধানয
বিহার
মোযা
আজও
উচচবিদযাল
ডিফেনডার
আনন
##যাতর
বলক
কারবন
লিবি
উপাচারযের
সংসকতির
অভিভাবক
২য
##কণ
##যেজ
বেদ
শনাকত
সংশোধিত
কলো
##ানায
ভারী
সনতরাসীরা
মৌলভীবাজার
মফ
উলটে
টেলিযোগাযোগ
##চালিত
রপানতর
নাইজের
আজিজল
পরতিদবনদবিতা
ডেভেলপ
আগাম
বেঙগল
রিপন
সদরের
অভযতথ
উদযোকতা
সাইকেল
##কাজ
সমতা
##ানীতি
আলতা
চালর
চালান
পরকরিযার
পরারথীর
অনযানযের
সপরশ
বগডার
নজরলের
ডাকে
##বিধা
রাজযের
থাকতেন
মনসর
কষেতরেও
অবনতি
দপতরের
পারমাণ
লাগাতে
লোকের
##মোর
করিনি
মেকস
বিরতি
আরোহী
##োজাহ
খারিজ
নোযাখালী
ফিন
সহকরমী
নেততবের
ফেডারেশনের
ভিল
##চছিলেন
পরবাস
পরসিকিউ
জরজ
উৎসাহিত
ওবামার
চাপাইনবাব
##যেম
##যানের
হিসেবেই
ডিসেমবরের
দরশকের
বালিকা
টের
সোসাই
উততেজনা
কোরিযার
অপরাধে
বীরশরেষঠ
আচর
##রপ
হাসানের
##বেদনা
রিটার
অযাসোসিযেশনের
বকষ
##াবয
##সথলে
মিডফিলডার
##ডিস
মেইল
##ভেদ
খলনার
অনষদের
বিবি
##সতত
অযালবামের
জিমবাবযের
তিসতা
##োজা
লেখো
রিপোরট
উঠছে
পরদরশিত
টরাইবযনালের
ঢো
##িকপ
পাতা
মাহববল
ঢকতে
ইলেকটরনিক
##েনদরে
খোকা
গলিবিদধ
মহাসমাবে
##চী
##৫৫
করিযা
দিনটি
নামতে
ভালোবাসার
সনতানদের
সনতষট
পেনালটি
বিটি
##াবা
উৎপাদনের
পেশাদার
ডিএসইর
ঘোর
কষযকষ
নযটি
পদতযাগের
কস
ফযস
দেখলাম
লাগাতার
জানায৴
অলআউট
গবেষণায
ধো
৩টি
##ীহ
সভাপতির
কোরিযা
একাডেমির
কমানোর
দের
##মবারের
অবশেষে
নামাজ
ধরষণ
মাঝামা
সমিথ
এডিযে
অনভব
##দাযে
শামসর
পরভাষক
অনভতি
পরবীণ
তথযের
নেটওযারক
শরটা
##গোষঠ
মোটেও
লিখতে
নিঃস
পরতিশ
হেলিকপ
আবাসন
তলেছেন
মোযাজজ
খণড
##কেত
রাউনড
আইনমনতরী
ছেলেমে
জানযারিতে
আহমমেদ
আসর
কেডে
মযনা
হযরানি
উসক
কব
##ানতরের
##বাগত
শিকদার
নেপাল
রহমত
পরষের
করিকেটারদের
মশফিকর
কাশেম
পারমাণবিক
কাত
জনযে
নামার
সামগরিক
নিকট
পরতযকষদরশী
কিস
সটিভ
াস
সটেট
##দষটি
ধরিযে
পোসটার
ইনিংসের
লাইভ
নোমান
আরজেনটিনার
##ঞছ
করেত
বনধতব
##সরগ
একজনকে
মিশর
ভাবমরতি
ফটক
##খানি
##াইযা
বললে
আবততি
তৈরিতে
##ফামার
তােক
জমে
নিষঠ
##যারের
কোষ
একেক
সহিংসতায
হিউ
গোপালগঞজ
##যাযের
বনধদের
দৈর
শিরোনামে
পরদানের
আমরাও
চাইছে
##হাটের
কযার
সৎ
পরাপ
পরগতি
সমবেদনা
নিরসনে
বলেটিন
ওএসডি
যগে
ৌ
##টিআই
লেখাপ
পরতিহত
কারাব
কারযনির
সিইসি
ডেন
যো
রচিত
৬০০
নীলফামার
##াজায
ঘরোযা
থরিডি
উপমহ
দেশটিতে
অতীতের
দরপতর
ফিউ
চমক
পিতা
বউ
হিট
িদ
বিসময
সেভাবে
বনাম
সমরথকরা
পরসতাবের
কনসারট
তীর
এনজিও
আসবেন
মারচে
টরেনে
খানিক
কারযনিরবাহী
সিএনজি
পযারিস
##াসা
অনষঠেয
সাজেদা
##ডিত
১২টায
অনেকগলো
১৫টি
বাদল
##াগডা
হতেই
মাধযমেই
উতথাপন
টেলিভিশনে
গহীত
কষতিকর
বনদক
সমরণে
পাইল
৮টা
##সদের
কোহ
পরতিনিধিতব
জনপরতিনি
পরদরশনীর
রল
আরবি
সোজা
কাছেই
নেইমার
ডিসি
মারকেট
মোযাজজেম
বযাল
##জজা
##াযান
করণীয
জলা
শরীরে
করমকাণডে
পলিশি
জিজঞেস
কলযাণে
এজে
##পাঠ
মলযসফ
ভোটারদের
মযাজিসট
##টপ
##ভাজন
দরভোগ
সীমা
পেছনের
##াযকের
আমল
সাখা
অভিনন
সিংযের
পরিতযকত
##ভিযে
##বরতন
সিদধ
নামা
উলল
শিরীন
মিযানমারের
ছিটমহল
উইনডোজ
##রোর
দেশটি
পরতিষঠানগলো
পথিবীতে
তালিকাভকত
বিশলেষ
সচেতনতা
বারসেলোনা
উজ
ধাপ
##ীকরণ
লাগানো
সংকটের
##নকে
সরবনি
ছাডতে
##টেইনার
রবিউল
##১০
ফৌ
হলদ
২টি
##ভিনিউ
একদম
##যারা
##বরষ
লিড
পরিণতি
##জযী
অমিত
নিযেছিল
বযকতিতব
##ধারী
টেলিফোনে
অলরা
পাঠাতে
ফাসি
খসর
দিচছি
খেলাধ
নিজেও
ইসরাযেল
আলতাফ
কাক
বেক
চালকের
বারের
##বযবহার
টরনামেনটের
মনদির
বিআর
দেহ
দিনই
সরবস
##জীবী
কনটেইনার
ইফতে
সবাগতিকদের
বলিউডের
এসএনএল
সরদার
পরাণহ
কলকাতায
উদদীন
বকস
টেকনো
চকরবরতী
অমান
##দিব
##টিযেছে
পরিযা
শিলপীদের
পলাশ
আননদের
বিকরয
বাসতবতা
কোরআন
কনফার
দরবতত
ইযাসম
টিকিট
রেজিসটর
বরযাক
ঘটেনি
ছাতরছাতর
করতক
বসতে
কাইযম
োর
নিবেদন
অননত
হাওল
আবেদনে
অনপসথিত
সালাহউদদিন
নদ
িবি
বিভকত
পলাজা
অসবা
আরেফিন
পোশাকশিলপ
অমিতা
কমিউনিটি
ভেঙগে
আনদোলনরত
বরিশালের
বট
বিকরে
টাইম
সেনটারে
ডো
##াইযের
পরতগ
ছেলেকে
ফিলিপ
জরিপে
দঃখজনক
ইপি
##িৎ
পরজা
অননয
২০টি
সংবাদপতরে
ধারাবাহিকতা
শাসনের
পরীকষারথীর
উডোজাহ
বদধিজীবী
ফতল
থাকি
বহততম
টরানস
##এমএস
তখনকার
ভৌ
দামে
আতমসম
##হরাব
আমিও
হাজারের
পেছন
একাডেমীর
##ভান
পারভেজ
##যোপ
হাইওযে
ওদিকে
লেন
##াপাডা
##োড
জনা
##বরত
নিরবাচনকে
তালেবান
সাতকষীরা
পলটন
##শনয
পেযেছিলেন
মনিরল
মোকাবিলা
ফিট
##ভারড
যানবাহ
বিমানের
বযবসথায
৪টি
আজকে
লেখালে
কমিশনকে
মহাজো
গগ
লং
##াতাদের
ইউকরে
পালনে
পাঠিযেছে
সথানানতর
তলনামলক
বলন
নামক
পেযেছিল
জযপর
রপতান
কাহিনী
ফাউনডেশনের
হাওলাদার
কডা
বসেন
পরহ
ভরমণ
পরণযনের
শীরষসথান
আসামির
ওভারের
পেশাজীবী
ঝাপ
##গড
যাতা
অরথনীতিতে
জিডি
অরজিত
হেলাল
দষটানত
লটপাট
শাহবাগের
কমলা
কষতির
এটাও
ফলযা
আইনজীবীদের
তিনিও
রাজপথে
মাননীয
আসামিরা
১৯৭২
কলপনা
রোকেযা
##ধযকষ
মিছিলে
পরিচালকের
সনতরাসের
তরটি
ইইউ
তলা
জোগ
ঘোষণ
শিশরা
অসথিতিশীল
এমএইচসি
রেশ
বিচারিক
হতাহ
এমপিও
ইঞজিনিযারস
রপি
বেতার
রেখেই
উদদিনের
জটিলতা
ঘেরা
পদের
বললাম
##াহিদ
##পতয
##গেট
নীতিনির
চাদা
সংহতি
বহততর
জমিতে
পছনদের
দবনদব
সৌনদরয
ডিম
বাবর
জানাজা
গরত
##কতাদের
##ডাও
কলাম
ভারসাময
কমাতে
##টিফ
পরশনপতর
আতমহতযা
বকততায
জসিম
চারজ
পরিষদে
ছাডপতর
অফিসের
গাল
তলায
পরেই
নিষপততি
পদকষেপের
টরাকটি
িনহত
মযাগাজিন
##তেহার
ধারয
##োপাধযায
১৯৯১
পিরোজ
ককসবাজারের
অভিজিৎ
লনডনের
সাকষী
করেতা
শহিদল
ইফতেখার
মমত
বাসতবাযিত
এহ
এতি
জযেল
##সটন
লোকজনের
নকশা
ইহ
আনতঃ
শিলপীরা
ফৌজ
##িসমপ
পাঠক
পৌছাতে
পাপ
৯৪
সিনড
##ফরম
ফরোযার
দখলে
জাকার
দাগ
##ীতির
##সিস
##বত
মোবার
পরকাশে
মরাদ
পেলেন
##উড
অবহিত
ঘটতে
পাঠয
ইতালি
ডেভেলপমেনট
ঈদে
##োলি
বিরপ
পনরবহ
জিজঞাসাবাদের
উপমহাদেশ
##ঙগিক
দেশবাসীর
কাটার
ঘটবে
উইকেটের
রংপরের
বসন
##সরা
এমনই
ইশতেহার
সমনবযে
মগ
##েনসি
##ভৌ
করলেই
পাতায
##ভঙগ
##সথল
ওইদিন
সপেন
বারতায
অসবাভাবিক
কাকে
ফরাসি
সটডিও
অতিথিদের
আইএসের
মৌসমী
বরাহমণবাডিযা
উইলিযাম
মাইকরোসফট
মণ
##সকের
দরগ
থাকছেন
লীগকে
নভেমবরে
সিংহ
সকা
##ঠক
মানতে
আজিম
ঘণটায
বানদর
পেশার
নশ
##াদি
সেনট
##শীয
শিকষিত
অসতরের
জনমত
একসচেঞজের
পরযাযকরমে
কেরেছ৷
উগর
##চচার
কষেতরেই
পযানেল
৩টায
হাশ
রপতানির
ইরাক
পেরেছি
শনেছি
মী
ধারালো
ডাকাত
রমজ
##বিধি
জামিনে
##যবসথাপ
##মেনটের
উদভিদ
দেওযান
বাহাতি
হাইকমিশনার
নোট
রদ
৬টি
তারিখে
নীতির
ফাউনডেশন
শযা
##োলা
একযোগে
##ানেক
দেখছি
বরখ
রোডের
বযাপারটা
মালযেশিযার
##লিন
পারবো
মাকে
##মেট
সমরথনে
লেগ
জেতার
অলরাউনডার
##ভৌম
দাপ
হব
##পষট
##ইনের
চেপে
ডিবি
খেলেছেন
কমিললার
লার
আলোয
পঞচদশ
মবিন
সিসি
মেধা
গোবিনদ
আযকর
শরিফ
##াদিন
নিলেন
অরথাযনে
নারীকে
দিবসে
ফেলেন
মেঘনা
টরাকে
রেহানা
##পাযার
##১৫
কোচিং
উদার
চিফ
এটাকে
পিপল
সবাসথযমনতরী
##াসীদের
দেশবযাপী
বেডা
বরিট
চযানেলের
এখানকার
লড
কোটা
সংগঠনটির
মাদরিদ
পরতিফলন
##মীর
##ামি
পাঞজ
পারায
সকট
১৯০
গডতে
সেনাপরধান
##ানীগঞজ
নিরমল
আইটি
ধারাবাহিকতায
শিন
অনরধব
সাইফর
সবাগতিকরা
সংসকরণ
##ঘাতী
মযাককাল
ঘরণিঝড
আলে
পিন
সিদধানতে
জেগে
ভিযে
িম
সমাধ
মোরশেদ
িদেয
আফগানিসতানের
ছযে
##তোর
চৌধরীকে
ইউনিটে
বনদযোপ
সবৈরা
উডে
##পস
সটরি
উচচারণ
সবজনদের
মালেক
##ীষ
এলকিউ
রাখবেন
মনসি
ইনিংসটি
কমারস
লৎফর
মেধাবী
ডায
োয
##গি
##ষকত
সংযোজন
মোনাজ
##গলোও
##এসসির
সহযোগিতায
বিশেষজঞরা
টরনামেনটে
তাপমাতরা
সাখাওযাত
##ামতের
সটল
##শিবির
বিজযের
সংগরহের
মনসীগঞজ
রযা
##বদন
##৩৫
##াইকেলে
পরারথনা
মিশন
যনতরপাতি
নিন
একধরনের
##হারল
নারীরা
বিদাযী
সেটাও
মাদারী
লডাইযের
চাকমা
কযারিযারের
২০২১
##ওভার
##ঞচার
দেশপরেম
##সাধারণ
কিশোরগঞজ
মাঝামাঝি
ঈদল
পারতেন
থাকত
সবিধার
ভাঙা
অসথিরতা
ঝিনাইদহ
সােথ
টঙগী
##ালয
সহয
##গলোয
একাংশ
পরানত
##যারে
সনাতক
কারযকরমে
সারবভৌম
উনার
চিক
##সথায
পলিশে
এলেন
সংশলিষটদের
পরতযকষদরশীরা
##যানো
পরাতি
জবানবনদি
আঘাতে
ভরত
ভরাট
##মতে
##যেট
##াপিত
সাহিতযিক
সযামসাং
নমনা
##মিং
গরেপতারি
হেটে
ডাউন
শামসজজামান
##হাত
দাডানোর
দীরঘমেযা
বিকষবধ
মজিদ
সরঞজাম
অংশগরহণের
শীতল
রীতিমতো
মাজ
শতাব
ঢাকা৴
সাংসদের
সোচচার
জারির
গেট
সোনালী
আলাউদদিন
পাইলট
##ালাম
##াযতত
##বেলা
##ামেলা
##েইন
বরিগে
বরাবরই
শাখায
তখনো
হযাম
হযান
কোট
শিকষায
রবারট
জিরো
বযার
৬টা
নিলেও
##েখা
ওকে
লযাপ
##সেল
নিলাম
বযাক
উননযনশীল
টেকসই
চাদাবাজি
মযদানে
অহ
চপ
লজজ
##িলায
মললিক
জামাত
ছবিটির
উললেখয
কপি
টযাব
##তলায
ওযাট
ইসমাইল
৭টা
##পারে
##সেবা
অনমোদিত
টেকনোল
ফাহ
নিতয
##লিযার
দিই
নবীন
১৯৯৯
বিরোধের
মাহমদর
##ফির
করক
বললেও
তিনজনকে
ডরাই
সেনানিবাসের
##কাহ
##সচি
##হাজার
##ডিট
রোডে
সেকটর
রবীনদরনাথের
তৌফিক
ওখানে
মিঠ
পরতযয
নববই
ইঞজিন
অমিতাভ
অমর
সও
##বধি
উঠেছিল
কমানো
এমএইচবি
রোমানটিক
হামলাকার
কেম
টেই
তরিক
ধন
সীত
##ামটি
আসছিল
জডিতদের
বনদরে
অরথনীতিবিদ
টরাইবযনালে
ইউনিভারসি
দৌডে
মঠোফোনে
ভিন
পারশব
নারাযণগঞজে
পরানতে
জযনাল
নিউইযরক
##যজঞ
##করণে
তাণড
##দেক
##বনির
বইটি
রবিন
জনসংযোগ
গাওযা
হতাহত
মনিরজজামান
সপরি
বযবসার
বিপণ
##রিন
##খযার
##ভির
দরতব
কেলে
একাডেমী
##ফাজজল
মইনল
জাতিকে
বৈদয
পাঠযব
দদিন
##সেরা
পডেছিল
ধরমঘট
##ঙখল
পরবদধির
গাইবানধা
সীতাক
কাতার
গযে
এখানেই
লালমনির
ছর
##উক
বিষযটিকে
এএস
জটিতে
##বেষ
##িনিযে
বলছিলেন
মহরত
সভয
বিপদে
এটিই
জবদ
বানানো
নিশচযতা
##সংগীত
টিপাই
গবেষকেরা
থিযেটার
পদোননতি
পাঠযবই
৮০০
চেযেছে
ভরাময
অপহর
দিললির
সবসতি
পরধানের
োশ
উপলবধি
মিসবাহ
অপারেশন
##াবলিক
মতদেহ
বকতারা
আকরমণাতমক
ফরা
##ভাবিকভাবে
মলধন
দকষি
রিচার
মজার
বিবিসির
করপোরেট
পদধতির
বিবাহ
দেশবাসী
মেহ
সামি
শাহিন
যবদলের
আনোযারল
আতি
ইঞচি
গতিতে
ভরে
চেতন
জিহাদ
অধযাদেশ
নেতরকো
রন
##পদে
জেতা
সনদেহে
সাভারের
রণবীর
রিপাবলিক
টিপাইমখ
মেসির
পিপি
ভরসা
##িসমপদ
উষণ
গিযাস
ঘটাতে
দেশবাসীকে
জানান৴
পরতিষঠাবার
ছেলেদের
ভোলা
মোটামটি
নাশকত
##উফ
নিরীকষা
সদসযকে
শিকষারথীকে
মযাচেই
চোটের
সচল
কমন
লিপত
বিশববযাংকের
##দিযা
##িসে
বছরই
ডিভাই
দজনই
##ডাম
##বিজঞ
মহাকা
হেযেছ
জেএসসি
নাগরিকের
মেহেদী
টায
ডিন
১টি
##েযর
##ছার
##ামানের
গরম
কযেকবার
মধযবরতী
রমনা
ইযরক
শাহবাগে
##চনদর
নেতব
কামার
ভাগে
অনিচছ
অপারেটিং
ঘটিযেছে
মছে
বাডার
পাডি
উপেজ
কমবে
মারটিন
বোনের
দজনে
সকর
##িচ
কারটন
##নীল
ছাতরশিবির
চিকিৎসকরা
োফ
রকমের
সচিবালযের
পরিশরম
কলারক
##ধারা
##শান
সমবায
##কষট
কোচের
মামা
ঘটনাকে
ইতালির
##টোক
##গলি
##মিনি
বিষযেও
কতটক
সাকষাত
নিরভরশীল
হজরত
বিভরানত
শঙকা
##ীপ
##াসীর
হোম
অনযরা
পরতিরোধে
##২টি
বাতাস
কিছর
পরতিষঠায
করতপকষকে
যতটা
বাধযবাধ
কড
##েড
##সচক
##গডা
মানষদের
বহির
মেযেকে
তম
নগরে
সসপ
িবে
বযসের
##বাচিত
##োলায
সমাজতানতরিক
খেযাল
হালিম
মরতজা
গানধী
চেহারা
নিজামী
খেলোযাডরা
সটেডিযামের
লাভের
ওসমানী
নযাযয
ভেনয
আধি
কানতি
রতন
##ষার
গরযানড
আইযব
গণহতযা
রোজা
##ডাঙগা
কলাবে
##সটাইল
লেবার
সাজজাদ
উরগ
বিশববযাংক
অঙক
শমসের
##বিলের
##াবন
##মাংস
অনযদষটি
পাচছি
##পাতা
বিবেচিত
টরাফিক
অনিযমের
পরতিশোধ
লস
নিরীহ
তরণের
অসতরোপ
কিউএইচ
রাহল
অযানডরযেড
##তরিম
তারও
##াহীন
অরণ
আকাঙ
কদদস
খযাতি
মমতাজ
খাগডা
সিটির
বাসতবে
বযবহারকারী
বনানী
ফরোযারড
হংক
সেগলোর
উপক
উপনযা
আশবসত
সালেহ
##বানধব
গোলাপ
লেখেন
টেনডলকার
নিঃসনদে
মশি
কাজল
পরাচীন
চেযারমযানের
বাবাকে
সাংসদদের
সইজার
টাইগার
মঠোফোন
আতিক
আমপাযার
পারলেও
##সতক
োচ
ডেমোকরেটিক
##পাডায
নিরমম
ফখরদদীন
কিসের
হারড
পালট
পরযোজয
পেরেছেন
গজব
ডেইলি
হযেই
##াহত
বযযের
বযতিকরম
অযাঞজ
সচকে
বিসফোরণের
পষঠপো
শেরেবাংলা
৪টায
মোস
পডল
ছযজন
আটটার
িবশ
লঙঘ
হতাহতের
##থী
চাইতে
মালামাল
কমেডি
আহমদের
তাজল
মেশিন
সরবনিমন
বসা
মংলা
নিবিড
##নিবেশ
##ভিচ
মালটি
তরসকের
লাইনে
নযাযবি
ভটটা
সথিতিশীলতা
পারফরমযানস
মযাজিসটরেট
##ছন
দেখায
বরজনের
সমমখ
জোডা
পারলামেনটের
পরাইম
অপহরণের
আবাহন
কৈ
কবরে
তাড
বাউল
সংবাদের
সিএম
অধীন
দবিগণ
মোকাবেলা
মাইন
অরপ
আবর
ধীর
বেলায
##৫টি
##োতে
কিংবদন
সশাসন
সকষমতা
শবশর
উপকলীয
##ঙকিং
করাতে
পিটিযে
আউযাল
এলেও
ঢেলে
##দাদ
##রাগ
কোতো
দরশন
দেখলে
এনআই
ফেরেন
মলযবোধ
পরাতিষঠানিক
জযো
তিত
সেরে
বরকত
##জেড
অনমোদনের
উম
৯টায
##গোল
অবকাশ
সবাভাবিকভাবে
আতমার
বসানো
##ভাগে
আকরমণের
সথাপিত
আকাশে
কাগজপতর
বযযে
##িবহন
অরপণ
সংগরামের
উদযানে
নাছির
গদ
ভিজ
##লত
##২৫
জনপদের
অসন
খবরের
ফলাইট
বাধাগরসত
ফযসাল
এগলোর
বশ
নিজেরা
##এফের
ইজতে
মোহামেডানের
লকষমীপর
##১টি
বলবে
শতাংশে
সটেশনের
অগাস
কযাপটেন
অজয
##দবী
##ডিশ
অটো
জহ
নওযাজ
বচচ
বততি
সরল
দেখানোর
বাসিনদ
বাণীতে
বিগ
লিভার
ইসরাযেলের
টরি
কোকো
রাউনডে
##শিযারি
রেফ
বযাপারটি
পরভাবিত
পরতিদিনই
অনধকার
৮টায
##সৌ
অদভত
নাঈম
জখ
##বিযা
শরমা
সকটল
অনষঠানটি
শরেণিতে
পাহাডি
সংশোধনীর
মাতভাষা
মসজিদের
##টিসট
বাবদ
হাসিন
বিষযটিও
ফারসট
বসিযে
বিনোদ
অধিবেশনের
রাক
##হাব
করস
১৮০
খলনায
কাপে
ইঞজিনিযারিং
বিদরোহীদের
সরবসতরের
ভরামযমাণ
গঠনে
পরদেশের
কেরন৷
সবীকারো
##সাহ
##টিযার
##বেক
অকটোবরে
অযানডার
চাপের
দোষী
বণটন
অসনতোষ
অকার
পীর
পণড
রউফ
করানো
জনপদ
দেশেই
পনটিং
সমালোচ
বিনিযোগকারীরা
##আরের
পরকতির
অধয
সংঘটিত
লোকে
আযারলযানড
সেলিমা
মহাজোটের
ছরিকা
সসপষট
পরাজয
##সমপনন
১৯৯০
ঘনটা
মোকাবিলায
##ণায
বনধর
অপবযবহার
পরারথীরা
জিমমি
ধাচের
দরবযমলয
হশিযারি
##লাতে
বাসসট
লেখকের
সটেশনে
অধিনাযকের
সেনাবাহিন
বীজ
মসকো
পরটোক
রাগ
কেএমএস
মনতব
পরসপর
##সাগর
খনিদের
তাস
দেখছে
করারও
##যদধের
যবকের
ইমরল
নিঃসনদেহে
খাই
##পণয
##ফত
বলবল
কমল
##ফোরড
##হতযার
##পাের
সৈনিক
দীরঘদিনের
পৌছালে
যতই
পরণে
সামাদ
ঠিকাদার
অপরাধীদের
মেডিকযাল
গগলের
সমসত
##াবাডি
অনশন
##িকষণ
মিষটি
কনস
ইসির
যদধাপরাধী
মসতি
গেইম
নেপালের
বিআরটি
আবাহনীর
শচীন
##মানিক
অসবিধা
##পাশের
সঠিকভাবে
পাইনি
বারসেলোনার
পী
##িন৷
রাঙা
সমযসীমা
বেআই
##বিতত
সমসযায
বিনদ
ফোনের
মতিঝিল
বত
##মারী
পাখির
আংশ
বাধার
সিভিল
কলিক
১৪টি
বিজঞাপ
বঙগবনধকে
বযবসাযিক
কমপলেকস
মেলবোর
ধানমনডি
উদধত
সানি
বরো
পরিচছ
পালা
বযাটসমযানরা
দমনে
কামরজজামান
##ভাল
##ঙকষিত
তারেকের
##মেক
##চছেদের
##জঞা
গেলাম
সমতিসৌ
১৩টি
বসতি
দবৈ
##জজনক
মহাব
২৫০
চামডা
বরধিত
সরের
##জনিত
দাযরা
##েনটাল
সারটিফ
এসবের
বযবহারে
বাণী
উৎপাদিত
সতীর
হিজ
##টেলের
##মিতে
দলিল
জিএসপি
বঝি
ঝাল
দষণের
হিং
আগনের
মেযেরা
ঝক
৪টা
৮টি
##হযাম
পাউ
ফিলডিং
দৈন
আমনতরণে
##উই
##েনসের
অনপরের
এরপরই
বিতরকের
খাদে
গযালার
মধযপরাচ
বনধন
সেনসর
লেনদেনে
ফলাফলের
এলি
##েমধযে
১৪৪
মাঝেমধযে
শহীদদের
শিমল
রাঙামা
লাক
২টা
আশার
খানকে
বিপজজনক
সেপটেমবরে
সচকের
ভবিষযত
পরশিকষণের
বযেট
গোষঠীর
আযে
হিরো
অযাওযারড
##জজামানের
ঠিকমতো
হাতবদল
আটকা
পরেসসচিব
মহাপরিদরশক
##কতরা
পরোট
মানি
কিবর
মেতে
রানার
অকটোবরের
বিকেএসপি
দবীপ
সটাডি
সঞজয
গণয
খেলেন
##ালাও
বঝিযে
মাহমদললাহ
খানিকটা
ইযাস
পতনের
বিটিভি
মানা
মেগ
সারাদিন
বঙগোপ
নিঃশ
ইমন
এজেনট
খোলার
সনি
বযরোর
শিকষানীতি
পলাস
গোপ
পডায
নমবরের
ভোটক
ভমিকার
অধিকারের
তবও
চতবর
আবিষকার
ফেরা
##ণর
##কষী
ঘটানো
ছাতরীদের
সাংবাদিকরা
মিলান
টেবিলে
জেতে
ফিরেছেন
বেলাল
মিথযাচার
ডেকেছে
ফানডের
বদি
সষ
##ইসি
##াবাজার
তোমাকে
##েদশ
মৈ
রনির
##সবর
##ফান
২০৪
ফরনট
বসনধ
চাপায
বিনামল
##ওযানা
নৈরাজয
চলাচলের
পজা
ফাকা
##ডক
##িতক
সিরাজগঞজের
শাসনাম
ইতিমধযেই
##ডবলিউটি
সবীকারোকতি
জট
আরট
অভিশ
থাকক
কমিশনে
এমআইআর
তাৎকষণিক
আতাউর
টঙগ
##ানট
কাজটা
নযটার
সাততার
আইসিসির
মাথার
চনদন
লোভ
আমলা
আনেন
পৌছায
উতথান
এশীয
তাত
##খিত
সরেজ
##লিপ
নাইট
হাইকোরটে
৭টার
##খের
##হাই
বিশেষভাবে
চিনি
ডক
আডডা
সরেজমিন
এআর
জানালা
সরকারবিরোধী
গেজে
সামাল
অরজনে
পিটিআই
সাহসী
##মারি
দাযিতবপরাপত
কানাডা
##ঠামোর
রিজার
শযামল
ফেইসবক
ডিপলো
ভিলিযার
ফাতে
ির
সেদিকে
এবারই
রাজশাহীতে
ধানমণ
জনাযেদ
##লোড
এসবি
দেখবেন
পেট
ফিচার
খাওযার
অভিজঞতার
ভকতদের
ইযে
রপর
##নাত
##চরের
পরভ
বাশ
অনভ
করমীর
মেমোর
বইযে
খনিজ
গৌতম
হদযে
রপক
শাপ
##ামপ
##এসের
পরচারের
বাণিজযের
কথাবার
##করমীরা
##২২
এখনকার
পরাণের
পরতিনিধিদল
১৬টি
দৈরঘয
সংকেত
সবাদ
সথির
চাইছেন
রপতানিকার
অযোগয
নিবেদ
কোসট
আশায
চারটার
হারাতে
কলাসে
রোববারের
কবিতায
পযাকে
ভদর
##থার
পরতিহ
টিউ
এনটার
নিযনতরিত
সমারকলিপি
সকটলযানডের
অঙকের
ঢে
শয
শাল
একটাই
লাউ
কমিটিকে
গানগলো
অধিকাংশই
তাপস
এনবিআর
##ৈরয
পরদার
দইজন
##গতভাবে
পাসপোরট
মণডল
তীরে
৪টার
পরভাবে
##িমন
উইল
বিদযা
নবাব
আফজাল
ষডযনতরের
জামালপর
বিআইডবলিউটি
নৈশ
সনে
##াপো
##িযাকে
##কষেপে
সপেশ
জামিনের
যাবত
##যবসথা
উঠল
নেতরীকে
ফেসবকে
৩টা
##পরক
বলাকা
##োরে
রাজার
মেস
বিরল
অসবস
মনতরীদের
বিজঞানী
সিদদিকীর
মাইক
উদযোকতাদের
জালিযা
শাহাদাত
বরখাসত
কানে
টম
খালেক
জোহ
গযেশবর
ভিসা
ইনস
লিওন
##বিরতি
অপপরচার
আকরষণীয
উচচবিদযালয
ওল
##ডিসি
পোষণ
সাতজন
রাযহান
চিকিৎসকদের
অপরাধী
কানাডার
বৈদযতিক
##দৈর
এসএইচ
গরপে
দিবসটি
বযাটিংযে
গযালারি
হিউমযান
##যি
সমবেত
রাশে
বোলড
বিসফোরণে
সমগর
আসলাম
গাডিব
গারমেনটস
আখযা
অনত
সেনটি
পরেমিক
##ঞচলীয
সাপতা
সাঙগাকারা
অবিশবাস
খিল
##চেল
##ংকা
পরম
বিএম
আমীন
##নিতে
মনজর
জিযাউদদিন
দশচিন
টিউন
মকতিযোদধার
##েনডেনট
মানেই
পারলামেনটে
মোডক
তিসতার
ডাযের
৭টি
##৮টি
করেতাদের
উপাযে
খাবারের
এযারলাইন
খযাত
তারকার
রোমা
বযবহারকারীদের
পরযটক
কোরস
১৯৯৭
ছিটকে
আমদানির
সিআর
উদবে
সিদদিকর
মলতবি
লেখাপডা
উডোজাহাজ
গপত
৭০০
আহমেদকে
সনদেহভাজন
ছোডা
মফতি
##ঘো
##হাতে
সরকষা
আইপ
ছোটদের
খালাস
সারটিফিকেট
ডট
সযা
##দিল
উপসচিব
পরসার
২১০
দকষিণা
দাফন
দৌড
পরবাহিত
গটিযে
হির
পারকে
বিচারপতির
গতিশীল
কযামেরন
বেডাতে
টরাসটের
অলিমপিক
এদেশের
চেষটায
ঝরে
##ডনের
পারা
উদবদধ
আশে
আননদে
সংগঠনটি
মানিকগঞজ
আশপাশে
পরথমারধে
সপেশাল
ইদর
ছতর
জনক
আসছিলেন
জাতিসংঘে
োহা
শিকষাপরতিষঠান
হাফ
এফএফ
হেফাজতের
ছডা
বনে
পরকলপটি
পরিকলপিত
মজাহিদ
দখলের
সততা
যাতরাবাড
আলোকচিতর
অজানা
পনরবাসন
ধৈরয
##েবের
##াবলি
##বহিরভত
কাটাতে
দরবলতা
ইউকরেনের
খোর
খরি
টেম
পযাট
##কনযা
##সঙগ
##পরবাহ
##বারগ
কোকোর
পরকাশক
সপেস
গঠনতনতর
সৌজনয
সাঈদীর
আেগ
জনগোষঠীর
বেআইনি
অমী
তির
ফটিযে
যায৷
ধরষণের
লাশের
##পাতের
হতযাকারীদের
১৩০
বেগমের
লগন
জনসভার
কারচ
ঢাকাগামী
গোলড
ছযটা
ভবিষযতের
বিদরোহের
অটোরিকশার
সতীরথ
ডার
##রকম
পরণের
কোনদ
পরিহার
ইউএস
পথের
বিজঞানের
টিকেট
দতাবাসের
পটযাখালী
রেফারি
াম
##ঙকে
নিম
দেশগলোতে
##সলি
ছাতররা
শিকষাপরতিষঠ
সটাইল
##োপযোগী
ডেটা
##নিরভর
ভাঙার
দাযেরের
ইটভা
বিপরযযের
অটিজ
বিএনপ
বহৎ
টরফি
ফিরতি
পঞচা
জনপরতিনিধি
জেরে
তদ
মভ
৩টার
##পাস
##থান
##থিল
আমজাদ
জনশকতি
##ীযমান
বযাগ
সমপরদায
এগার
শিখে
ভালবাস
##জোটের
আংশিক
আদর
মজা
##হাল
##াকাল
পাডা
শোনার
অগণ
১৯৯২
যথারথ
চেলসি
নাব
নরথ
ফিক
পরিম
##গরনথ
রহমানসহ
পরতিনিযত
নিযনতরণের
বনদি
পৌছেছে
জখম
কতি
টহল
তই
হযত
হযরত
এরমধযে
পলযান
আইনটি
গানটির
##ধারার
জযাবরধ
ভিযেতন
পরিচছনন
বসনধরা
মিনট
হাড
##িশা
##তিকা
কথাটা
মালদবী
সালমানের
সাভারে
টিভিতে
হশিযার
নিট
##নোর
মানস
আইএম
গেছি
মারে
কালিযা
জাপানি
##াপেকষে
তরিকল
মযানড
##খণড
##তিকে
##বিদের
বযথা
বোম
আলীকে
সাকিবের
মেরামত
ভাসকর
সজাগ
গলোবাল
িবিভ
অনিচছক
আকস
##েনার
##াকরম
জিডিপি
মালি
লেফ
বনদী
আলাদাভাবে
যকতরাজযে
এপরি
াপাের
##যানি
বিশঙখলা
কযামপে
বাংলাদেশিদের
অঙগনে
এসএনডি
পরজাতির
ঊর
ডেল
ফাট
হযাট
##ৈন
সবদেশ
সবভাব
হিসেবেও
পোশাকের
ধবংসের
ভিকটোর
রমজানের
গনধ
##দোর
##৭টি
##ওযালা
##করমীদের
গরাহকদের
সকটলযানড
সমমখীন
চেষটার
থর
লিযা
##তিযার
##লেস
সচিবের
##সংকরানত
বিদযত
তরসক
দিকের
বিশেষজঞদের
হেফাজত
লকিযে
মাজার
হকি
##রাজ
জনসন
করমেই
সাংবাদিকতা
ফিফা
ইনডিযান
লেফটেন
অযার
এভার
জটির
বাি
##াতারা
সিম
গতকালের
##ভিউ
সনাত
শিশকে
জবাযের
সরবরাহের
বহনকারী
চাপাইনবাবগঞজ
অমীমাংস
লভ
##পাডার
গরতবের
##খানায
অধিকতর
মোবারক
ডরে
মফিজ
৭টায
বিম
শিলপমনতরী
গণপরত
সবযং
কোতোযালি
ভত
শাডি
পরাস
##পরিকলপ
বাট
সমমতি
##জীবন
বযাংককে
বিকষোভের
তষার
ধাত
##৪টি
বিলে
জীবিত
১৮৫
মধযকার
মনতরণালযকে
রসাযন
ইসরাযেলি
জহরল
কইন
ফাল
##লাভ
গতবারের
শধই
খোজে
অনতরবরতী
যশোরের
সংখযার
শোভাযাতর
আচরণের
ছেল
##মাণে
যাঙকিং
সমযও
দিকেই
কারযদিব
মধযম
ঘরবাডি
শবদটি
জগতে
টাঙগাইলের
##পরবে
জানালে
##জিট
পিট
সমাজকলযাণ
চাহিদার
সাপতাহিক
সনীল
কেক
আরেকটা
আতমঘাতী
মহাসচিবের
নৌপর
নওগা
ধোনি
ডিপলোমা
শিল
বলেছিল
হারান
জামিল
বিপনন
এটিএম
ফারম
ভোটা
নভেমবরের
##তাসহ
মানববনধনে
ফেবরযারিতে
রিপাবলিকান
ঐকম
কতরিম
যগের
রখে
##বিদয
পলল
শরমিকরা
পরসকারের
মসলমানদের
দবিতীযারধে
লযাপটপ
সেনটিমিটার
ওযাহিদ
বাদে
পরেসিডেনটের
বোঝাতে
নযাদিল
অগরসর
ঐতিহযবাহী
নশংস
##বিআই
বরযানড
আবদিন
সনতরাসবাদ
সেলিনা
মজিবল
জনসংখযার
##হো
##বাগের
##নাগ
ওপরের
গাডিটি
একাধিকবার
পিপলস
বিনামলযে
দেলর
পতল
বাশি
কাধে
গরীষ
মাসম
বিদাযের
ইউনিযনে
শোযে
পৌরসভা
মেটরিক
পরজঞাপন
##দৈরঘয
##বতত
##যাৎ
##িশর
অকসি
মাতরায
পরবেশের
অচলাব
ফলাইওভার
এপরিলে
ঋত
পাদ
তারকাল
মোটেই
কাণড
দরের
##সেজ
মযাকস
টরযা
চেযেছি
ওযারডের
উপলকষ
উদবেগের
তারকালাপ
আভাস
োদেশ
নাটকটিতে
শিকষককে
মোহন
করততব
অবসথানরত
জিলযানডের
বরাদদের
শিরোনামের
এবিএম
রিটারনিং
চডে
##চডে
##বারোপ
নেভ
বরবর
##ধরী
ধারাবাহিকভাবে
১৯৭৪
কেরানীগঞজ
আশঙকাজনক
ইউনিভারসিটির
উভ
##দণড
কারওযান
মনজ
চিং
লইস
পরাপয
ইযাসমিন
বনদযোপাধযায
মহাকাশ
আধিপতয
##ানীর
##তরি
##াসতর
দেখবে
লিবার
বঙগভবনে
চানদ
অযাকাউনট
গরতবারোপ
ইযান
ডন
তারিক
সতরপাত
কযাটর
মহানগরের
কষিমনতরী
ইতোমধযেই
চেতনায
খনন
োমা
১ঌ
##াও
##সঙগী
উপকরণ
নিজেরাই
##জীবনে
বসেছে
১৯৯৮
রিযাদ
নযাযবিচার
মযার
##ভঙগি
পলাসট
বনযার
##ামানয
কেরি
গাজীপরে
বোঝায
নজরদারি
অনপসথিতিতে
মযানেজমেনট
োহাে
ওজন
কটি
ভাত
৬টার
পরসে
পারট
রাখছে
নবাযন
মযাককালাম
লেফটেনযানট
নিত
##পরায
উপাতত
গাইতে
কষেপণ
শেরপর
সিকদার
ফৌজদারি
উপেজলার
গাযক
রট
##ানতে
সাযেনস
৩০টি
অরথমনতরীর
আনডার
টেবিল
জীবনযাপ
পেশায
হেলথ
নকল
বাযার
##চীর
সোহরাব
রোহি
বডযা
শীরষসথানীয
খানেক
ফলোর
##পয
আমলের
মোকার
এলএইচ
##সমপদ
রানী
ভিউজ
১৯৭৩
টপটেন
করণফল
নীতিমালার
লভযাংশ
ইসট
ছিনিযে
৫টার
##াবো
##পতিকে
১৬০
দমপতি
এএফপির
অযে
ছনদ
দাল
##গাহ
##ফেল
মহসিন
##াইকেলের
শরমিকেরা
যাবজজ
নানাভাবে
পরশাসকের
##সাইড
অগরগতির
বিবরত
কতজঞতা
নৌপরিবহন
সলো
##ষটক
বারী
ভাগা
পরতিবনধকতা
যথাযথভাবে
ঢেউ
মসা
##সায
পরাজযের
করমা
##কষের
হযেও
তাদেরও
গেইল
মখের
##ভবনের
১৭টি
আফরি
মযমনসিংহের
সবচছতা
বিসতত
##াসনের
কোল
পনরাব
শিকষাবরষ
মমিনল
হট
##৩টি
আসরের
দেখিযেছে
১১০
দিলাম
শরীলঙক
যথাস
ডাকাতি
মাগরা
উে
ককর
ছরি
যবর
োল
##লাল
##নতরের
##াহী
মাও
আইও
সমমত
এমনটা
সটযার
হাতবো
আননদিত
শোনাবার
সমপাদকের
কষযকষতি
শাপলা
কশল
ঘটা
রোল
িজ
##ধবে
বাগান
##টরস
খোদ
কাবয
খাম
গাব
ঠাক
##পরদ
তাদেরই
ভাবা
সতরীকে
ঐকযের
ভযংকর
বিসিবির
পাওনা
কীর
লিজ
ােন
##যিং
করতাম
ডলারে
পরিবারে
ডিএসইএকস
ঐকযজোটের
বলিউড
দবাই
নইলে
পিকআপ
রপরেখা
পরহর
##পারট
তিনটার
জামা
পরকটর
যাননি
চেযেছিল
ফেলবে
দেখিযেছেন
কযানটন
শানতিপরণভাবে
বইমেলা
কালে
রােত
দেখান
##কতিকে
লোকমান
মিরসর
ভাগই
দিলীপ
খলিল
গতির
সসম
##পলে
##পাড
বিঘন
##ঙগাল
শরট
আসত
পরতিবেদনটি
যাতাযাত
জবর
ঝকির
ফাসট
করনার
উদদী
তিনবার
মাহাব
সাইবার
সভানেতরীর
দিতেন
সতযিকারের
মলযসফীতি
মশিউর
বচচন
৫টা
পরচছ
একাই
##াধযাযের
পদম
উততরের
দাডানো
ফিফ
হবিগঞজ
ছেলেরা
ভাগাভাগ
সদের
আইডি
লেবান
বিলটি
আকরমণে
তানজ
অপসারণের
ফাদে
বেলার
িবদ
পরজাত
আসায
রাজযে
কােছ
এলবিড
শাহেদ
১৭০
বাদশা
পেশাগত
পতিন
রাজনীতিবিদদের
অতযাচার
সিনডিকেট
পাের
বেপর
নামাজের
লাফ
তিনজনের
ওপরই
গিযেছিলাম
জোরে
জাসদের
পরদতত
বিধিমালা
##কী
জনসাধারণ
বরড
##িবাদের
জবলে
তলিযে
শরেণীতে
ফজলর
টিভির
দরভাগযজনক
খরিষট
বনের
পরদা
পাগল
##করমের
বেঞচে
আবশয
আজহার
##সবাসথয
##আইপি
পেলাম
##ঞছিত
চোপ
ছব
ফটো
মাসেই
উদবোধনের
ভমিকমপ
শামিল
চাদপরের
কেরেছ
পাঠযপ
রিচারড
ইউজ
এডিপি
দলাল
আসলেই
উততরটি
পডেনি
##এফআই
ফাইনালের
চরিতরটি
মঞজরি
পরেসকলাব
কও
গঞজের
িস
বিশরাম
##িমলক
পরেও
আজীবন
জবাই
মনোযার
পাবনার
বযাটসমযানের
টেকসটাইল
বিসফোরক
জহিরল
চকলেট
বেপরোযা
দধ
বিবাদ
আরবের
বকসের
গলপে
বানাতে
মানসিকতা
িদেক
োনতা
নিষঠর
ইরা
সানা
##েশবর
আলাল
পরথমত
জবালিযে
পরথমেই
হাটতে
পিরোজপর
সমপততির
পাগ
আসামী
গণগত
সাহেবের
সালমা
কনসটে
মতযবার
কযাটা
আঘাতের
সমনবযক
ফলাফলে
সাহিতযের
##সো
##উটি
##ৈব
##ঞার
বিদেশের
সংসথাটি
দোকানের
বরাদারস
দীরঘমেযাদি
দালাল
##মেই
নেওযায
১৭৫
পরিকলপিতভাবে
গণতনতরকে
সাকষাতের
কাগজে
ধানমনডির
এমনিতেই
যাদ
অনপরাণ
##তবছর
নিজাম
সদসযপদ
হযালো
কযটি
মাহফজ
হেব৷
কালিযাক
পষটি
রটে
##ানবিত
##সেইন
##োকো
রেফার
দিললিতে
োভা
পরতিপকষকে
মেকসিকো
ছেলেমেযে
পরগতিশীল
বাধযবাধকতা
যাবজজীবন
উচছেদ
জবল
##াবিত
সিমেনট
সমযসচি
গোলা
##মনড
ভাবছেন
কযাডেট
দরনীতিবাজ
মলযবান
রকতের
বাযতল
সোসাইটি
সখী
ধরমনির
##ননত
##সমহ
রাষটরপকষের
১৬৪
সংগঠনগলো
সংগঠনগলোর
শিথিল
ভাঙন
সেকেনড
আঙগ
##ানডা
পরাপতি
বিলের
##নাশ
মামনর
বৈচিতরয
দিবাগত
বরগনা
মৌসমের
ঢোকার
হেলিকপটার
আছ
##টিউ
##টিপি
টিএসসি
ধরেছেন
মখার
তথযচিতর
বেলজ
জিলযানড
সপিকারের
নীলফামারী
লালমনিরহাট
এনা
ভোক
যতো
##পরস
জানাবেন
মাওযা
মারশাল
বারান
সরবাতমক
ভিততিক
সংসথাপন
মখোশ
ইকোন
রোগী
ভাষণের
করমসংসথানের
পনঃপরচার
##েগর
পারার
বাসভবন
সোভিযে
ফারনান
বাচিযে
রিপোরটারস
কারাবনদি
কযে
কতো
রই
##৯টি
বযসক
##ীবিত
বিজিবির
পরিবেশনা
চাচা
যবদল
পাহাডের
আযারলযানডের
দষিত
ভযাল
##িকাকে
##রাত
সেকষেতরে
##দসয
জাগর
সোনারগাও
ইনদিরা
##যাতরার
যাবতীয
অঘট
ছট
মকল
সরকারই
বেবী
লোকদের
১৯৯৫
চিনতার
নিরধারণের
অসটরেলিযান
সবকিছই
জাদঘর
সাতকষীর
কিক
ননদ
মরিযা
##৬টি
পরদীপ
দেবী
অনমান
করতেও
খালিদ
ভটান
করাইম
আতমসমর
ওম
##খবর
##বাণ
আলামত
নাটকীয
ওযাক
কনভেন
মাঝখানে
অযানডারসন
রিজারভ
ফাকি
হোল
একদলীয
সরো
পারতাম
সারচ
পরসপরের
মযাচটা
মধযাহন
##যবসথাপক
দইটি
আশির
জলাবদধ
বিশবাসযোগয
উনম
পরষদ
নেদারলযানডস
ধরমনিরপেকষ
ফাক
জনস
##লিখিত
##দিষটক
পরসততির
সনাকত
ঠিকানায
করমশালায
##লতা
##মবন
দেখন
মারতে
খেলছে
পানিসমপদ
বযবসথাপনার
রেলওযের
জিতেছেন
ওযেবসাইটের
দতাবাস
টইটার
ইংরেজিতে
মালিকানাধীন
অডিও
নাটকটির
ততী
লেখায
রকতকষ
দমকল
পরযবেকষক
ইয
গের
মরে
রেম
##জী
##চিহন
২০৩
পিএসসি
জনমগরহণ
রকতাকত
যাতরীরা
নানক
নরসিংদীর
পরিদরশনে
অটিজম
টযেনটি
##ঘণ
বহল
যোগদান
বিলবোরড
রেলপথ
অযালবামটি
মেটরোপ
সবসমযই
গতবছর
চৈ
থাকাকালে
##টিতেই
কালি
আরেকজন
খেলোযাডের
আডালে
চিঠির
টিন
পাকা
বলগ
##ঙগনে
এমইউ
গলির
সংঘাতের
ঝাপিযে
সরবাধ
মাংস
বাসভবনে
##ভােব
চযানেলে
সমভাবনার
লাভবান
অভিভাবকদের
ইযরকে
নেতবনদ
অকারযকর
গঞজন
##তাও
মাধ
বিশেষত
সফি
কৌত
আনিসর
বিমানবনদরের
আকসমিক
ওনার
##পালা
##বানের
বাউনডার
##িরি
সংগঠিত
সংগঠক
পরোকষ
বিশবাসী
গাইড
ভরতকি
পরতিহিং
১টার
##োগরাফ
পারভ
জিযাউল
সচিবালয
পরদরশনীতে
শোনান
খজতে
আদৌ
ঝগডা
শরীয
আসবাব
বরেনড
##ীকষার
ডিএম
সিনেট
পরশনবিদধ
যখনই
অধিকারী
ফেলেছেন
বযকতিগতভাবে
ককষের
ওপেনার
শরোতাদের
ফিজ
ওপরও
বাংলােদশ
মৌখ
তেব
চাকরিতে
ইযাজ
ডির
িবর
##হাম
##ানতরে
মতের
হোটেলের
মারার
সোমবারের
২২০
পরিকলপনায
মাছের
কযামপাসের
বিকাশের
পরতিদবনদবিতায
খাগডাছডি
ডিক
নবনির
রড
##াকথন
বাউ
##ংলগন
হবেই
মেই
কোনোভাবে
ঘটায
মাসিক
বাকস
শাওন
সেকেন
পরিনস
কনসটেবল
ধসের
পারতো
মোফাজজল
রানারস
দরঘটন
তরফ
পাকিসতানকে
ফটবলে
ফেডারেল
গোপালগঞজের
মেলেনি
সঙগীতানষঠান
আদাযে
বলতেন
মহলের
মখর
জীববৈ
উচচতর
এতদিন
সংবাদমাধযম
তারকাকথন
ভটটাচারয
##জগ
সাশর
থাকব
লাশটি
মালিকের
এসএমএস
বষটিতে
রকিব
আচ
েক
##যসত
##ামনতরী
মেট
দাডাবে
শেযারবাজার
পনরদধার
পাশেই
##বিশবাসী
বিভরানতি
সচিতরা
পরবাসীদের
সপরিবারে
পালটাপ
পনরাবততি
##দগধ
##যাতরী
##কষার
উপনিরবাচ
১৪০
পরণোদ
অপহত
আফরোজ
জরিপের
পরামরশক
একাডেমিক
করমচারীরা
বরিটেনের
আকারের
##বিযার
আবহ
বাদি
আমেরিকায
১৯৪৭
টারমিনাল
লঙঘনের
গায
দীন
বযানডের
শঙক
বাচা
চারকলা
মনসী
উদধতি
সোভিযেত
লজজা
শদধ
িতন
কাময
হেসে
হারিযেছেন
পরিচযপতর
আমিরাত
##যট
##ডেনের
কেযার
বিষযবসত
অগরণী
##ঠামোগ
পারফরম
ফেবরযারির
টেলিক
অভিমত
বেকসিম
পালটাপালটি
৬টায
##গতিতে
কোষা
সবারই
সৈকত
সংসথাটির
খাতা
বগি
ইযাহ
গেজেট
আতমসমরপণ
ঘাতক
ঝর
নযন
লবণ
পরতিমনতরীর
সরকারও
সমযমতো
বরিস
বিষযটা
দাবিও
সটযানড
চাপিযে
মাঝারি
উৎপাদনে
আফসার
দেডটার
নানান
ঘাটে
সিপিবি
অনপরাণিত
ধোযা
াচন
আরাম
পানিব
অসটরেলিযায
মিসরের
ইনটারনেটে
টাওযার
ঘমিযে
রিসার
অনপরেরণা
##ডান
সমাপতি
মোসত
##কাতর
সিপ
মহেশ
##লিটি
জিএম
দাতা
জেএম
পরচারণার
বিনিযোগকারী
যবককে
টেকনা
ভাসমান
অনিশচিত
পরামাণযচিতর
##শাসনের
তরল
##কমার
##ামকত
পরিপরণ
মিছিলের
সনামগঞজ
ফিলিসতিন
ফিউচার
পারভীন
তমল
ধব
##েনসে
আসক
পেপার
সোনিযা
##গাওযে
আফতাব
টরেনটি
পরতিবনধীদের
পরসঙগত
উপনযাসের
করতো
##নেক
পারল
গরব
কথাটি
##িমির
ফেটে
সেখানেও
জঙগিবাদের
রিযালের
অসাং
হযরানির
রিমানডে
বাতাসে
ততীযাংশ
আধার
খাযের
িদন
##ঘি
##উজজ
বিশবজডে
বরযাড
সথপতি
দেখেছে
তততবাবধানে
তহবিলের
##বাডিযার
বিচছিননতাব
রঙিন
লিওনেল
ইটিভি
##শকতির
##হম
##োরা
##ডেড
##সেব
##পনথি
মনতরীরা
##বযবসথার
সংগীতের
শানতিতে
##এব
##ঢয
##রিং
##তবক
কাভারড
মহী
সমযটা
কেজরি
নযসত
চলেছেন
এতটাই
অযাপলিক
বযাপকভাবে
##সবারথ
কোষাধযকষ
ধানের
বকর
##যেই
##নেতরী
##বারই
##মরযা
শামসদ
বোঝার
ইসযতে
বরিগেডিযার
লাহ
সাপেকষে
##িতির
সামগরী
বিপা
শাবনর
মাদারীপর
সরা
##গারে
##পিড
##লিটন
বহিরভত
২০১৬
নজরে
মজত
কযেকজনকে
##নীতিকে
অিভ
পোডানো
আশঙকায
নববইযের
টেইলর
ঝালকা
এভিনিউ
ওটা
৯টি
##দরোগ
এসএস
সিনেমাটিতে
বিমানে
মিসর
হেরেছে
সেভাবেই
##াগরে
সেইসঙগে
এরপরও
টেকনিক
পরযোজনীযতা
ফেসবকের
ফিলিসতিনি
মহাসমাবেশ
শাসনামলে
হদরোগ
সরকা
হককে
১৮১
ফরমাল
লেভেল
হালনাগ
বাচচা
থাইলযানড
দবৈত
##যক
বলবো
নাত
চাইবে
অপমান
তামিল
নিউইযরকে
অসত
ওজ
বকের
##লোক
চারজনকে
আনত
আনমানিক
শিলপে
রাসেলের
কাটাকা
দিনাজপরের
অবলমবন
পরতযেকের
আঙল
করণফলী
##ানিযা
##ালায
একটার
বললেই
বরষা
আবির
গোলডেন
##উনডের
সমসাময
উঠেছেন
নোটি
লরড
শারট
দিযেও
আনদরে
শহিদ
পৌছানো
লোড
পাহার
সমঝোতায
মেঘের
পশচিমবঙগ
সংখযালঘদের
##ঠামোগত
সমসামযিক
উপরে
ডাবল
হেন
আবদ
##ঞজে
বনয
বযবসথাপনায
সফলতা
শবদে
বহিঃ
েল
##রার
পরিজন
রাজউক
##যাযী
টিএইচ
এমনভাবে
২১৫
বিমানটি
সফররত
জঙগিরা
আরিফল
তথাক
নিলয
টইটারে
##টিসটিক
বখ
জানালেও
অভিযোগপতরে
##বানী
২১৪
বরিজ
ঘণা
##হাটে
খেলেছি
তাৎপরয
ঘেরাও
ঠাকরের
কাসট
তডি
##িতের
##তাডি
দেযায
তিনটায
সষঠভাবে
শিকষামলক
দশযমান
চেননাই
পনরবহালের
পঙগ
ফাসের
ভৈর
হাজী
##কীয
আগসটের
কাও
নামবে
তিনদিন
জাহাজের
পদতযাগপতর
পরযোগের
অনিরদিষটক
জযপরহাট
তথাকথিত
ধাম
##েগ
শিকষকেরা
##পিট
সরবতর
##মালিক
নিবনধিত
রেহাই
জাজ
সবজি
##সেট
কলাসিক
শধমাতর
১৩৫
দরশকরা
ডিজি
উচচার
জগতের
শীতের
মদরার
সরেজমিনে
কষেপণাসতর
এটিকে
কফি
শেন
##ফাক
##চায
##ঠের
অনৈতিক
ভরম
পরণীত
##চরয
কযামপের
লাইনের
ধবংসাতমক
রাজজাকের
কবরসথানে
নাটোরের
ােমর
সটযারট
টাসক
সেটে
সাগরে
##চারজ
পলাজার
তিনশ
বারসা
লাখো
মধযসথ
বযাংকগলোর
মজাহি
বোঝাই
আলোকিত
ঠাকরগাও
লেখালেখি
নযান
লী
##ঘডি
নিরণয
##িশে
##সথাযী
##চারে
বিশবাসের
ফিরবেন
পরযাস
২৫টি
##েশনস
সকলছাতর
বানানোর
শতকে
জারসি
পেশা
আওতা
##ংকরিয
ফজিল
আদিবাসীদের
বডিগ
কথাবারতা
ঠাই
ববি
শভর
নিচছি
##ফলক
পরণব
পরতযাশিত
সাজঘরে
বিজিএমইএর
বিপণন
ডাযেরি
বেকসিমকো
অটিসটিক
চাকা
##াগর
##চনামলক
##৹র
##াতেন
বলেছিলাম
কষকদের
২০৫
##ীবীদের
গণসং
মিট
জািনে
চিকিৎসকের
দষটিতে
গৌরব
সেলিবরে
মনতবযের
##বিদযৎ
##বিশিষট
##চিতে
##তিকার
বধবারের
ভেতরের
আতমবিশবাসী
##সীম
নৌবাহিনীর
পরেকষিতে
বলিউডে
রেসতোর
গালি
চেনা
##াতো
অভযনতর
##কাটা
বিচারকের
লাগার
নেননি
সীমানতের
##ভোগী
অতিথিরা
চেতনার
সিএসইতে
পরটোকল
নেশ
মরণ
সমবলিত
দেই
##াহিত
নিরসন
মোটা
পলট
কিছতেই
লিংক
মাধযমের
##ভাবনা
উললিখিত
রোবট
১৪১
পরতিকার
টাইবরে
বালয
মহরতের
আবেদীন
অপরিহার
রোনালদোর
উকতি
দেল
ভান
েত
##ফফর
জনবল
উপনেতা
##াগল
শেখার
##তমলক
মোহামমদপর
আফরিকান
ইনসটিটিউশন
সংরকষণের
সবজনরা
সেমিফাইনাল
করমশালা
কাফকা
পব
মঙগ
নিরাপদে
২১১
##মপনন
বযাটালি
বিচারপতিদের
কারাগারের
আডাইটার
বানদরবান
##াপনন
আসছি
নামেন
১৫৩
সপিন
দিতেই
ফলযাট
বাইরেও
পরশাসনকে
মিসটার
সেনটারের
পাঠিযেছেন
কাশমীর
কযামেরার
কটনীতিকদের
সঞচয
কোহলি
গিল
ছটিতে
বজল
সধ
সেশন
##পরব
সবতঃ
বরাব
পিলে
উৎসরগ
দকষতার
উদধারে
পনরগঠন
দষটান
হবার
িচ
##যামার
অরাজ
মিরপরের
টিআইবি
নীতিনিরধার
মহাবযবসথাপক
তলার
দনিযা
সংকল
উপার
কাঞচ
চালিত
সাজিযে
কথাগলো
সাবিনা
মডেলের
কোমপানিগলোর
রাইটস
আচরণবিধি
সবযংকরিয
অবসরে
সিদধির
খেলাধলা
পরাণহানি
অপরিহারয
এটির
ঐশবর
মকতা
##কাম
##ষে
পাড
যেদিন
আইসিটি
সেনটর
বাডিটি
তলব
সমযেই
ভালোবাসি
বাফফের
ঠেকিযে
মসতিষ
অচির
ইমতি
চমকে
মিম
শযে
শটে
াসী
##ঋণ
##াবনধ
করাটা
যেগলো
সহান
ইউটিউ
মরনিং
ইরাকের
গরহণে
বৈশাখ
তাডাতাডি
বংশোদ
সিকিউরিটি
রেজিসটরার
বরেনডন
সদরে
২টার
##হাস
কারে
আলিম
পরশানত
মিলাদ
ভাগের
মেযেটি
লোহ
সেলিমের
ঘাটি
বরিশালে
পিটারসেন
অনিশচযতা
মোনাজাত
শীতলকষ
সেলিবরেটি
##কলে
##তরণ
##াতল
##মাণের
কাচা
তিনটা
১৮টি
দেযালে
কাছের
জেনি
করেছিলো
একাততর
কমপিউটারের
করিকেটাররা
অভযতথান
কবলিত
##গরাফ
##মলের
##ডিন
কিমি
কেভিন
আপিলের
কযেকশ
উননতির
ডিআই
ভাইরাস
##াবাদে
বিজঞানীরা
ছোডে
মাদরিদের
##গোষঠী
ঊরধবে
চীনে
টইট
বিএসই
##বিতে
হারনর
সারোযার
বনড
লাগানোর
রেখেছিলেন
২১৩
গেলো
##শরমিক
নীতিগত
পোরট
যানবাহনে
মদদ
##রন
এসপি
দেখিনি
দিনগলোতে
বকল
পরীকষামলক
সারওযার
##সংখযা
পরচারে
আটজন
নিরমাণাধীন
ইউনসের
অযালবামে
সিঙগাপরের
সটাফ
সিকিউরিটিজ
পরসেসর
বংশোদভত
আকষেপ
পরতিভা
##ডিযান
সিগন
পলিসি
##সমেনট
নারগ
গোলটে
১৮৩
চাওযার
মিশে
১৯৫২
োকান
মাজহারল
মিরসরাই
মেটরোপলিটন
##উজজামান
খালের
চিত
তন
পপ
িহে
##কেনদরে
করসিং
##সতম
উৎখ
আদালতকে
উঠলে
একাতম
এজেন
শিকষাবিদ
অবহেলা
ডেনমার
জযাবরধনে
এজল
জোগান
কোড
১০৫
রোদ
আপডেট
চলচচিতরটি
োখ
মেযাদের
##কষমতা
মোশাররাফ
গহবধ
সংকটে
আইপিএল
গোপনে
লিযাকত
অযেল
কসম
জযাম
োপে
##কারিতা
গরেড
##িনারি
উচচতা
জবাবদিহি
রেমিট
ভোজ
##দাস
##কষণে
পেস
বহমখী
আনাম
চাইলেও
হাযাত
##পরণোদ
##শীলতা
অনপম
সাঈদী
নিষেধাজঞার
বিসমিত
ফিটনেস
যবরাজ
লযাব
১টা
করসফ
##বেলের
সরকারপরধান
##ীগলো
বিষযটির
মিলনের
আনদোলনকে
হিলারি
গযালারিতে
শপিং
##ভল
আমানত
সথানীযদের
পোডা
করপোরেশনে
সটিল
দষটানতমলক
অচিরেই
জলি
টাক
পাডে
আসাদের
মানিযে
আশলিযা
রাজনৈতিকভাবে
##ভেদে
দাউদ
শিপ
##ভরতি
ওযারনার
তরিপরা
মণি
এএম
সলি
হস
##ডোর
##ঠাক
##ঝরা
##োকে
##িযেন
##াবির
##াবিদ
মধর
চারপাশে
হারা
পরকাশন
কাছেও
মধযবিতত
বাদশাহ
অংশগরহণকারী
শনযসথান
ডেমোকরেসি
তারকাদের
দরবততদের
কযাটাগরি
সজল
নােম
বিষাকত
কাজও
কিশোরগঞজের
োদওযা
সঙকটের
করমাগত
রশি
##িনর
##াবদ
সেচ
১০১
সপযান
মলযের
বোযাল
বিদেশী
জেএফ
বিতরণের
রংপরে
পরতিকতিতে
দবিধা
আরসেনাল
##ঝাই
নাহার
বাংলাল
##টেম
মোজা
হামিদের
বযবহারকারীর
ইনটারনেটের
সমারটফোনের
পরেকষাপট
হযানড
অসতরোপচার
আকষট
জহর
রপা
##খোলা
##ারথক
ছাতরাব
উইক
পরিবরতিত
কষমতাযন
পরেকষাগ
##কানদি
এতিমখ
কমনওযেল
গনি
মাক
##পাতে
##মালের
##াসচিব
করেডিট
ফিরছিলেন
১৮৪
অসসথতার
##োননত
##পরযাযের
ছাতরশিবিরের
মৈতরী
##বলি
##োলো
##বেলায
##টকা
##াডো
বিনিমযের
অপচ
ইবনে
মাইকরোসফটের
বসনত
সমালোচকদের
ইমতিযাজ
কেল
##জাই
##চরি
##রিম
##কাঠামো
অভিনযে
পাঠা
ফেরান
সচেষট
গরহণযোগযতা
পষঠার
ঝলিযে
জযাকসন
শোযেব
তপন
মনন
##যেরা
মোশত
বিরকত
আমাদেরকে
এলজি
বাসসের
হাজারো
লাখের
উইকেটর
৫০টি
১৯৮৬
বযাটিংযের
সবারথের
কযলাভিততিক
ডযানিযেল
হংকং
বোমাব
ছোযা
দলগলোকে
মিলিত
##জজিত
একেএম
ফাইনানস
সংগরামে
অযামবল
ঢাকাসহ
োকােনা
ওযাটসন
ঠানডা
##কটি
##পতন
##ীনের
জনই
আনশ
রেসিড
১৭২
রপালী
ডরামা
শটিংযের
আশরাফলের
গযালাক
গডিযে
ধের
িট
##ভমিতে
এমআর
##ডারের
বাহাদর
##ঙখলার
নেমেছে
আগরহের
লোকজনকে
##হিদল
অনসারী
কৌশলগত
ফেইসবকে
ভাগাভাগি
উইকেটরকষ
যাপন
ানীয
##ীদ
বিচিতর
মহেনদর
##ংশে
##নাযক
বনধরা
সাংবাদিকের
সংসদকে
দরশনার
১৯৯৪
##মাতরার
ইবতে
আডাল
বরাহমণবাডিযার
মায
##দাযী
##ামিন
জনমবার
##াপতর
রাজপথ
বযাটারি
মতামতের
অসীম
রোহিত
শতাংশই
মিরপরে
ওযারডে
সফিযা
সেলস
সংসথাগলো
অভযরথ
রোগে
ভিততিপর
দৌলত
টরানজিট
চিকিত
তবর
দেলা
াকা
জানতেন
অনপর
ঘটল
পিঠে
দবিতীযত
অতএব
টরেনিং
মেটরো
উদভিদের
লাঠিপে
বিকরেতা
ওভ
হেকটর
##ানগ
পরিপনথী
পরতিপাদ
কাঙকষিত
পেলেই
পরসতাবটি
রাসল
##বসিত
মোটরসাইকেলে
এএসআই
আতিউর
আকাঙকষা
অযৌ
চকরানত
হযায
##কারড
##াকাটা
পেই
১২৫
টিএ
সেনাদের
##পরিচয
##খানার
সংসথাগলোর
বিপলবের
পরীকষারথীদের
শবাসরোধ
##ততবিক
সাহিতযে
সনাতকো
রিসারচ
##ীভত
মোদী
ঘটলে
সমরথকেরা
শোষণ
ভোররাতে
বোলিংযে
##জঞানিক
##ভাষায
সবৈরাচার
হাসিনাসহ
##পরিকলপনা
ইলে
##পলের
##হয
পরাতন
রাষটরে
চারদিকে
সথাপনে
দীপিকা
একাদশে
পিসতল
হালনাগাদ
রেলের
##কথা
গরভ
পরিসরে
অপচয
শেযারবাজারে
কাননা
দষটিভঙগি
অগনিদগধ
এখতিযার
পরতিষঠাবারষিকী
##ঘোষিত
িহেসেব
##বলের
করিসট
##ামারি
##বরষের
কারলো
##মেজ
ইনজ
অপরদিকে
রেখা
মানবতার
কিশোরদের
ফেনীর
তদারকি
উপমহাদেশের
পণডিত
পারটনার
ছনদে
ছাদে
দনিযার
ভিকষ
ভাইকে
হাদ
##োভে
করেতারা
##কারয
##কষণের
সরমা
লিটার
কযেকজনের
ধরেছে
##েনেজ
##চরচা
দখলদার
##তিকরমী
##ঘাটে
উপসথাপনা
পাঠযপসতক
দেলাওযার
দবাদ
##িদর
বাংলাদেশী
ইনফরম
পরিকলপনাম
আতমস
পনরগ
##টিভিতে
মাদরাসায
বাধের
িতিনি
হাবিবল
অিভে
পিতবার
নিপীডন
টযাবলেট
আেলা
গোর
রাজিব
মঙগলবারের
##তততব
বাংলাদেশেও
আমিরাতের
রামপাল
ভাসানী
মধযরাতে
অনধকারে
উততেজন
জিজঞাসাবাদে
তাণডব
##িকোর
##াপোল
##চছেদে
##ীনগর
রাখছেন
অনযরকম
##েকস
কামালের
সাতটার
এতটা
বিলীন
##হীনতা
ডিজাইন
টেনডার
বযেটের
কিংবদনতি
##াকালীন
খামার
ছাডে
বতত
রঞজন
সদি
##বাক
আরমি
বরযা
পডন
কনট
কযারিযারে
##খালীতে
চাদাবাজির
নডাইল
যথাসমযে
ভিততিপরসতর
দবাদশ
পিনট
##ষটা
##ণযের
পরেষ
##বাংল
##লোকের
##মাং
মোমেন
অভযাস
আলব
মিচেল
দশযে
সটেইন
খাতায
সবামীকে
##কযদধে
নোযাখালীর
ইউকরেন
অগনিকাণডের
দজনেই
অকসিজেন
সংকরম
দিযেছিলাম
দেখব
আদম
কলাই
করিমের
শরীম
সথগিতাদেশ
রাইফেল
ছাপিযে
ইউরোপে
আফগানিসতানে
কিবরিযা
কযাটরিনা
চনদ
##ভেনট
বিমা
বিএফ
##পরণের
আইজি
নযটায
বিকত
পাঠকের
পিপ
##শরী
পরজনমকে
সানতব
নেদারলযানডসের
সংখযাগরিষঠতা
উসকানি
সবাভাবিকভাবেই
সমতিসৌধে
চিংডি
বটেই
াচ
েদর
##উডা
সমতির
বযরো
সবাধীনভাবে
উদদিনকে
যতটক
সিঙগাপরে
অদকষ
রকষণাবে
মালযেশিযায
েলা
##জিতে
##নটের
##কেশন
মিডিযার
আদান
বিচারাধীন
খেলাফত
ঘটেছিল
নিরাপতত
১৭১
মিনিটেই
জনমনে
##াসথযের
বনদকযদধে
ধানমণডি
চকষ
ঝামেলা
ফয
মসি
বাহার
বিডিনিউজটো
আলিযা
বৈজঞানিক
##আরডি
দামের
ফটকে
নিযোগে
বগডায
কমানড
সাগরের
এলাকাবাসীর
কাযসার
োহােসন
বাংলালিং
ছাদ
থম
িপ
##কাই
##বলে
##ণডা
##সিলে
পরেমে
রোজার
গলযামার
নগরীতে
পরতিকতি
চরচার
মমতার
টযাংক
রেহমান
দণডিত
অবমাননার
ঘোষণায
ডিরেকটর
অনপরবেশ
কালের
সযাট
##পোল
বলেট
আজমল
##যানডার
সারিতে
বাডায
১৩২
বিসফোরিত
অসথিরতার
থামিযে
পরজেকট
এও
এপি
চালের
মিত
পাডার
##তবিক
দিনেই
সহকারি
চিতরা
আলমকে
জযদেব
সমমানিত
##সফরত
গারলস
আকাশের
সামযিকভাবে
উততরাধিকার
সৌরভ
অনিরদিষটকালের
ঝলে
রিং
হের
িছল
নিই
##বিট
কোপা
##নদিন
মহিল
বরডার
সংবাদপতরের
সরকারিভাবে
পরচারণায
বিবেক
##হীনতার
হাজিরা
১৯৮১
সমরণীয
কাযেস
শহীদললাহ
পরবণতায
পরবাভাস
দাতবয
অভযনতরে
##জমা
##বিসি
পরধানত
##সেফ
অনেকদিন
অপরব
মামলাটির
পরারথীকে
আসামিকে
বিদেশিদের
বাগেরহাটের
হাতিযার
পোশাকশিলপের
অসাংবিধানিক
অশল
##রীন
আমরাই
##াহারে
বিরোধীদের
সাবধান
রোগীর
রোগীদের
বাচানোর
কৌশলে
কফ
##ীনা
##তই
সেনারা
বহসপতিবারের
জবালাও
কালীগঞজ
জোযার
গণতনতরে
অনেকেরই
হাউজে
লকষণীয
ইনদোনেশিযার
ইরাকে
এনার
ধম
রঞজ
হেমন
##ানিমলক
সমরাট
দলও
মহস
মহলে
হাজারী
বিভাগকে
সারি
বযাংকগলো
সবীকত
শারলক
কবলে
ফটকের
কমলাপর
সপযানিশ
কাকর
ঢাল
##ডল
সমীকষা
যেটি
##জনীন
কিড
উদী
মিটিং
চালকদের
বিরদধেও
##যোজনীয
এবারো
সাতজনকে
এগিযেছে
কিউই
তৎপরতার
চকরের
উডাল
মকবল
ফাটল
ইভি
জাই
নেল
সাইন
গরবিত
নিরবাচক
দিনশেষে
১৯টি
মযাথি
বারি
গরেপতারে
১৬২
খলতে
ফরিদপরের
শতাবদী
দৈননদিন
অগণতানতরিক
বিপাশা
ঘাত
বিপি
##াবাইট
##ঙগন
সরওযার
অধিব
##টটোর
সেনাস
ফরমে
##কমকত
মাহববে
হতাশার
##পনথীদের
মিলেছে
ছিডে
ফাতেমা
মানসিকভাবে
পাতার
##ইযে
##বাই
সরযের
পরিমাণে
এনাম
মাহমদউললাহ
ওভারেই
কথাস
ভটানের
কাফকার
টেকনোলজি
লিবারেল
মতযবারষিকী
টেলর
##চাক
##এনি
বিউটি
##াবতী
পারকের
গরর
জানিযেছিল
ছাতরের
খবরটি
লাগল
বালক
বজর
##বালের
##রাহী
সবাযতত
দেশগলোকে
চারে
চারটা
খালেদাকে
দাযবদধ
##মনীয
বিরোধীদল
১৮২
উপদেষট
হালদার
দঃখের
টারগেট
বেনাপোল
পরানতিক
ঝডে
রদধ
৯০০
##ধিতব
মোখ
দরপাল
সটযাট
পরতিযোগিত
উনমো
কষতিগরসতদের
গোযেনদ
রকিবল
কাঠের
জাদঘরের
##সংগঠনের
পলিথ
লিবিযার
সনাতকোততর
##বানি
##দদার
##ছডা
##োটা
পরী
##যাদ
পারাপ
##দধতি
পেক
লীগে
অযাডি
সাতটায
##জীবনের
আবেদনটি
দমনের
উতথাপিত
কাতারে
বিসমযকর
পরিযাঙকা
##কাহিনি
অবিশবাসয
সরবাধিক
গযালাকসি
পিতার
##েতর
##ামবার
##াবদদিন
অনন
গরন
কেটি
জানিযেছি
ধারে
সাতার
আরেকট
উপসথাপনের
বীমা
পরযবেকষণে
ডযার
ধমপ
ফযেজ
##েদেশ
##চরা
##চরে
##নিযায
অবশিষট
দরগত
হাসতে
উদয
সাংবা
নযটা
বডো
আনবে
অপরের
পিবি
উৎকণ
বসবে
##সতাফা
গভরন
আবহাওযার
নাফী
ভিলিযারস
ছবিসহ
দযেক
মযাল
লবার
লেক
সকে
আরএম
পলযাট
গতবার
থাকল
মননা
উচচশিকষ
অভিনেতার
নাসরিন
পরামর
সিডনি
বিপরযসত
##ৈনিতক
মোজাফফর
অশলীল
মসতফা
যতন
ের
৫টায
##োততর
##ীরণের
##দিনে
গেমে
পরথমবার
গণমি
রিফ
চকতিবদধ
মজদ
রোগের
নজরদার
পরতিরোধের
ইঞজিনিযার
যগোপযোগী
জাকারিযা
ইনফরমেশন
##জোট
##োরট
##ধরমী
##গরামের
চেযেছিলাম
২১২
কনটর
আমনতরিত
অনধাবন
মাশরাফির
অনসনধানে
গেযেছেন
অভিবাসন
এসএটিভি
পিলেশর
পরেষণে
আলবদর
কযালি
গাজ
ঘাডে
টযান
ভীতি
##কিতে
##কলার
##টকো
বিশবজিৎ
বিভাজন
পলিট
সেপটেমবরের
আটকের
সৌভাগয
খরচে
ফরিদা
আসেননি
২০২০
পারশববরতী
##বারয
জানমালের
নিরবাহ
##িশিযাল
আশর
১৬৫
পকষই
অনতরভ
মৌখিক
কাঞচন
শীতলকষযা
আসথার
##সিকে
##দিত
##ছিযে
##টেইন
সকাই
নামও
চৌদদ
সেনের
দিদার
বাডিঘর
১৭৩
##উদদিনের
কোরবান
মনোযোগী
ছাডেন
কেটেছে
##াগলোতে
ইজারা
আখতারজজামান
করমশালার
নীরবতা
রাঙামাটি
অঘটন
ফজিলাতন
অভযরথনা
কলি
মরি
##লান
সবজনের
কমতে
এলিজ
মোহামম
মিশনে
ইনডিযার
কিশোরী
পেটরো
সনতানকে
এশিযায
জগৎ
সিইও
বেইজিং
মেমোরিযাল
সেনটরাল
##পরণোদিত
কিল
ঘডি
ডাযা
দাদা
রজন
রমে
##াবান
অনড
টোটাল
বরণা
১২৩
##ীকষিত
হাতছাডা
সবৈরশ
মালটিমি
এযারলাইনসের
মভিজ
নারগিস
গোলটেবিল
পরিকলপনামনতরী
গাদ
ছাযান
শিযা
পরদেশ
##াকান
সমননত
##ডেম
১০৪
১০৩
ওইসব
মারিযা
##ারথে
##ফেস
অনিবারয
১৯৮২
সংগীতশিলপী
বোলাররা
মাদকাস
করিসটি
নিরবিশেষে
শরণারথী
##হাজ
করানোর
কষটিযার
##ঞজার
বেশকিছ
পরতীযমান
পালায
পরিবেশগত
শিলপা
সমরথনের
পশর
১৯৭০
কানটরি
গডেন
হাটহাজার
গেমস
অগনিঝরা
বরাবরের
পরতিপাদয
হানা
##করিয
##ডকে
##ারীতি
##বারষিক
কমছে
করমপরি
কাঠামোর
রেখেছিল
চাযনা
১৯৯৩
নৌকায
বিশলেষক
সাধন
চোরা
ইউকরেইনের
নেতরকোনা
কতিপয
সহানভতি
চাযের
জী
জমার
ঝট
##খল
##কেটে
অনকল
টিট
পরসকত
মরালি
ওযাচ
ওযারক
আযম
মিযাকে
যথারীতি
আসাদল
শকতিকে
সটিভেন
সানাউললাহ
অযাপলিকেশন
ওপ
খাট
িতে
##বারতায
আরবে
হাজারেরও
মযাডাম
বোতল
##মলযের
১৬১
##ডিযাম
উচচমাধয
সাইদ
রেলসট
লিখেছিলেন
সথগিতের
আকরমণভাগের
কাসেম
সপরশকাতর
এি
ডব
ধোন
##লেশন
##মাতরিক
এসইসি
বারসার
পাচটা
জোটে
পনরবি
##গলোতেও
অরধশ
পরশংস
সবেচছায
উচছবসিত
িতিনিধ
দরপাললার
ঘাস
ভোল
মোগ
মাপের
##ংগ
রাজবাডী
সামিট
##কষেতর
সারির
মাহি
দিগন
পরোডাক
লাভজনক
সমপকততা
##শাসিত
হাশেম
বিএনপিসহ
হযাটটরিক
নল
ভিশন
##পাকষ
##োযান
অসামপর
এমনটাই
পডালে
দাওযা
ওযেল
নিষকরিয
অভিনেতরীর
কষমতাসীনদের
অসবীকতি
নিরমাতাদের
করলো
নাযে
আওযাজ
লিও
হাতির
দবিতীযবার
জীবনকে
পরতিবাদী
বোঝানো
ওঠান
##ফেসর
ধানমণড
##েনসিযাল
ঘনটার
##ঘাটা
গিগ
পরযালোচনামলক
অরধশতক
জিডিপির
শিনবার
অশর
জসীম
পকরে
বশির
মই
##জিন
##জাহান
##কিন
##যকতি
##তলার
##েনটারি
##নেসা
জানাবে
পলাবিত
##ঞজসয
অরথাযনের
খেলবেন
খেলাপি
সামনেই
১৭৪
গাছে
সমাজকে
##ঙকশ
##চালকের
সবরত
নিরমাতারা
গোপনীয
যানজটের
যোগযতাভিততিক
এডিবি
মধযপরাচযের
শামসদদিন
টাসকফোর
খদে
জঘ
যম
##িহ
পরখযাত
জনমের
সিনহা
দবিতীযবারের
সকলকে
আতমপরকাশ
সবাসথযসেবা
টযাকস
##বিধির
হাউসে
সেনাবাহিনীকে
সষমা
কালিযাকৈর
ধবনি
উইকেটরকষক
ষা
##সাগরে
সেটার
##িমার
নযজন
উততরণের
কারযকল
পরতিনিধিদলের
বইটির
সংশোধনে
এনেছেন
ইংলযানডকে
মমবাইযের
ইংরেজী
টিকিযে
দেরিতে
সটাডিজ
অমীমাংসিত
বরিসবেন
ফেলো
##সিসি
##পরবণ
##িরোধ
জানতাম
##টেবল
পদমরযা
##গাছা
আহবানও
ভাবছি
আফরিকায
জামাযাতকে
বাঙাল
ভইঞা
খসডায
সিএনজিচালিত
মীমাং
টেকনিকযাল
ইবো
সধা
##িটি
##ইডি
##দাম
নিরঙকশ
করাও
সিচ
পডেছিলেন
অকসাইড
পরণিমা
নিষপততির
মেযেটির
##নাময
খেতাব
ইকবালের
হযাপি
##দোষ
নিকোল
গাইবানধার
রদবদল
আইওএস
বরণাঢয
ইল
ঢোক
তিল
মসক
রিযে
শবে
##মবিত
##খাতে
##াইনের
রাজৈনিতক
কষকের
বিভকতি
##ংশলিষট
সামলে
লাঞছিত
দলেরই
মিঠন
##দেজ
##ভিং
ঠিকঠাক
দরততম
গভীরভাবে
একাংশের
গাডিবহর
বিডিনিউজটোযেনটিফোরডটকম
ধানমণডির
টয
মকস
রানি
একতরে
নতনভাবে
সনধানে
তখনও
বিবেচনার
টরেই
##াতনামা
পরিদরশনের
রপানতরিত
পলাসটিক
পরচছদ
এিপ
##চেনা
শিকষাকে
জীবনী
বযবহারকারীরা
মহাসাগর
শনিবারের
বরিটেন
পররাষটরসচিব
লাইট
সলোগ
জারনাল
##কেনদরিক
উজজীবিত
উদদীপকের
কেলেঙকার
সাংবািদ
জঘনয
ওলড
নাল
##িমপর
ঘটানোর
আইনানগ
অপরণ
ততই
হাতেই
উচচশিকষা
ধরমঘ
১৯৪৮
কাযেদার
উদভাবন
ইনদোনেশিযা
জেনিফার
অসামপরদাযিক
জাবে
##কিছর
দিলেই
জিযারত
পঞচগড
আমিরল
গনতব
ফিলিসতিনের
দকষিণে
ইবোলা
##িযামের
থাকতেই
ধরমান
##বাসের
পদাযন
ওঠেনি
বরাউজ
ভযাট
রপে
হসেইন
##লেতিক
কোণ
কোলে
সাও
##টরির
আইডিযা
হারট
পাচজনকে
##মনতরণাল
১৩১
চাননি
হিসাবের
অভযসত
বাচতে
বিএসএফ
রবেলের
##ঙকো
##ষকারের
##াহিতয
সেভ
দরবার
মেটাতে
পরিচর
ইনভে
জববার
বসতা
িবএনি
অনলাইনের
##িলেয
পরসিকিউটর
ডিভাইস
অগাসটের
লিভারপল
হাতবোমা
##লানা
মহডা
বেজে
পরোটা
উদযোগী
যাবো
সভাষ
দোকানপাট
ঈদগাহ
অজঞাতনামা
সযামযেল
দবিতীযারধের
ডাউনলোড
মোশতাক
কানের
টির
##নতরীর
বিরতিতে
##াতেও
১২১
১৩৪
রাযকে
বাসতবতার
##োজেন
২২১
পরতিকল
পরেরণা
মোশারফ
োসামবার
পডাশোনার
ওযাশিংটনে
কিরণ
সারবভৌমতব
হামলাকারীদের
সইজারলযানডের
তিতাস
এবছর
গোধ
গডি
##ছনদ
##কারখানা
জনপথ
রেযেছ৷
বিদবেষ
মিলবে
দলীযকরণ
নাইকো
িবচার
অনরোধে
উততীরণের
রযযাল
##টরিং
হাফিজর
যানবাহনের
টাইবরেকারে
কমনওযেলথ
চমেক
##দষণ
বাউন
##সথাপন
##টারন
মানষই
মামনের
১৫৪
পথচারী
চটটোপাধযায
পোশাকে
মিশক
পাহারা
তহবিলে
পরকতপকষে
হলিউডের
গীতা
কোসটগার
ফিফটি
অযৌকতিক
অমল
সোর
হৈ
েম
##ঠার
সমী
##বাডির
তাকেও
আরোপের
##িংযের
আরেকবার
পরযকতিবিষযক
কমিশনারের
চযাডাঙগা
কলিনিক
বিশলেষকেরা
ইহদি
আতিকল
ফক
মটর
রখ
##ালিতে
##পরার
##পরারথী
আগমন
কষত
টোকি
অনেককে
লিডার
পথচার
মাহে
##জজবল
##গময
চলচচিতরকার
নববরষ
তরণী
মওলানা
জটিলতার
ফতললা
ভোটাধিকার
চোরাচাল
কযাস
টিস
পহ
িবেশ
##দাতাদের
নিরদোষ
সরকারদলীয
রাঙগ
##যোদশ
১১৩
রৌ
পিএইচ
##দীনের
মরমান
জাহিদল
দাি
সৌময
সেলফি
ইনডিপ
ডাকাতির
জাহানারা
মধযপরাচয
অগনিকাণডে
অনিশচযতার
কযাটাগরিতে
এতিমখানা
##পাকষিক
আদি
ফড
##পাক
##গডায
বিছান
করেসট
##মানব
বেডি
ইনজরি
রাষটরপতিকে
মাহফিল
শিশতোষ
হাইসকল
##খােন
দটোই
বিভরান
মাহফজর
সযাটেল
মরমানতিক
ইবাদ
দাদ
২টায
করান
উইকি
কতগলো
বিপলসংখযক
তহিন
সংখযায
ছককায
ফরমালিন
উমর
জলপ
তযা
বালি
##য৷
##ইযা
বিঘা
##তাধিক
যাও
বেসিক
নামবার
পাচটার
ছবিগলো
শিশটির
হমাযনের
বিলাস
বিপলবী
সাবের
আমিনর
উরদ
নযাপল
ইবতেদাযী
কথাসাহিতয
ছাগল
##মানে
##পিযান
##সিফিক
১১১
##ধরম
২০১৯
আতমতযা
বিকষোভকারীদের
নাজির
চালককে
১৯৮০
শীষ
সংবাদমাধযমের
গীতিকার
এহসান
পরোটাই
তবরানবিত
এটক
ঝডের
পডি
ভিস
সনায
##ফেনস
##বিবাহ
##রিপ
১০২
মানষেরা
আজকাল
##িতবয
আলীম
নিরদেশনায
ভাবি
কিংস
চিনতিত
চিনতাভাবনা
ভিততিহীন
পরাণহানির
সীতাকণড
বিনোদনের
পহেলা
মাপ
সেশনে
হযারিস
##জানা
##যেনের
##াককষে
##াহানি
##টকের
আগার
উদঘাট
বোমার
ছযটায
##মপতির
সনদরী
নাজক
ভইযার
##শরেণ
উরগযে
পরণোদনা
কদিন
ননদী
পরফেসর
##লেম
##তাপ
যেই
পরকাশয
মাসদের
সিরীয
সতরকতা
গাডিচালক
##বহল
##পণযের
পরচেষটায
##বরধমান
অনষদ
মযনাতদনত
আতঙকিত
মোসাদ
কযানটনমেনট
ছাই
ভলের
ভষিত
হেরা
##ডম
##ষেধ
##ারোপ
##দেশীয
১৫৫
পাঠকদের
শিশসহ
কনডিশ
বিলডিং
সমভাবনাময
দবিমত
##িলোডেড
দারিদরযের
ইসহ
কতব
ফেরে
রকেট
হেই
##মবী
##ৈক
##টরের
বিষণ
চারা
পরতযনত
জিহ
গোলশনয
শিশির
আটটা
সফরকালে
সলিম
নেতারাও
##নিরদেশ
পতরপতর
মাহমদের
ভযানের
এগোতে
চেলসির
অে
ফলো
যাম
াহ
##চাপা
##ষী
সমতায
পরতিবাদের
উপকমিশনার
##িকষত
করমবরধমান
কাজগলো
সহন
চারজনের
এমনটি
সযোগে
বযবহারিক
ঘটনাও
পরশনই
জানাচছেন
২৩০
খোজা
সৈযদপর
নৌযান
সমতিচারণ
গরাহকের
আনষঠানিকতা
টরাসটি
সবতঃসফরত
খাস
গযার
তাব
রিলোডেড
শেল
##াইড
সেভেন
পাথ
মাগর
রাউ
দরগা
পথেই
২০১৮
ডিএনএ
ধারণার
সইস
জাপানে
তাজউদদীন
সামযিকী
বদরদদ
শলোগান
আফরিদি
উদদীপক
কদর
রযাব
##চকর
##কষিণ
##বাণী
করমশ
বযাচের
এমিলি
থাকন
##ারথীদের
##াকারীদের
গরেট
কারযকারিতা
##সংগঠন
োঘা
##জারভে
##শিলপের
সাহাযযের
উপপরিচালক
গানধীর
অভিমখে
োদেশর
##ঘণটা
ষাটের
এদেশে
শোর
##ভিক
##াদারি
পাডায
অবযব
হাসপাতা
সিএ
সথানের
লাঠ
##এসপির
কলানত
নিরমাণকাজ
অধীনেই
বাধন
কলিনিকে
রোজাদার
ফলাইটে
লেখালেখ
সওদা
পক
ফন
রত
সাবি
##লাস
##বরা
তারান
##বিশেষে
পাউনড
অভিযা
অসামানয
ঘোডা
১৪২
গাছপালা
লাইনচযত
শফিকর
মোতাবেক
রাজনীতিকদের
এনডিটিভি
দেশপরেমিক
ভিকটোরিযা
ডযারেন
উচচমাধযমিক
আিম
সজা
##ফরে
##চনের
বাধে
সবশেষে
দরাবি
##নদা
গোছ
পকষকে
ছযটার
বযাপারেও
চাচাত
ভবিষযতেও
জমম
মামনল
ঐকযবদধভাবে
সানতবনা
##িধ
##শিশ
##শনার
নাথ
##যোগের
##করযাট
কারগো
আইটেম
সামর
লিফ
নিরাপততায
আনদোলনকারীদের
ঘরিযে
জিতেছিল
লোহার
হরিণ
বিরাজমান
রিমানড
ছাতরছাতরীদের
কনভেনশন
বাচাও
কযালিফোর
উইকিপি
চন
ধস
পঙক
##ৌ
নাহি
মাফ
সিঙগ
পিচ
বাকী
##দানী
আইনজীবীর
জবালানির
##েবক
##শীষ
িকছ
মহীউদদীন
সরকােরর
ইযো
সয
##গেই
##বিশেষ
আরমান
##যেনট
তাকেই
ভালোভাবেই
পরশনটি
ভেজাল
পযেনটের
কষতিপরণের
##গরহণের
হসতানতরের
পোডানোর
নীতিনিরধারণ
দকষিণের
সনেহ
জীবনযাপন
এএসপি
দমপতির
পৈ
শখ
##ংগো
##ানষঠানিক
##ামতো
##িসটার
নিরবাস
পাটের
রাজাপ
দিনভর
মারামারি
কেনে
বিচারকদের
অযাথ
সিনেপ
মরম
##ধারীদের
জানাযনি
জাযগ
মহানগরীর
তরযোদশ
সফিযান
##হাতি
১৯৭৮
ডাচ
আলমগীরের
সাকষর
নিখত
বণিক
সিআইডি
মেজবাহ
সিগনযাল
আতমসাতের
টনি
ডযা
রমা
শম
আগসটে
১১৫
খেলছেন
গোযাল
##তযকত
এবারে
কযাশার
মাঝি
মোবাইলে
পাইপ
ভোটারের
গযাটকো
বিবরণী
কলমবো
ইনডাসটরিজ
বেদনা
পরতগাল
পযাকেজ
আশেপাশের
চোপডা
নবনিরবাচিত
টটেন
ডল
পরাপতির
করাসহ
সরকারমনতরী
দরপাঠ
দেখেই
আশচরয
গণনা
বহর
১২২
পরতয
টরেনড
জাভেদ
খেলাটা
##চছনন
১৮৯
উদধারকারী
শেবাগ
কানন
কথোপ
লোকেরা
নিরধারণে
বাঘের
হলিউড
নীতিমালায
বনধতবপরণ
যোদধ
করমপরিবেশ
ইলিশ
সনো
সঞচার
##ভোজ
বিশদধ
সাথ
চেমবারের
মলযায
রাষটরাযতত
২১টি
ভাবছে
রেললাইন
আইএসআই
চালাচছেন
হরভ
বরেক
আতমীযসব
শিখতে
##চাপায
অচলাবসথা
জীববৈচিতরয
অসতয
রেসিডেনসিযাল
টটল
ভিকার
##ীতের
##ফেরা
##তাক
##াববার
এরিক
উতপাদ
অংশটি
হতযায
ফিলড
১৯৮৮
কাঠগডায
রকষণভাগের
পরদকষিণ
মোকাররম
ভৈরব
কটক
নবাগত
িনয
##মলে
##বাজি
আমিনের
নামকরণ
দােযর
আলোচয
গরামীণফোনের
মেরিন
টাউন
মোতাহার
নাইজেরিযার
বঙগোপসাগর
গফর
চযারি
জভেনট
িনি
##টিসি
##ামখী
##াপনের
সেটির
সরকারী
এমএল
পরশরয
নেওযাজ
ফরাস
সরবোপরি
নিরযাতিত
সারাদেশের
লযাবরে
সটরিট
খোরশেদ
তাকা
##তাল
##ছক
বািড
নামেই
চারটায
১৪৫
পকষপাত
##োপাধযাযের
দাডান
জাযানট
উঠিযে
সাবযসত
ফারকী
মেরি
মাহববউদদিন
কাযেদা
পনরবিবে
কথোপক
চলো
সরাহ
##ডেনট
##৬ঘ
##কেদর
##দেরও
তািল
বাংলাদেশসহ
কষধা
##রথন
সহপাঠ
হোযাট
১১২
অরগান
ফলপরস
নরজজামান
ছোটবেলা
অভিনযশিলপী
ভোটগরহণ
বেলন
বিজযীদের
নিবনধনের
বাযো
ডেমো
##সপিনার
রেসটর
অবমাননা
ছরিকাঘাত
টেকনাফ
মোখলে
ওপারে
চঞচল
লিন
করেছ
এইসব
রাউনডের
বিভেদ
সামলাতে
উততরণে
বিরোধীদলের
বরতমানের
লোকসান
১৯৭৯
খাদযমনতরী
রকতে
পরোগর
উইলিযামস
পরতারণা
বাসিনদাদের
রাকিব
সযাটেলাইট
ঘাম
রিকি
পরদেশে
বলো
জাননাত
আলটি
অভিযোগও
##টটায
১৬৩
ভিআইপি
মহাখালী
কাউনসিলে
খাটো
মিশনের
ভযানে
দরযোগের
শরিফল
বইমেলায
যাতরাবাডী
পিযা
রদর
##মিস
##উি
দলটিকে
সকোযা
##সতান
কলঙক
রেগ
ফেদের
ওযাটার
##াসথলে
খাতকে
ভবনটি
অমানয
মাহাবব
ইসহাক
বদরদদোজা
সওদাগর
গাযের
গাজা
নরে
ভরি
##রমে
বিমোচন
##াযলা
নিছক
পারলেন
সথবির
কলাক
ভাঙগা
২২টি
পাসওযারড
দবিপাকষিক
ভোটাররা
সিরিযাল
সমনবযকারী
ককসবাজারে
মানিকগঞজের
##াপিছ
বিঘনিত
আনশকা
ইভিএম
অয
অেন
খতি
খচরা
ভোলার
##িদা
সমাপত
##পরণে
বলটি
##িসম
##যানষঠান
তাতেই
অনযথায
সমমনা
ফারমা
মযাচেও
সংশলিষটরা
পরাণীর
বেগমকে
ডিজেল
বাজিযে
মাথাপিছ
জনগোষঠী
পযারিসে
জযোতি
বাসসটযানড
বরোঞজ
মহসীন
ইডেন
সদে
##দদের
##িনস
##ঙগায
পেটে
সভাককষে
##গরামে
সপাই
মিলস
##মখর
##শালা
পরতযাশার
খনির
বিলমব
##বদয
##ধবনি
মেযরের
এককভাবে
কাচামাল
উদদীপকে
অমানবিক
রাশেদা
বাউনডারি
কেজরিওযাল
ওভালে
আতিকর
জাপা
ঠা
##যতে
##৭ঘ
বিহ
বাডলেও
মরতি
৪০টি
সাইদর
মশকিল
সরেফ
অযাকাডেম
ধাওযান
ইনসটিটিউটে
গিটার
আমদানিকার
মতিঝিলে
আইএমএফ
অরধশতাধিক
ওযানডের
চরির
সসং
বিএ
পাতর
##ীগলোর
##ঞজি
মানষও
গণঅ
অনযটি
বাংলােদেশ
বাকযে
ফারজানা
মালিকেরা
এপরিলের
যদধবি
মিছিলটি
অবসরের
মশফিকের
দাখিলের
চোরাগ
অগনিসংযোগের
ভিযেতনাম
বারানদায
বেডিবাধ
টকরো
##টান
##টারসের
চেহার
দইটা
বিভিননভাবে
হতযাযজঞ
বাহিনীতে
নরম
গলাস
বিনিযোগে
তেমনই
মওক
মনিটরিং
উততেজিত
চিলডর
যৌকতিকতা
জনমবারষিকী
রিযেলিটি
নওযা
িসে
##যাতের
অননযা
উপমনতরী
পলযানট
১০৭
বিশেষাযিত
পরকট
অযাভিনিউ
বযবসথাকে
রিভিউ
দাওযাত
ইউনিসে
যনতরণা
কৌসলি
১৯৫০
জরিমানার
নওশ
##ভাষী
নিপীডনের
বাসিনদারা
মকসদ
রজ
##৪ঘ
##৮ঘ
নেক
কোত
গেলেই
আদলে
পরিচালন
সপন
বিচারবহিরভত
সাংবাদিকেরা
##সনত
সমালোচক
দরশিকষণ
বিনষট
মিশেল
সেটিও
যাতরীর
শামীমা
কমিউনিক
পরথমারধের
ইশতেহারে
অধযষিত
জালিযাতির
কারলোস
##গতা
পরবাসে
পাচারের
উপকত
পলক
সোপরদ
##ীকষায
ডিএস
##মযানের
মিলানের
এনসিটি
মাঝমা
##বিদযা
মনদা
পরাসঙগিক
হাসপাতােল
ঝা
সতম
##িসর
##বিও
বযাব
দইটার
দেখাচছে
বাজারজাত
পরযোজনায
ভেটটোর
২২৫
পরিকলপন
৩৫০
কারযকরী
পযাসিফিক
রাইট
অনিরবাচিত
পষপস
আইপযাড
এটার
ওড
চডা
ঝাড
ীর
##সাজ
সেহেত
বিশবকে
##খানেক
আনগত
আযমের
বছরেও
বাকিদের
রপতানিতে
মেযাদি
পশচিমবঙগে
অভিজাত
টিআইবির
সমনবযের
মাইকরোবাসের
পরসিকিউশন
একদমই
থার
রইল
াল
##গনধ
##িকইন
নাতি
##োগয
বলেনি
আগরাস
১০৬
১০৮
ইসলামসহ
অরথনীতিকে
রাখি
##জিদ
২৪টি
পাইকারি
বরণিত
রাজধানীসহ
বাঙালিদের
খোজখবর
##সংগীতের
ঈশবরদী
জযদেবপর
ইমদ
দিযা
রাবার
##বোন
##শিম
##ডিক
##ংরা
##৩ঘ
পরিল
জনাব
অনতঃ
পলটনের
১০০০
জিযাসহ
চাইবেন
রেসি
সটযাম
##কষণিক
রপসী
হাজি
পতিনের
১৯৮৩
জাগিযে
কাদির
বিকাশে
হাউসের
এফবিসিসিআইযের
ছতরভঙগ
উরধব
গিব
ঘেষ
ছ৷
ডারক
ফোক
লাত
##িছ
##াবরত
সবকিছর
আগরত
##াদেশিক
সােবক
রাশি
সমপরীতি
আমারও
গোড
পরিচালকদের
ফারগ
##বোঝাই
জলাইযে
##েজর
সইডেন
##পনথীরা
পরজনন
রাববি
পটযাখালীর
নাদাল
##াইজেশন
সোসাইটির
বাযারন
পরেকষাগহে
পষপসতবক
মশার
##গেন
অনরাগ
মাচ
##টিরও
বেলে
উততযকত
রাখলে
##ষটিক
গিযেও
রানন
##দরশী
১৪৩
১৩৩
িবষ
ইবরাহী
নিঃসরণ
কাগজের
কারিগর
অবকাঠামোগত
এএনএস
সটোরি
মযানডেলা
এনাযেত
অযাথলেট
বদলের
##মকতি
নিস
নিদরশন
অনচছেদে
##জনযে
##িতবের
##বাহিত
দরতই
পরশাসকদের
দশযত
নাসিরউদদিন
উরগযের
মযারাডো
জনসাধারণের
চাদের
পরাদেশিক
পারটিতে
এমাজ
বরযানডের
মতল
হিসেব
গণত
##লারের
ছাতরীর
##সমহের
সরবকালের
রেহান
ডিসিসি
দামি
অনশীলনের
একরকম
এনারজি
আচারয
চাবি
জযনত
হলাম
োহ
##কতারা
##লাব
##সনধ
##ভিলি
##ালযে
##উলিযা
##বেরাধ
রামপ
আতঙকে
মৌলবাদ
ভযেস
পারফরমযানসের
ফিনযানস
ছরিকাঘাতে
সরাহা
ইদানী
শীল
শংকর
##যাজন
##বংসী
মাে
মানবে
গণি
দাবী
অরধে
কালা
জোযারের
##সীমার
মালিককে
খাদযে
গডায
##বাডিতে
দাযিতবরত
সথলবনদর
কচকা
ঋতপরণ
পরতিযোগিতামলক
পঙকজ
আকতি
ইটের
ছিনন
আমা
##রিশ
##ফোরসমেনট
গণহতযার
অনেকখানি
মাসবযাপী
কীট
পরাণে
ডিসপলে
চিকিৎসকেরা
নরজাহান
উচচতায
জেদ
বাণিজযে
লাইবর
ফোরস
কাযদায
সেমিনারের
কষযকষতির
হযামিল
রপতানিকারক
ভাসকরয
জলাবদধতা
অদরে
অঞজন
আপত
পতে
ফযাম
মভি
##লভ
##বততি
##বিএ
পরিশর
হোন
##িবদধ
বিএনপিতে
১৫২
মিলিমি
বোস
দাঙগা
রানেই
শারম
জঞানের
কষোভের
বিদরোহীরা
খরিষটান
দফার
বছ
##াইর
##ঙগনা
##রিজ
সিগারে
বহজাতিক
আছেই
চৌরাস
উইথ
পডলেও
সচিবকে
ভাবনার
তাতেও
িবষয
চযামপিযনরা
শনেছেন
কমিললায
বোনাস
পরবনধে
গরাযেম
উচছবাস
এমপিওভকত
সকাউট
বালযবিবাহ
পরশংসিত
াত
##মিতা
পরথা
করই
বিসত
দেহের
অনাকা
দিপ
যানতরিক
কতজন
সীমার
রেললাই
দোসর
##বাজারের
টরাভেল
মেলবোরন
ইযাজউদদিন
লাঠিপেটা
ধোনির
ভখ
রজার
সোলায
হীরা
##লকে
##সংশলিষট
##মাত
##বাশ
অনবদয
দরপত
##তনামা
হোমস
সামঞজসয
ভাটা
হাও
গিযেছে
পকষেই
২২৪
সথাযীভাবে
সফলভাবে
বালর
শিবিরে
কণঠশিলপী
উততোলনের
গণপরতিনি
ভোটকেনদর
সবীকারোকতিমলক
ভেনেজ
িছেল
##তবধ
##াগারে
বরহম
##লিমা
১২৪
মনট
পথসভায
হতযাকারী
দিচছিলেন
##চিতরের
আনতরজাতিকভাবে
মাদার
পনরনির
ভিততিতেই
রযটারসের
কমপিউটারে
মনাফার
রোমাঞচ
আবিরভাব
হেমনত
মোসাদদেক
অটট
গও
গির
হতিক
##েটর
##ঝে
এমভি
##াধিকার
১৫১
ডিফেনস
পিএস
মেডিকে
আহবানে
সানধয
শাসতিমলক
বোধহয
রকষণশীল
বকেযা
সাযমা
হবিগঞজের
মারকেটের
##বাংলার
আলটিমেট
ইটিপি
##গাত
##ই৷
##বডে
##চিযে
##োম
##নেই
কোমল
কেনো
১১৪
##ভিযার
ভিতরে
তরক
বিকষোভে
কমারের
দিনেও
সেততে
করীম
সোনালি
কষণাঙগ
পরতীকী
তোরণ
নজিরবিহীন
পলিটেক
উইলিযামসন
এলিজাবে
গমের
ঘমের
ভীত
##শরম
##ষি
##ানিকে
##াবোধ
##দধি
বরষণ
সথাপত
জিও
হাটে
মালালা
পেযেও
##আরপি
২২২
সমালোচনায
যদধাপরাধীর
সিদদিকীকে
অপেকষাকত
পাহাডে
কোমপানিটির
নিরধারণী
কটটর
বরাউন
অশোক
কাযেম
মনজরল
লাফিযে
এমইউএস
সটযানডারড
তযাগের
ইমদাদ
আটটায
কবল
জতা
মানোনন
মানসমমত
##হারে
ফেসটন
সচিবদের
মাতরার
পরযোজিত
অসটরেলীয
আহমমদ
নিউইযরকের
ইউরোপিযান
সনতোষজনক
হিংসা
ভকতরা
##মিল
##১ঘ
পরার
অনিল
বযাটে
আহতরা
বেতনের
বিকশিত
পডেছি
বাডিযেছে
অরফ
পরতযাবরতন
নাসতিক
সমমানজনক
অধিগরহণ
সমালোচনাও
যশোরে
শরীলঙকাকে
সামযবাদী
শলকমকত
এতিম
ফাহমি
এনটারপর
##বিদেরা
গণপরতিনিধিতব
ছিদ
ঢল
শফ
সযান
শরফ
বযাঙগাল
##তমখী
উইন
রাষটরপকষে
##হেতর
শোকের
পরতিযোগী
আখডা
অসটরেলিযাকে
তোমায
পযারাগ
সীমাবদধতা
োরাববার
শতাবদীর
হামলাকারীরা
ঐকমত
নবাযনযোগয
শরীলঙকায
লাইবরেরি
গছিযে
টযাক
থাই
লিম
সস
েশ
##সকি
##চই
##চিকে
দেশই
দরপতন
এলডিপি
ইউিন
##ীকষণ
সথানানতরের
মাহেলা
##পাটের
গরেপতারকত
যেতেই
বসেই
খরব
উৎসাহী
অসমাপত
বাচচাদের
কামরান
সবিধাজনক
দবনদবের
পরতিফলিত
মৌলভীবাজারের
অনতরবরতীকালীন
একাতমতা
মদিন
রলের
লাকস
সকেল
##েকর
##বদলের
##ভরি
পারলেই
কারিনা
মাধব
আহাদ
তলেছিলেন
নরনন
যদধবিরতি
মঞজরল
করোযে
আনিসজজামান
কষণন
জমিরউদদিন
মারকেটিং
বলকবাস
সকােল
##সবরপ
লযাবরেটরি
##জারি
##গরা
##োচিত
##িকল
##তিপরণ
##কেলের
বেস
##িজি
##সংস
এনফোরসমেনট
মরমে
লোকসভা
রিহ
মহানবী
পরকরিযাকে
জমিদার
##চেতনতা
##ভোজে
অশভ
##োলে
কষটের
সোম
মযাথ
হাতা
গঠনমলক
পরশাসনে
##খাটো
গারল
চরমপনথী
সমদরবনদর
সমদধি
লঞচের
ইযরকের
সংবাদমাধযমে
উনমাদ
কলাকশল
ইদানীং
অণ
রেইন
সনন
##২ঘ
##িরক
##বারতা
##টেকস
মহারা
নামানো
মালা
##মারচ
দািব
বানান
খরিসট
ইরফান
মেরামতের
আদরশের
শোনেন
সেঞচরির
অকষয
পরহরে
আযেশা
সাশরযী
গণমিছিল
সপনসর
পলিটেকনিক
##বরতনের
শিকষাকরম
##ডিপির
##োলাই
অরথেই
অনযতর
বকতা
পাললা
পরযাক
বোরহান
কালচার
##ধারায
সহযোগীদের
এতই
ঘরানার
গারডিযান
ভিননমত
সশাসনের
কাটানোর
রযটারসকে
কৌতক
সবলপোননত
নাটযকার
আচরণে
ভেনেজযে
াির
ােনর
িবেরাধ
##ালট
সমনের
মোমিন
##াগা
আবিরভত
##ারাতি
গোসল
ফিরোজা
##পাশ
পোডাও
জীবনত
মজীনা
গাওযার
বসানোর
২৩টি
চেযারপারসনকে
বিপরী
ঘরতে
দীঘ
১৯৮৪
হাবীব
বাপপী
কলোজ
মেকসিকোর
াসীরা
কারচপি
শিকষাপরতিষঠানের
অিভেযাগ
ইনডিপেনডেনট
জলে
টানে
পজার
মসতাফিজ
সকার
সাকা
করতা
##রেক
আরজ
উপেদ
অবতরণ
গণী
কযেকটা
উইম
খানম
##ভিযান
নিশা
ওযাদদ
সপারিনট
সংশলিষটতা
ইংলযানডে
এফএ
##মালার
বোলিংযের
কাদতে
আগনেযাস
তৌকির
চাষী
উদযানের
বযালট
সমাধিতে
পরজাতনতরের
রাসলললাহ
মেডিকেলে
আনি
মসতাফা
##লন
নাচের
নেজ
দরভাগ
আলজের
বেসট
১২৭
কলাসের
খেলাটি
##আরসির
বানধব
বিকষোভকারীরা
বযবসাযীর
মযলা
দোষীদের
মজমদারের
জনমদিনে
সারবকষণিক
অভিবাসী
সটিফেন
আবেদিন
মাইলফলক
বঙগোপসাগরে
কাটাকাটি
গাদদা
সলোগানে
উকিল
চডাও
ঢেকে
##বিনে
##চলা
##োয
##পরসত
বলগে
একটিতে
রাজতব
কষদে
গরীব
কেপ
সামসল
অরথবহ
১১৬
সারজেনট
শিলপকরম
জলিলের
সযোগও
শিশটিকে
ভাগনে
শিষয
শাযে
রপালি
নিউক
যতকষণ
আতলেতিক
তারিখের
অঙগসংগঠনের
পরতযেককে
মতযদণডের
সিসটেমের
নতযানষঠান
বিটিআরসি
পঞচাশ
গাবতলী
গাজায
##ংকে
##াজল
সমার
বেহ
##সেই
##ডারি
দেশেও
পরতিষঠানগলোকে
জাযগার
পেছানো
িনহেতর
টযাংকার
বহিষকত
হদযের
সকরিন
অপচেষটা
পলিথিন
মালটিমিডিযা
পকেট
##াংশ
##গঠিত
##ভীতি
সমাবরত
১০৯
বেশিকষণ
মিগ
সদসযসহ
জামালের
পাচটায
সাংবাদিকতার
জাগরণ
বযবসথাও
##মখে
বোকা
সংগঠনকে
বিতরকে
পশচিমে
ডরোন
ফেলছে
গভীরে
ধবংসসত
অযাডাম
আরিচা
গমভীর
নীড
এজাহারে
তরাগ
শরিফের
সাযমন
ছিটমহলের
বইমেলার
##গোষঠীর
রোহিঙগা
ইবরাহীম
গঙগা
বসল
রঙে
লযাম
##ওলা
জননী
মাধরী
মেক
সমযকার
জাতের
মযাশ
চারশ
কলমে
ভাট
পোসটে
মনতরীকে
মানবসমপদ
এফবিআই
সমপাদনা
অবিচছিনন
নিরবিচারে
থাইলযানডের
হেলিকপটারে
শরীযতপর
উচচারিত
মসিউর
রখতে
ডেমোকরযাট
পরযাকটিস
##াইম
সরি
করমপরিকলপনা
আবদধ
ইউনে
তিনদিনের
পরকাশনী
লিপি
শহীদের
ভাবার
করিকেটকে
আবেদনপতর
নাজন
শরীপর
টেনিস
বরাদারহ
কযানসারের
সযামসাংযের
নাইজেরিযা
অভিশং
রানারসআপ
শরীমঙগল
লাতিন
ছিদদিক
অশাল
চাট
##কতে
##ৎসব
উপদেশ
কেই
চললেও
রহিমের
১৮৮
সথানীযভাবে
উদযোগকে
উচচপরযাযের
এখানেও
সাইদল
পৌছার
মিরজাপর
কাটতে
আহমাদ
কিউবার
বোধগময
বসতত
ফাইভ
মেহেরন
এনবিআরের
ফলযাশ
শিকষাপরতিষঠানে
মখারজি
সাতকষীরার
নাফীস
অশালীন
আযাত
ইমান
ডজন
ডাকার
দষ
ষোড
করিকইন
সংজঞা
জানালার
কিডস
পরশসত
আজাদের
জিপি
ডিও
পাচশ
হাওর
মিলল
লাগা
লোককে
সমাজবিজঞান
বদধিতে
সফরসঙগী
##পদক
রাসতাঘাট
মৌলবাদী
অজহাতে
শাহরখের
ছিটিযে
কলযাণের
রিটারন
##িশরমিক
ঘে
চশ
রযেল
নিযাম
সরকারকেই
কষিজ
পলাজায
অরথাত
##সমাজ
পদমার
সননি
ফারকের
সহযোগীরা
দিকনিরদেশ
সমমানে
টপকে
##মহল
দতাবাসে
গৌরবে
তথযপরযকতির
কনফারেনস
ইউকরেইন
পরতিষঠাবারষিক
ইযাসিন
ইনসযর
মিক
রসিক
##গাল
##গানের
##শযাল
##চকতি
পরমো
অনলিপি
আরম
উপকার
##াগারের
কেদে
মানষে
রাষটরদরো
##সারিত
তলবে
গলপটি
সষটিতে
পরবরতীকালে
বোঝে
ওঠায
পরযোজনের
বিকেএসপির
উততপত
ইযাবা
এডওযারড
জিতলে
সমদরের
সেরকম
শোভাযাতরায
ফায
##টাকা
নিরসনের
শরদধার
সহসর
##মিও
উততরণ
জলফ
নিশচিহন
বাহাউদদিন
আনদোলনকারীরা
পরারথিতা
সিলভা
নিবেদিত
পাহারায
ধরমঘটের
টোকিও
সপারিনটেনডেনট
##সরি
##মনের
##তীর
##ৈকয
##াসতব
##াসীন
সমাবর
সেবাদ
পরতিভাব
##চিতরা
বেদন
সোশযাল
আপাত
##ণডার
নারাজ
লেখকদের
শোতে
পরণদৈরঘয
তাহির
ছোটখাটো
ধরমভিততিক
চাযনি
ফিফার
সপারিশের
দোষারোপ
মরযাদায
পরিশোধের
সনদরবনে
হসতকষেপের
শকনো
পিসিবি
পিপিপি
তরণেরা
ইজতেমা
কওমি
দরশনারথ
সোলাযমান
সমাবরতন
খোযা
হঠ
##ীকরণের
##ঙগর
##টারির
##টরাক
করমসথলে
সহনীয
হারাম
বডাই
পডছেন
কযাথর
বরাভো
গজরা
বসবাসরত
রিকশাচালক
জবাবদিহ
অগাসটে
ভরমণের
বলকবাসটার
ঢালী
##দাযক
করের
##াতম
উপডে
বরফ
##িজা
করমকরতাসহ
সপট
চাইনি
পিঠ
লেসন
খাওযান
সমদরসীমা
এএফসি
সংগরহে
বদিউজজামান
ইটভাটা
জিনন
দদেশের
ভাজ
াপক
##উলের
বিট
##লোন
##যেনর
অনেকা
মলধ
তাইজল
ফরেনড
বনযায
পরসতাবনা
সতরগলো
শাশ
১৯৭৬
সাংসদরা
##দাযিতব
রমেশ
ইতযাদির
##সামাজিক
১৯৮৯
ষডযনতরে
বাছাইযের
শরমজীবী
সপোরটিং
অজহাত
##বাসেডর
জনসমকষে
চিলির
##নিবেশিক
গিগাবাইট
কফিন
তিশা
নমনীয
##কাজে
পরতে
##বাগে
অনগত
সেব
##নিযনতর
আইএ
আইরিশ
১২৮
খেললে
লিগায
ডিভিশন
সাহার
বকতবযকে
নিরাপততাব
নিরদেশক
নৌকার
কেবলই
ডাযাল
ভযঙকর
শটিংযে
পরাকতন
বষটিপাত
বরষসেরা
হানাদার
নেটওযারকের
ইচছার
পষিযে
খিলগাও
কারচপির
বিএসইসি
সেলসিযাস
কোরবানির
গনতবযে
ভিকারনন
িবষেয
খনী
জমান
বোকো
রী
লণ
াথ
##রান
##েযাগ
##ইযার
##চিল
পরানো
বিসর
##যারী
দেবো
করমে
বিডাল
পেত
এমদাদ
কাজই
পরেসি
রাখায
##জিযার
পালানোর
নিযমে
দটিতে
সবাধীনতায
কনড
সেটাকে
সতযজিৎ
ডেভ
হাইডর
নৌপথ
গণমাধযমকে
এসএমই
মিডল
সিএনএন
তলনামলকভাবে
কারেণ
লগ
ালে
##সযের
##গমন
##বযাক
##ানন
##যাপত
পারের
##জনদের
মেকার
শেখের
খেললেও
জীবিকা
অযালা
অযাশে
জলম
মামলাও
২২৩
##রাহয
গলিবর
কেরন
আফস
আনোযারা
োদখা
মরযাদার
অবহেলার
অভযতথানের
বিরতিহীন
ডকটর
দশচিনতা
বাংলালিংক
##ডিসির
##ছডির
পরসেন
গরযা
রাতারাতি
আপস
বাকিরা
পৌছেছেন
করণধার
এসএসসিতে
থরিজি
হাফিজউদদিন
উদযোকতারা
কযামেরনের
পযানেলের
পরভাতি
ৌব
টরানসপার
##বিজঞানের
উপারজন
পরামরশে
নাযেবে
চযারিটেবল
আখা
ফসফ
ববিত
ভোগান
মেনড
রিম
##সতে
##মাম
##ভমির
##ণিক
পরবরতন
বযতিকরমী
সোযান
অভিনব
শকরবারের
লৌ
##যাসিক
২৩১
কযাচে
মসললি
সীমানতবরতী
পরতযকষদরশীদের
এলোম
পরতিভাবান
অনদানের
##চিতরী
শিকষানী
##মেয
বরজ
চললিশ
গণভো
চেযারে
পোষ
রেখেছি
চাঙা
কযাশা
চিতরশিলপী
পণযবাহী
১৯৮৭
তাজরীন
তানিযা
অযাকটিভ
উদযাপনের
অশবিন
বাগানে
তণমলের
নীরবে
ঠেকানোর
জলাশয
ফলযাটে
সেনাবাহিনীতে
ভালবাসা
ফারনানদেজ
সিনেপলেকস
বিপরীতমখী
টল
রপন
##নানের
##ভজ
পরনে
বিচরণ
##পিটাল
বেডায
এলাহী
বকসে
আরোহ
শিশটি
অপকরম
ইরানি
অগরযাতরা
নাজমা
আরথসামাজিক
আহবানের
গাইবেন
বাগানের
এজাহার
অযামবাসেডর
মোগল
কথাসাহিতযিক
মিলিমিটার
গচছ
ধযান
রসল
##রস
##মেনটে
##চডা
করছিলাম
সােল
সহসরা
পরসাদ
ফেযার
ফেসটি
দিলশান
১৯৭৭
লালবাগ
রংযের
ফাইনযানস
খরচের
সইডেনের
রাষটরদতের
সবেচছা
পরতিনিধির
আলোকচিতরী
অনশীলনে
সমপাদিত
ককটেলের
জোহানে
াকাে
উদীচী
অযাডিলে
শাযেসতা
উসকে
এযানি
তাসক
থা
ভমির
মণাল
লন
শশী
##রপে
##পষঠ
##সিযা
পরাগ
##িনক
অনচছেদের
শিকষাবে
হোসে
হোসেনসহ
উপসথিতির
পাশচাত
জীবনযাতরার
আযোজকরা
##ঙকন
নৌবাহিনী
বযরথতায
িনরা
১৯৮৫
সবাকষরের
পরচেষটার
মজিবের
ভগছেন
ইউনাইটেডের
ফটবলারদের
কৌশলের
খযাতিমান
জনপরতিনিধিদের
ডিএমপি
বহিঃপরকাশ
ঐশবরিযা
িবএনিপ
িবেশষ
হরভজন
অবা
ওযেন
জেরা
পপি
বাজা
উপি
মেসে
আইভী
যোগদানের
এমনটিই
চলচচিতরটির
আনদোলনকারী
একটানা
জারমানিতে
পযাভিলি
োদয৷
##িনিরভর
গনতবয
টেনডলকারের
কাতারের
কীরতি
হাদিস
ফযামিলি
কমা
জির
জৈব
তামা
দহ
নট
সারথক
##ককষে
##ফযা
সেসময
##িমল
মাসটারস
হােত
ফরযা
সটলে
সমপরককে
পাযরা
খাদযের
দোহাই
এডকেশন
তরিশ
বদলির
ইফতারের
পরতযেকেই
হারডডিস
নিবেদনের
হাটহাজারী
নীতিনিরধারণী
অরফানে
জোলি
থিম
দ৹
পচাত
##ভরা
##িনিং
##ষঠিত
সরকারবযবসথা
কেআরসি
##মিতর
জিবি
অবসথাতেই
বারো
বিদযৎস
##করমীর
যাবকে
বসবেন
তরঙগ
অংশগরহণমলক
বলিউডি
মনতরিপরিষদের
ঊরধবমখী
োবামা
কমপলেকসের
কিসতি
মলযসফীতির
উভযের
মদন
মরিয
##সংলগন
##যতা
পারিশরমিক
মাশল
অসপষট
##েকশন
অনষঠানমালা
রকষী
সংখযাও
সাইক
সনতরাসবিরোধী
একসপরে
দেবনাথ
শিকষামনতরীর
গযাং
##বোরডে
বিসিএসের
পাঞজাবি
##বিজঞানী
ফিকশন
উপলকষযে
রেসতোরায
ষোডশ
এলোমেলো
ঔপ
বাজি
লযানড
সপিড
পরন
##বােরর
অনাযা
সেগন
##দরবয
সাধয
গরিস
বাসটির
পরিচযে
আশঙকার
অযাকট
লাগাম
হেত
জলাইযের
ধরমপরাণ
ভোরের
ফোরামে
ধবংসযজঞ
শাহজাদ
পারলামেনটারি
হিগ
পজিবাজারের
কাদানে
ফসলের
ভৌমিক
ছেলেমেযেদের
এজলাসে
করসফাযার
অচেনা
আটে
নস
##মনি
##দবার
##েলস
##িসিকে
কোটায
##টকি
##যালী
সিডন
গেইট
বিকরম
১১৭
দশযের
এনএস
দরনীতিবিরোধী
তরকি
বযাটসমযানকে
উততাল
মানসিকতার
হাকিমের
উদবেগজনক
পষঠা
শানতিন
পরজঞা
অবহেল
বিবরণীতে
পষঠপোষ
অরপিত
অধযযন
মসতিষকের
রাননাবিষযক
গওহর
চবি
জিলা
পযানট
মসতাফিজর
##গী
##ডাবিদ
জনসভ
দেবা
হাসির
বহতল
ইনদর
ইনটেল
শাহে
##গেয
বিশববিদযালযগলোর
##শিযাল
খোকার
নৌমনতরী
##েনদরিক
তেতল
একাডেমিতে
আকতারের
বিজেএম
কংগরেসে
রাহমান
মকতব
দবীপের
এগোচছে
আলেম
নিঃশরত
হদরোগে
কযাথরিন
নযাম
ফিশ
সফিক
##মতয
##ডবির
##ানতের
বিচ
##াকষণ
জানাব
গতান
আবাস
আশফাক
মখোপাধযায
হাসানকে
বসতিতে
বোঝাপ
ঘনফট
পণযে
সবলপদৈরঘয
োমাহা
এমনিতে
হাফেজ
পরেসিডিযাম
অটল
এআই
পাদক
লাম
সাস
সেরি
সিযাম
##পরাযণ
##তাততবিক
জানাজায
অনার
সবত
বযঙগ
##াগান
##যনগর
আইপিএ
##সলভ
দশটি
পাচজনের
ততটা
এনিযে
শহরত
জানাচছে
সটডেনট
##াটাই
তদনতকারী
##এইচবি
কাদেরের
সংসকতিমনতরী
##াজনিত
মজিবনগর
মনদিরে
খোকনকে
অদশয
পরাঙগণ
মমবাইযে
আমলাত
গোবিনদগঞজ
পাউডার
গেরিলা
ঝালকাঠ
ভিট
রমান
##গলপ
##মিযা
##চনে
##াজীবন
দেহে
আরটস
কারযা
মারেন
জামে
হাযাৎ
হতেন
ভলাদ
##ফিলড
হানাহানি
আডাইটায
ঝিনাইদহের
বেইলি
সঞচালনায
মনসীগঞজের
সভযতার
কমবেশি
ভোটকেনদরে
নিরাপততাকরমী
দরপতনের
টরানসপারেনসি
সহসরাধিক
গতানগতিক
নকষ
পরিনট
##যাহ
নিযাজ
বযাকরণ
পরথমটি
এলাম
মিউনি
শনির
শরমিককে
কোরআ
আকনদ
জনপরিযতার
ইউনসকে
সাদিক
##গলির
চযালেঞজের
ভোগানতি
সনামগঞজের
সাঙগাকারার
বিআইডবলিউটিএ
কলিং
চট
তিকত
থারড
বনায
রনা
##পাদক
##ফতার
##ালযের
সমাগ
##বিযান
মানসমপনন
দরবারে
##ীরাও
সারজন
অপরাজ
জোনের
বিলমবিত
##ফেযার
এরশাদকে
সবসতির
রাববী
এজেনডা
ইলাহ
ওরে
দসথ
ফতার
িডে
োযা
##সেলর
##ভিকষ
##ভরম
##দানে
##বরণের
এইডস
মেদ
গরিসের
##োলের
বরণের
আশিক
নয৷
ছাতরীকে
টরেনট
##সকট
সাতটা
ফারনেস
ছোটবেলায
চাচছে
সফরসঙগ
যেখানেই
পিছনে
দেডশ
বাচচার
মনিপর
হাযদর
সংগীতায
বামপনথী
োজলার
সষটিকার
চলাচলে
লিবিযায
থরিলার
যাঙকিংযের
জাগরত
সিদধিরগঞজ
মীমাংসা
ইউনেসকো
নাজনীন
পাম
##চকে
##তরো
অনরপ
##নদদিন
১১৮
বিষযকে
অপরতল
দাযিতবও
জাহাজে
গাফিল
ততীযবারের
মালিকরা
সনদেহের
গহাযণ
দিযেছিলো
অনষদে
নওগার
কলিনটন
সবরণপদক
বদধিজীবীদের
অকষর
ফরাঙক
নিঃশবাস
ঐকমতয
বডিগঙগা
জািনেযেছ
ডিআইজি
ডাযাবে
গলে
চনন
বঞচ
##িডে
##ফাদার
একসট
মহৎ
আশীর
বহমান
ছাতরকে
কষমতাব
১৮৬
ঠিকাদারি
সৈনয
খেসার
মঞচসথ
বাধায
মনদার
পেনশন
আলাপচার
একাদশের
োপৗ
চাচাতো
হরণ
##েছ৷
##বকে
পরমাণের
নিরগত
##াগো
মাননার
বরাযান
কিছকষণের
দাবা
পরিবরতনে
আতমহতযার
সমালোচিত
নগরী
বিরোধিত
বিরোধিতার
চযামপিযনদের
দারণভাবে
টরাইবন
তামিমের
নিরবিঘ
খোলামেলা
কনফারেনসের
বিপিএল
কেলেঙকারির
ইমার
ঘটার
নগন
##াতা
##তোরা
##িযেট
জনমে
যেতেন
কাপরের
এসো
বিশবযদধের
সিবিআই
১১৯
অযাব
গরেফতার
জেপি
বানচাল
সফলতার
কোমপানিগলো
এমএইচপি
দিনাজপরে
রেসতোরা
মেহেরপর
পষপ
ইদরিস
পিএইচডি
ঔপনিবেশিক
##ীকার
পরাসত
বিও
অনকলে
মেহরাব
##িবীয
বহদিন
##সংগত
পনথা
২৩৩
সবাসথযবিষযক
জনমদিনের
পেশোযার
লিখেছে
রেকরডিং
পারবতী
ঐতিহযের
ভাংচরের
পরচলন
অিধ
ডেভেলপার
নিরবিকার
কোটালী
পষঠপোষক
টরযাজে
নেলসন
জলফিকার
ভলাদিমির
আকষ
ষোল
##জেল
##েসট
##পান
##িকসের
একনেক
তারণযের
অনসর
সবাসথযের
অবির
করমকষেতরে
হাসযকর
উদভত
অপরী
ডিপো
শাহনাজ
মরগান
পরণযনে
টকরা
খেটে
অযাপটি
অনতরে
পরথমা
কলপলোকের
সেনানিবাসে
বেশিরভাগই
মারকেটে
মধযপরাচযে
টঙগীর
মালদবীপ
সবজনেরা
মচডে
##ধায
আরএস
নামটি
যোগান
পরিসকার
রাযান
##বনত
বাইপাস
উননযনমলক
ফারাক
চকতিটি
কনক
গলপকথা
মজলিশ
পৌছলে
গহকরমী
রাজনীতিকে
যনতরাংশ
রবীনদরসংগীত
দষটিকো
শিরোপার
সখের
শিকষাবযবসথা
অনসনধানের
হংকংযের
এআরএইচ
এগারো
সেনাসদসয
এিদেক
অরফানেজ
##ইউজ
##াননদ
অনদিত
সরমপ
##মেইল
তবেই
মিহ
মিলের
পরযোজনার
৪৫০
অকস
সটরা
বাকশাল
জেতেন
জাতিগত
২৩২
আকমল
বসেছেন
বোলট
দমডে
সবারথেই
পরযোগকারী
ফরমলা
পরতিবছরই
এমএআর
োজলা
কলারকের
আনতরিকতা
ফতললার
লারজ
অরধেকের
এিট
লাব
##খর
##চো
##উশন
##অযানড
সেদিনের
আইএল
মহার
গণযোগাযোগ
##াজেয
বাসতবসমমত
ওযাহে
োছেল
কাননায
মসকোর
কপালে
##বাডীর
ভগছিলেন
সরোত
আফসারল
অপরীতিকর
নদের
##পায
##সানের
##সাধ
##ইস
##ভটি
##ডযা
##তালে
##নেছা
নেযায
পাটো
বযযব
সাথী
##নধর
এসেই
বযাচ
##সেনট
হাসিনাও
বিপাকে
কেনদরবিনদ
##ধাও
পরতিষঠানগলোতে
শিখা
##মতযর
খেলোযাডকে
কবিরের
পরেমিকা
জাপার
##সামগরী
টোযেনটিতে
জিতবে
লটপাটের
পরবাঞচলীয
এএপি
মহললার
আনতরিকতার
কযালিস
নথিপতর
ফাহিম
নাশকতায
ধমপান
টযানারি
লৌহ
অতল
জং
পামপ
##শাকে
তারপরে
সাউনড
জানাননি
বাসস
সাধারণভাবে
অপরাজেয
বিপদের
গরামবাসী
ঘটনাগলো
জযসচক
পনরম
##চরচার
কষিপত
করিকেটারের
১৯৫৪
গরাউনডে
জনসমরথন
ছেলেমেযেরা
জোগাড
ইউজিসি
মাদকাসকত
আনগতয
চিলি
ঢিল
সজিত
েব
পররো
সংবেদন
##াপনে
##ওযালের
পরতিও
বিশর
চারের
বনধতবের
ডিআর
##উনট
মিলছে
পরববরতী
বইতে
মনোবল
জরডান
জেনারে
সতযের
##ঘাটের
মোরশে
সংকীরণ
বেদনার
কামারজজামান
##পারটমেনট
জেএমবি
করিসটিযানো
অলক
কেশ
নসরা
মলে
শঙখ
##কীর
##মঞচে
##৯ঘ
##াসীরা
##পরতা
##বিএল
দেশজ
কমির
পেড
বেসিস
##শিপের
রোকন
চাইলেন
পরিবেশনায
সকালেই
ফেরায
কযাফে
নাগরিকতব
সোহান
ভাঙতে
ঢাকাই
হামলাকারী
উললাস
সিংহভাগ
বহিরাগত
জিএমএ
টমাস
েলর
##লাসহ
##টিনা
##ফিনের
##বঞচিত
করজ
বিচছেদ
বলতেই
অনপাত
##বরগ
মততিকা
চলি
ততকষণে
পাশা
##ভেঞচার
অপপর
নিরবাচনেও
তাহলেই
উঠলেন
পররাষটরমনতরীর
কানায
বিকেএমইএ
যনতরের
মিডিযায
সিপিডি
পরতারণার
বিশলেষকরা
বিজঞাপনের
কারযকলাপ
সথাপতয
আগনেযাসতর
পরসেনজিৎ
হারডডিসক
উধাও
কলোর
টিনের
সবাচ
##উইন
##যাটে
##াপটি
দরনত
মেধার
এসকান
##সেদ
হারিছ
সমপাদকীয
ফিরলে
যকতরাষটরকে
দামেস
লকষযমাতরার
##বনদী
পযাসেজ
তৎপরতায
বেনজ
থামাতে
শৈশব
বিধিমালায
শোভাযাতরার
সদিচছা
রকষণাবেকষণ
নযাপলটনে
তািলকা
আবাদ
আচার
তপ
##টাব
##ধনিক
##শহর
নিপণ
##াজডে
জনাইদ
সরানোর
পরিধি
সবশেষ
##করাম
শরাব
দিনম
দিনও
মারশ
ধরব
বডপক
যোগসাজ
পডবেন
সিরাম
সটযা
লাইবরের
রেলমনতরী
নযাটো
পেরেছিলেন
ডাটা
রাইডার
সমপকততার
নাযকের
অনপসথিতি
তালেবানের
জিনিসপতর
সইজারলযানড
ভোকতা
কটকতি
চিলডরেন
গাম
পকেটে
সালো
##পাই
##এলের
করদি
##িনো
##লেটের
অনা
পরতিভার
সাফা
মোদীর
দরজায
কেযা
##শেডিং
সবাধীনতাবিরোধী
৩২টি
##টিকযাল
ফাউল
জাগে
১৯৬৯
পাতানো
টানাপ
পেটরলবোমায
নাযিকার
ােবর
তাহেরের
পনরবাসনের
সাংসদেরা
আবরজনা
পরসপরকে
রোহিঙগ
টটেনহযাম
উরধবতন
িনরাপ
বযযবহল
আডা
ঘের
টঙগি
তক
দক
লাযলা
##কাস
##িনসন
করেল
বলাই
সেবায
##ালেই
কাচের
মনোর
অযালেকস
ছবিটিতে
কোরসে
গডেছেন
মতযবরণ
সাইড
হাইকমিশ
নিরভরযোগয
খোকনের
অশানতি
হাউজিং
ছডানো
দবীপে
আইসিবি
শিনজো
কেলেঙ
লোডশেডিং
পরিচরযা
জোহানেসবার
আচছা
কিযে
থমকে
রাবে
হীন
##ককষ
##ভাসে
##ানতরিক
বিমো
বাযে
##মানড
মাখ
রাউজ
একটির
মানচিতর
##নধন
অভিমান
কিছদিনের
সংসকরণে
অনযকে
বনধকে
২০১৭
জলসা
নিশচিন
ফরনটের
ফেরাতে
ইসটারন
অটোরিকশায
অযানিম
ঢকিযে
ওষধের
পরযবেকষণের
পকরের
উপমহাদেশে
এনটারটেইন
তদবির
আবশযক
পরোকষভাবে
সংকলন
বরযাকের
খটি
ঠেকে
সাইকেলে
নিযা
বাডা
##বিবি
নিরধার
##াডিতে
বাংলাকে
মেঝে
এমিরে
বছরগলোতে
ইনামল
##শনিক
জলজ
##িংস
বাহলয
নরওযের
জডিশিযাল
##যবসত
জোটকে
মোতাযেনের
আইপিও
উজাড
পরতগালের
বেলজিযাম
উততেজনার
রঞজিত
গণতনতরী
ফাহমিদা
অরি
উেদ
খাজা
জলের
ডযাপ
মাজে
রথ
##নীর
বিই
অনযাযের
কমলেও
পরধানদের
সভাপিত
আদিতয
পাঠদান
অপরতযা
জীববিজঞান
গিযেই
মরিন
##ভেজের
ধরমাবল
সৌজনযে
মানবাধিকারের
##পরযকতি
অনসনধানী
ফটেজ
মেহেদি
বাতাসের
যোদধা
ইপিজেড
অসতরোপচারের
সসমপরক
আইডিযাল
বিছানায
অকত
কচি
োসে
##সোর
##মনদ
##হতির
##যেদের
##এনএস
দিনগলো
চলনত
লিঙগ
ভাঙগ
ভাটার
##াইনড
শিকষকতা
জযলাভ
হেমা
লেজ
ফটিক
##চরচ
২৮টি
২৭টি
কাপাস
হইচই
বরেণয
কযানসারে
ইযারড
ইহসান
পনরবহাল
োশষ
যাদব
বযাটালিযন
ইনভেসট
উখ
##টকে
##পদধতি
##ইউর
##াযনি
সমদরে
একীভত
##নাগার
##রেড
নিরগমন
মাউ
২০৩০
সকলার
##োলন
##সিভ
ধরলে
বৈরী
গোলদাতা
পরিবেশবানধব
##সারে
পোহাতে
চিনতে
তারেককে
সারভিসেস
বেনজির
অযানটি
বসবাসের
##মিরাল
শকিযে
উসকানিমলক
মযাথিউস
সটযাটাস
ইনসযরেনস
আশীরবাদ
সবাচছনদ
কলের
১টায
##চাডা
##টিযায
অনী
বাংলাদেশিরা
জানান৷
পেইন
পরিচযের
অসট
চালালে
##দেহী
নেতানিযা
হামাস
১৪৭
ছেলেটি
লাগতে
৩৫টি
কোমপানিকে
বিললাল
নোংরা
সিরাজগঞজে
অপরিচিত
সখবর
নাফিস
##গাছের
আরসেনালের
মালদবীপের
িসেড
জলো
ঝিল
লব
সযানড
েনর
##ীমার
##গোপ
##াহর
এইড
রাখন
পলযা
দইশ
বিকট
মালয
বনানীর
সটরে
শৌ
##চলিত
##াসথল
কারযকরের
আযতন
চলাফেরা
জমজমা
সবরণাল
##ফেরাত
ভিডিওতে
শনযতা
চতবরের
সেদিনই
ফযাকট
বাজানো
অভিভাবকরা
কাউনসিলরদের
অতযাধনিক
দৈরঘ
সিনডিকে
পরিমাপ
টেলিকম
নজরদারির
দরাবিড
অেনক
কেলেঙকারি
জমজমাট
জিস
পনের
##সটা
##ওযাচ
সেদিক
আরনত
হযেছে৷
পারো
তাআ
রাজউ
বিশবসত
দিনটিকে
সংবাদে
সামল
আমাদেরও
উততরার
তথযসহ
গোলযোগ
রাননার
ভেজা
বযাংকটির
শিহাব
পরসততিমলক
উপাচারযকে
মিলনাযতন
বকততার
তথযে
রাহাত
উততরাঞচলের
বরগনার
সিলভার
মঈনল
সিডিএ
উচচবিদযালযের
মহাসমাবেশে
ইযাসির
এআরআর
বিমসটে
গণসংযোগ
কফিনে
ঘেষে
বিসরজন
আযন
ইমপ
ওসত
মযর
যথা
রচনায
শায
##ব৷
##ভাডা
##চট
##আডি
একগ
##তাহ
হবে৷
এরপ
কাভার
এসই
দেখেনি
সকটিশ
বেহাল
সোস
বহবার
##সমযের
উততরব
মলক
শাহাবদদিন
মরকেল
২৩৪
২৩৫
উঠলেও
বসেছিল
তরণীর
সীমানতর
##মাতরায
পরশিকষিত
সবরপ
নিষিদধের
োগেছ
খোজার
সংরকষণে
এজেনসি
##পরেমীদের
সবপনে
মাগফেরাত
ইজতেমার
গরীষম
##বলিউর
রেললাইনের
িবেরাধী
গঞজ
চযাপ
সতবধ
##মাসে
##াবহ
##লোভ
কারোর
##কাঠি
একটিও
কষীণ
উদবতত
বাহর
পরবশ
সাতকান
পনথায
##এফসি
দরশকেরা
সাজিদ
##রষিক
সংসথাকে
খাচছে
নোটিস
পরকরিযাধীন
##াহিমা
পরীকষারথীরা
আজিজর
মেনেই
িদেত
কযামেরায
গরনথের
ফরানসিস
তাডাহ
পাগলা
উপনিরবাচনে
নযানসি
কিডনি
কযেত
দদিনের
##খেল
##তরক
আরপি
সিট
আইভি
বেগন
সামষটিক
ভাতি
সাংবাদিককে
সংগহীত
শিলপকে
উৎপনন
এনপি
বিসতর
তেহ
সততার
ভযভীতি
কঠোরভাবে
তেলবাহী
হেরেছিল
গরাহকেরা
অযানডি
হতাশাজনক
মোটরসাইকেলের
কলমবিযার
সীমাহীন
ফখরলের
বিজঞাপনে
জালিযাতি
আসবাবপতর
দৌলতদিযা
আমােদর
আডাআডি
আদন
এলেই
ননদন
বদধা
লতা
হাহ
##ভোট
##ণিত
##থির
##ানদি
##তিযা
##যানডিং
পাটক
আগত
এসিড
এলাক
অনেকবার
##বিরতির
পরিবেশবাদী
রিটের
ভাবেন
গলফ
বযবসাস
খাতনের
ডাকেন
তেহর
কটাকষ
ইযাফেস
ইমামের
এরইমধযে
ওসমানের
জটিলতায
##কেনদরের
উদযাপিত
উপসথাপক
সারবিকভাবে
অধযাযের
নিরবচছিনন
কনফারেনসে
বরোকার
সতীরথদের
মযানডেলার
গাযিকা
মতলব
পষঠপোষকতা
আরনতজাতিক
এদিক
গজার
সলাম
##িষণ
##ভকতির
##ছবি
করিশ
##বেসে
নিতাই
##কষায
##িসিতে
##িযামে
##পারের
বাডলে
তাইওযান
জাযেদ
ফিরছেন
সযোগের
সালিশ
লেডি
সংঘাতে
এতটক
নবগঠিত
টরাকচালক
উদদেশযপরণোদিত
দষটিভঙগ
##মণডল
মেঘলা
হোসনে
সংকচিত
ইনডিজকে
গণিতের
অবিচার
নেইমারের
##বেষী
টিউনস
বিচছিননতাবাদী
বোমাবাজি
পনরগঠনের
উচচশিকষার
দিগনত
রেসিপি
আলটিমেটাম
নেজামী
দষটিকোণ
জলোচছ
উপরি
##গনে
##বযকত
##চেন
##িনদর
##াবঞচিত
নেডে
কোপেন
পাণড
কমবো
রাফ
হাসনাত
ঢাকাকে
বেশী
##ানোযার
ভাঙে
##দারের
দিতেও
উইং
অফসপিনার
##কষেপণ
রপগঞজ
##সিংযের
নিউকল
ভালোবাসে
##কিংযের
৩৬টি
নিঃসবারথ
পরতিবেশীদের
রেজিসটার
পাঞজাব
ডরাইভার
পযাটেল
োভাটার
ওমরাহ
সহনশীল
পাথরের
সামরাজয
কীটনাশ
##টাবযাপী
চরণ
ছল
নিকা
ফতো
##মতের
সংজঞ
অনম
অনতি
##টকর
রহমানও
লিপ
সযোগটা
##পনিক
নিতেই
বোঝেন
নীতিতে
১৯৬০
মোকাবিলার
সমমিলিতভাবে
কেরেছন৷
সমাগম
কোপেনহে
কডাক
নডাই
রসতম
লঙক
##মযাপ
##ঙের
করমানব
নিরীকষার
উপতয
শরবণ
অবধি
মোমবা
##মেটিক
পলিশসহ
লিভ
রেযেছ
আনদাল
মামলাগলো
ফারাহ
ভাগযের
ভিডে
এডানো
উডড
পতরিকাটির
গেমসে
সাকষযগরহণ
কবরী
গরাফিক
পিকেটার
ইলেকটরনিকস
আজিমপর
কেমিকযাল
অযাঞজেল
ঝকিতে
সবযংসম
ইকোনমিক
বিচছিননতাবাদ
উতপাদন
করমানবযে
আডি
ডাম
তেলে
রিদ
রচনার
সখে
করআন
বিমল
বিদাযে
##ালীয
##পরবাসী
জনসবার
পরতিবারই
বযকট
অসনত
##সবী
সালেও
##এমের
##রণীয
##পেজ
পরিসথিত
##তযয
বোরো
কালার
আতমজীব
অপেকষার
বলিষঠ
খাদযশ
ইযাং
##বযবসথায
জামালপরের
পিডিবি
##িপাডায
তিউন
ধানমনডিতে
লকষমীপরের
পযারেড
বরাদারসের
নৌপরিবহনমনতরী
কৌতহল
বজলর
মহাসাগরীয
ইবাদত
এলিজাবেথ
তিব
ততো
োমে
##মরম
##াজনের
##কষয
সােলর
শরদধ
অবযবসথাপ
##গলোই
আলোডন
বাডাবাডি
তৈরী
পানীয
মনোযারা
সটেটের
চযানসেলর
পরথাগত
তরিপরার
ভইযাকে
উপসথাপিত
দরবযমলযের
সাজাপরাপত
বদরল
পরজাপতি
ছাতরছাতরী
পিনটর
পরানতিকে
##াবাজারে
োলাক
কনটরোল
করইফ
খেসারত
অহেত
তচছ
বব
হচছি
##ডত
##ঝা
##ীযান
##যেরো
শরীনগর
মহাদেশ
বিষযগলোর
তোপ
আইনপরণে
মনষয
দাবিদার
জলবিদযৎ
মারচেনট
যেনো
এতগলো
পনরবযকত
##চযযাল
পৌছতে
অধিদপতরে
অগরহণ
ভিননতা
গহাযন
কিলোমিটারের
ডেকেছেন
আরএআর
হজম
পতরিকাটি
তোরাব
অভিশাপ
উৎখাত
কোসটগারড
ইলাহী
কশ
মেখ
হটিযে
##সড
##খনি
##ৎসি
##াবলী
নাডা
##বিভাগ
বেযে
ধরবেন
অসৎ
জামাতের
সরবজনীন
সনাতন
সিনেটর
মযাচই
পেযেছিলাম
শনলাম
করিডোর
ওযাকার
আসামের
##ভিশনের
দিকটি
সাবল
দঃসব
করমচারীর
পিরি
োগেছ৷
পরতযেকটি
মহিউদদিনের
ঘাটের
সংগরামী
কিমশন
সঞচালন
দরগনধ
সবৈরাচারী
ভেনযতে
গদাম
অসবসতি
##জগতের
আওতাধীন
সলিপে
পডালেখা
ওঠানামা
অপরণীয
জিহাদের
অহেতক
ইযাক
ডবর
দযার
পটিযা
ফাহিমা
লাদ
সলে
সোল
##ণি
##এবল
সমবনধ
##াবিশ
##িসন
দেশনেতরী
দরজার
থাকলেই
পলিশও
মযাট
দাযমকতি
ইনসর
গানগলোর
১৮৭
হযেছিলাম
বেরিযেছে
গলপটা
বিমানবাহিনীর
নৌপথে
##পদসথ
বিধবংসী
সাধনা
জেনেছি
এএইচএম
কলমবিযা
মনোভাবের
সিকরেট
পরদানে
##াবাডী
ফরাশ
খাইযে
শিকষাবরষে
পরজাতনতর
রকতকষযী
ইযাহিযা
উনমোচিত
##মনতরণালয
বাংলােদেশর
তেহরিক
আযা
কভার
কলিযার
খরশ
লটের
শঙখল
বিএসসি
##কেশনাল
##াদান
##বরিজ
নিরকষ
##দধির
কমই
মোদিকে
রাজর
##ওযারডস
সোনাম
##কাশন
দাযভার
ইনচারজ
সালেই
সনদের
ছবিও
মরশিদ
চিকিৎসায
উচচা
সমসযাগলো
আকডে
কষমতাচযত
অযালান
সানজি
তামাক
সনদেহজনক
রোডমযাপ
ইলিযাসের
বসবাসকারী
পরবাঞচলে
সবিধাবঞচিত
নেপালে
##তপরব
রিসোর
পদোননতির
পরতযেকে
ঘোরা
নীলফামারীর
োচৗ
##সাহিতয
কলাইমেট
টযাকসি
অনেকাংশে
দেবাশীষ
সবযংসমপরণ
ভেল
মিতা
সদা
##সাল
##ফাই
##েনডার
##িকাল
বিপিএ
সমতল
##তাঙগ
পরধানকে
দরগম
পেতেন
নিরবাচকদের
আলোতে
১৯২০
১২৯
ইনাম
উততরপতর
উলামা
তলেছিল
ফেভার
সদরদ
ফারহ
শিষটা
দরতগতির
মকতিযদধবিষযক
সততরের
চাদপরে
৬০টি
ভালোবাসেন
উপরনত
তরিদেশীয
তৌহিদ
হাওযায
ঠেকানো
কযারিবীয
পাদদেশে
দাযবদধতা
অনতরভকতি
সলিমললাহ
সনোডেন
ভেটটোরি
আপততির
ভযের
##কলপ
##নক
অনাব
##নাটক
মোতালে
কাটে
কষটে
দেখলেন
বাসত
সাংঘ
দাযদাযিতব
রেটিং
তলছে
আযোজকদের
##মরষ
বিবতির
২৬টি
আফরিকাকে
সেটিই
সাদদাম
সাকষাতে
কাঠাল
টানতে
সদঢ
নিমনমখী
বলযাকবের
অনভতিতে
দকষিণাঞচলের
মাওলা
খলিলর
সবাযততশাসিত
নিকোলাস
মযাশএবল
ভিকারননিসা
রপনগর
অবহেলিত
আতমজীবনী
অগরহণযোগয
আলেকস
ফযান
##রব
##ততির
##কারা
কারস
দরলভ
উদাসীন
##িমত
নামছে
আমিই
১২৬
সদসযসচিব
অযাসিড
করমসচিকে
সংশলিষটতার
সবরাষটরমনতরীর
িবভা
চযাডা
বযসসীমা
রাশিযায
নিরপেকষতা
ঘাটতির
আলোকপাত
আলাপকালে
জাদঘরে
ইফতারে
মেটরোর
সপিনারদের
দততের
নিলামে
নাশকতামলক
উপকমি
বিআরটিএ
মেলবোরনে
শঙকিত
তডিঘডি
ধামরাই
চোরাচালান
হেরাথ
সিগারেট
করিকইনফো
দিকনিরদেশনা
আখাউডা
করিশচি
কপাল
তের
ফতে
বানো
িড
পরল
পরাবনধ
সমকালীন
বাশের
বলগের
সরকষিত
দেখল
সকমার
এমরান
বেচাক
হোচট
আশগঞজ
বৈর
##ঞচের
মাসদর
জিযাও
ফলক
সদসযরাও
৩২০
পরযোজনীযতার
কাটান
বরষবরণ
সমপরণভাবে
বিধিনি
পেসারদের
শিবগঞজ
সেরার
অসহযোগ
##ছল৷
লিবিযা
ৌতির
পাঠযবইযের
উপকলে
মহিলাদের
আলেক
ডাব
শভাগ
াগ
##পণের
##সযা
##দহ
বাকে
দেউলিযা
##েষটাই
সাযেদ
##কাটন
##ঞজলি
কেনিযার
গণফোর
অরথহীন
##শিট
রাখাল
চারপাশের
মনতরিতব
লিখন
ছাতরীরা
১৫৮
##ফরনট
মালবাহী
ফলবাডী
##বিধানিকভাবে
শকতিতে
##হাউস
জঙগিবাদী
পরাককালে
জাহাজটি
খাযর
কারাদণডের
এতোদিন
বকষর
মেগাপ
নৈশভোজে
নরননবী
ববিতা
তাসকিন
ওসতাদ
বযবসাসফল
বানোযাট
বখা
বেষট
রটের
##কামী
##খিল
##হক
##ঃপর
##াদরশ
অনানষঠানিক
মোঃ
আহেম
মারমা
উততরপতরে
পথসভা
পরশনকাঠামো
ছযজনকে
ভাইর
ভিভি
দোতলা
বরষার
সমারটফোনে
ভাসিযে
সংকলপ
সযারেজ
রেজিসটরেশন
উষণতা
কোকোকে
পরতিহিংসার
হাহাকার
সাংঘরষিক
পরাবনধিক
আেরা
ডিল
ফযাস
ভতের
মচ
শযাল
সসতা
##ৗশ
##গাজী
##শনা
##চাদ
পরসথ
##িনায
একার
বাচার
##োলজি
##সিডি
##ননাহার
বিকর
বিকেনদর
সমপরসারিত
হারলেও
ঘোষের
সারদা
সরবনাশ
##সাৎ
##সংবাদ
রিও
জোড
ডেসট
তততবীয
বানধ
নবজাত
অযাপস
পরেমকাহিনি
শরীক
তবকী
সপতাহেই
১৯৪৫
গনতে
লঞচটি
মহললায
একেকটি
যাঙকিংযে
খরা
দনিযায
পালে
াক
##লল
##হরে
অনাস
সেজে
##সথলের
কমতি
মহাবি
কেযক
গণভোট
জামাই
বোমায
##বোধক
মাদকের
বিনতে
চালকসহ
মেরিল
যোগযতার
মহিতের
১৯৬২
অভিজিতের
মাগফির
ভঙগিতে
গিযাসউদদিন
পীরগঞজ
মেসিকে
সযামি
এভারেসট
শরীলঙকান
সিপাহী
তারানকো
অনাকাঙকষিত
চশমা
বিধিনিষেধ
গঙগ
সতা
সাজার
সিকস
##রদধ
##চযের
##তীরণ
করাকে
##িজয
দিনকষণ
##ঞজক
কেনাকাটা
মলধারার
সারের
অপরিকলপ
##লেখা
নরওযে
জডানো
ইযাছ
পরবেশাধিকার
##চনীয
##মণডলে
রাইস
করোমো
অগনিনির
অঙগর
ইমরানের
সাপোরট
বলগারদের
মাইনাস
বিবরতকর
ভানডার
টাসকফোরস
কথোপকথন
রামপালে
িডেস
মেগাপিকস
খড
জিনদ
ভখণড
##রণের
তারণয
সেটিকে
##নিও
শিকষাসচিব
চলিত
অনেককেই
সরবসমমত
পডত
চৌধরীসহ
কোনটা
যাবার
ওযাসার
কনজারভে
ডেবিট
এইচবিও
##চযতি
সাজান
বোঝাব
শরদধাশীল
যাতরার
ঐকযজোট
গেমসের
সবেচছাসেবী
গলাভ
মাথাবয
রহসযময
সাইফদদিন
যাতাযাতের
বিবাহিত
অযাঞজেলো
জাজিরা
ইউটিউবে
রেহানার
ওযাহেদ
ইনভেসটমেনট
টিমের
ঠো
তসল
তাবলি
নসর
ভটট
েন
##কলি
##লাদ
##লযানডে
##শেনর
##াতীত
সরাইযা
##বিজ
##করতা
হাসিম
সকযান
আববা
উতসব
চারবার
আদমি
##েকো
সপীকার
যোগফল
রাষটরপরধান
অপরণা
দিচছিল
বছরেরও
১৩৮
ওযাহাব
সমিথের
ভাঙচরের
অতঃপর
গহযদধ
পরবাসীকলযাণ
পাতাল
সেনানিবাস
অলিমপিযা
কচযা
মগবাজার
মেসবাহ
তাৎপরযপরণ
টরেইলার
##রিপশন
বেলেছ
সংবেদনশীল
রাবেযা
পরিসথিতিকে
ইনসরেনস
এে
থিত
ফেলি
বনা
##পিত
সমানতর
সংকষেপে
নেচে
পরিদ
শরৎ
খেলি
সপিনিং
যোগসতর
পথিক
সারকের
বারলিন
অরবিনদ
সিদধানতকে
##শালার
উচচপদসথ
আলোচক
চাচছেন
হারিযেছিল
ফিতর
পাইরে
বদলাতে
##াপেকষ
১৯৫৮
১৯৬৬
অকষত
ভৌগোল
লাউঞজে
লেবাননের
বেলজিযামের
ঘমাতে
টালি
নরের
েলার
##পদী
##হানি
নিযেছিলাম
##বাদীদের
অভতপরব
দরনীতিতে
দেখাবে
শেখা
##চেয
বাসদ
মিঞা
চাইলেই
বারগ
১৪৮
মরগি
##ভাঙা
বাকযের
শেহ
সপারসটার
কযাপিটাল
সেরাটা
যারাই
সৌহার
##ফিউ
##াকষর
শবদটির
পাইযে
পযাকেট
পযসায
মানিকগঞজে
কলাশ
পরতিরকষামনতরী
মিউচযযাল
সিআইএ
জেডিসি
দেযালের
সহকরমীদের
হাশিম
বদিউল
পললবী
নেশা
লিফলেট
বিদযৎসপষট
অং
এঞজ
বানা
রগ
লডে
ীরা
##ভিযা
##যালে
সরেশ
পািট
সরকারসহ
##গরির
মেতা
##ডিএস
সিমন
ভারি
নামানোর
নিজামীর
আশলিযার
গণশিকষ
বেশিই
কারণেও
বিশেষয
বাডডা
হামিদল
পরিবেশিত
##সনীয
বঙগবনধকনযা
দাডাল
ওযাশ
ফারহান
বাদয
ঘণয
ফিরেছে
মানবতা
সডকটি
চিনতায
ফেললে
কাউকেই
রিজওযানা
পটভমিতে
রাননাঘর
রহসযজনক
ডরাইভ
অযামবলেনস
লেখালেখির
তাআলা
আদনান
মোমবাতি
খাজ
গভ
নপর
হবো
##শৈ
##উনের
##তিযাক
সেগলোকে
নিরৎস
তাে
##িকেও
রাফি
অবাসতব
##ওযারলড
##পারথ
গণআ
ঘোষক
আনষ
অপরযোজনীয
চিডিযা
গিযেছি
নিশাত
ফেরানোর
##ধারীরা
##কটরে
সাজঘরের
মকতিযদধভিততিক
পোশাকশরমিক
অরথনৈতিকভাবে
ডরাম
বরাতে
বীরেনদর
গৌরী
হিনদদের
পেনাল
হতাশায
পিকচার
তদারক
লরেনস
সীতাকণডের
ধানমণডিতে
এসএসজেড
সাবিহ
ইমেজ
খাপ
থিরি
মকতার
োড
##নগরে
##ঘব
আমেজ
তারে
আরআরডি
##েমর
আপনা
সংগঠ
পেযেই
১৩৬
সাতজনের
বেরো
ওযাদা
জেসম
আতমসাৎ
সংঘবদধ
আবেদনকারী
ভাঙনের
উভযই
জেমি
বৈষমযের
শানতিরকষা
শযযা
কোনদল
সাতকষীরায
গরনথম
টিসয
জভেনটাস
আনদালিব
আনষঙগিক
আং
এজি
ঝো
ঝাক
ভম
মরা
লোগ
শাই
##িললাহ
জানত
অবতীরণ
ইউনেস
সনধি
পিএ
পিআর
##পেয
এনসি
দাযিতবের
অগরাহয
যৌগ
বিজঞানীদের
##ফেডার
অলস
সাফলযে
##পরতিদবনদ
১০০টি
পরশংসনীয
ইনটারনযাশন
ওযাশিংটনের
পরবাঞচলের
পারফরমযানসে
হিমশিম
গবেষকদের
দরভোগের
পাউবো
ওযাহিদজজামান
মওকফ
পরতিষঠাবারষিকীর
অনাসথা
ইডি
খত
দাসের
সরাতে
হযারি
ােরর
িমি
##যাসের
##াসং
সমাদ
অনকরণ
অনিনদ
সবজের
##দরিক
গরাজ
সকলেই
বযাড
বছরও
জিডত
গিযেছেন
##মারক
কামিল
ঠিকভাবে
লাগলে
বইগলো
সমপরকেও
চাঞচল
জরড
হলফ
পেছানোর
ভলতে
হযাকার
পরকৌশলীদের
অংশগরহণকারীদের
নানদন
ইততে
জাসাস
ভগোল
উপেকষিত
কনসারটে
মযদান
সামগরিকভাবে
পরহসনের
ফলাইওভারের
ফেদেরার
ফেভারিট
কনজারভেটিভ
ঠোট
তাজা
পাজ
ভঙগের
##মেলা
##শবাস
##োদয
##াজাত
##পরানতে
বযতযয
রাণী
##যালের
রাজেশ
দরহ
##নারের
সথলে
সংসকত
সারভার
##আইসি
টেলিগরাফ
পাযতারা
পনরবিন
রেলকর
একটও
রামতে
কোমপানিটি
কাহিনির
নিরপেকষভাবে
চিরসথাযী
আডডায
আববাসের
নৈতিকতা
সিডনিতে
কইক
সমপরসারণের
সমাধি
বযারিকে
পরসারিত
শিখেছি
মোসতাক
আেলাচনা
বিষণন
মরমাহত
অডি
উস
ফাদ
হযাপ
##পনা
##সবিধা
##খযায
##তাকারী
বিলো
##াদির
নিরি
##পরবক
বাঘা
##রাঙগ
অনবে
দইবার
চলন
বিকল
##দেহের
লিটল
##ভিচের
জলক
পরোদ
শোনে
ভাইবোন
ফারসি
##সীমান
জরজিযার
সবিচার
রপচরচ
লালদী
নাইম
জমাযেত
ডিজাই
চনদরপল
আশরাফের
##িসতানের
বযসততার
আরজেনটাইন
পরযালোচনার
পনঃনির
অনিরধারিত
জাকারবারগ
পীডন
এসএইচএ
লাহোর
কেলজ
উপদেষটাদের
মাগরার
োঘাষণা
ফেসটিভ
মাগফিরাত
আযর
উি
খাব
ডরি
দোর
সযাল
##রফের
##ঠায
##পরী
দেবদ
নিরসতর
##নিশ
দরভিকষ
গরাস
বযাকতি
কোনোদিন
সমপাদকদের
অযাশ
##হনীর
১৩৯
করিযার
##পরাপতদের
সদরঘাট
উঠেছিলেন
চাষের
সাইমন
বিসিসিআই
সিটিসেল
ধানম
সপষটভাবে
ফেনীতে
চোরকাটা
বাপপা
দারশনিক
মেজাজ
পরহসন
ওইদিনই
শিকষাবরষের
কমিউনিকেশন
ডিওএইচ
অবিরাম
অদর
ওযানডার
ঝাম
নিনদ
মনী
রওযানা
সওযাল
##টসের
##যেডের
সমাইযা
নামকরা
সামার
শেষম
লাথি
বাসসথান
উতস
বহদদার
##চছার
ফরিযে
বইটিতে
২৪০
##রাহক
বসছে
মাঠেই
সনতরাসবাদের
পরযকতিতে
নাগরিককে
রকমই
নেমেছেন
##পালন
ফোনাল
সাদিযা
ইমপরেস
##শবরী
নীচে
পিকআ
তদারকির
ঘটিযেছেন
আতমসমরপ
অসবসতিতে
পলযাটফরম
নসযাৎ
রপচরচাবিষযক
ঘেট
ঝডো
টিকা
ডলি
দিশে
হীর
##ভযান
##েনিযাম
##াবশেষ
সামদরিক
১২০০
১৫০০
চাইছি
হাটের
জাওযা
পডানো
গরামা
পরকলপগলো
##বীপ
অপকরমের
##াদাৎ
একসপ
ছেডেছেন
কাপডের
##াকষেতরে
পরকরিযাটি
টেকস
সততর
বিসতারের
##দোযান
জাগপা
পরজঞাপনে
ফকিরের
বেকারতব
মিনারের
লিভারপলের
সাংবািদকেদর
উদদীপকটি
রেসটরেনট
সমাবরতনে
এট
এযানড
জোকো
ঝকে
তাবি
ধসর
##কাজের
##ডবি
##ওডা
##পরণাল
সরোযার
সেকটরে
নিরদ
যেতাম
কাজকরম
ছাতরসংগঠন
অপরকে
হাটর
হাঙগার
ইউনিটি
আনতরিকভাবে
চেযারমযানকে
রাযনা
পরসতাবও
ফটোগরাফ
কনফেডার
বিসিক
##কলিন
শিরশ
যতদিন
ভাষাকে
##শিলপীদের
রিযাজল
গভীরতা
দবিধ
পরেরণ
বরণিল
বহিষকারের
িদেযেছ
জেনেভায
৫১টি
অলপের
গেইলের
##াকসিকষত
কযাডারের
মনসিগঞজ
জোহরা
আশেপাশে
পরিমিযাম
কাসটমস
পরীকষামলকভাবে
আইজিপি
মোহামমাদ
জাবেদ
কচকাওযাজ
ফযাক
রফি
লেই
হলি
##সটর
আমন
সরকষার
সহজল
চলাকালীন
##িবত
নতনদের
বারে
লকষযবসত
জযিতা
রিভার
শাসকদের
বছরেই
চডানতভাবে
কারখানাগলো
শোকবারতায
আডডার
১৯৬১
োবিশ
অভিষিকত
সাউদি
কদমত
পযারিসের
টিপাইমখে
নযাদিললি
মিসরীয
তডিৎ
আগরতলা
রাজউকের
কাকা
জিমি
নহা
নাবয
ফাজ
মাতার
ষাট
হযাক
##িদে
##ধস
বিসকট
##পরষ
##াইক
##রিতে
এসএসসির
গরিক
##মনত
রেঞজের
##ভিদ
জীবনাননদ
পশচিমের
আফরোজা
সনদরভাবে
ফেললেন
অনতরায
জাযগাটা
সবরগ
োদশ
ফোনো
পাকিসতানিদের
নকশার
সমদধির
এনডিটিভির
জলাধার
টঙগিপাডায
ডেনমারক
কনটেনট
বছেরর
শভাগত
নানদনিক
পরোদমে
সহজলভয
এবিসি
ওজনের
ছডায
রেনটাল
##লীতে
##খালি
##যারম
কোটির
##টেট
আসমা
আবধ
ভারচযাল
চললে
মারিও
এলএন
আজহারল
বহমাতরিক
অংশকে
টরট
##জীবীদের
দাডি
ছোটগলপ
ভাবিনি
ফিলডার
খেযা
খেযেছে
গডফাদার
জঙগিগোষঠী
জলবাযর
োসখােন
দৌল
সাধবাদ
ইশানত
ইলেকশন
শৈশ
এহেন
মলযবোধের
তাকাতে
রেগলেট
সাতকানিযা
ঘাড
নসি
##যাির
##াকাদ
সমীকরণ
##িসীম
সবতব
উপসরগ
বাংলাদেশও
মধা
##টরো
শিকষিকা
রাজকমার
২০৫০
নামাজে
##কষেত
##তময
রাষটরভাষা
হাতিযে
পডলেন
সিনেটের
এসবই
পরশনগলো
##শাললাহ
##ততীরণ
##কোষ
জেবি
আতমরকষ
মনোজ
ভিতর
এইচআই
কানাডায
সীমানার
সংসথায
মাইজ
পরকরিযাজাত
সাদাক
চিরপরতিদবনদ
নিরমাতার
জাগো
মিযানমারে
গরিড
ছাপানো
ফরানসে
পরোগরামিং
রদরি
##িচত
অনভতির
লাউঞজ
কারযদিবসের
নিতানত
সসংহত
আপততিকর
বযাঙগালোর
ইউনেসকোর
টাল
ডোন
দডি
ধল
ভাতার
লিমন
াি
##কটের
পরিযে
সমষটি
##োগরা
কোটার
রাও
মতপারথ
বেপার
হাঙগ
ওযাং
নিউজের
০১৭
শরেণীক
২৯০
চালিযেছেন
উৎসবমখর
মলযসচক
মেযাদী
আজিজের
ইজিব
##ভাষার
ফরেসট
শরীযত
গাজীর
ছাযানটের
ইমদাদল
ঐকমতযের
আহেমদ
শিরশছে
অমি
ইকো
ঘি
ডকম
দসত
নছ
রিযেল
লনি
লেনে
##বানে
##বেলার
##েশার
##নেতাদের
##তাত
##তাডিত
আমতলী
অনারস
পারটিকে
উপবততি
##ডেক
কষাকষ
দরতবে
কোনোটিই
লীগসহ
অনযজন
##রতয
সারকেল
অপরিসীম
বযাংকার
##সাধয
লকষযের
নিশচ
দেওযারও
ফরমের
জেট
জীবনযাতরা
কষমতাযনের
কোমপানীগঞজ
আসামিপকষের
বাচানো
কালোটাকা
বরষে
বরষপর
ফরিদপরে
তাজউদদিন
এযারওযে
দরবলতার
পরদিনই
ইনদো
কাটিযেছেন
নিউজিলযানডকে
সবৈরত
পরতগিজ
দাপট
বরিটেনে
কৈশোর
গদামে
সানধযকালীন
খরিসটান
বডপকরিযা
অপরতযাশিত
খরশীদ
মোতালেব
দিশেহারা
ওযযার
খালা
ঘানার
চরে
লিলি
লঙগি
৩য
##জিস
##ামতি
আমেনা
##াতমা
বিশদ
পেযাজ
আইফোনের
রাখব
দশা
##বিরোধ
এনটি
করতালি
পরিচালককে
লোকবল
ওযাজ
গাঙগল
দীরঘসথাযী
শাি
যবকদের
শরীলংকা
খাটি
##পরাণী
চরমপন
োনই৷
ভকতভোগী
মিলিটারি
মারাতমকভাবে
মদরণ
ছডতে
##কণঠ
সিদধারথ
চপচাপ
তারকারা
নাবিক
মরণোততর
বিভরানতিকর
আতমীযসবজন
শরফদদিন
দিনমজর
নডে
ীয
##িতর
##জোর
##কবির
##দমান
নিরপণ
##করের
থাকেনি
##ংশন
সংসারে
রাখাইন
বিএনপিও
পরিবেশনার
##াপততা
ফটপাতে
সিনেমাস
যোগাযোগপরযকতি
সাইটে
বসেছিলেন
কষমতাধর
পাকিসতানী
কষিবিদ
অধিষঠিত
অলসপর
সবরণা
োগা
পাটরিযা
সমপাদন
মোললাকে
আরোপিত
বিধিবিধান
বিদযৎকেনদরের
োশখ
বহিরবিশ
বিনদমাতর
ফিজিও
ডেনমারকের
ছাতরাবাস
শারমীন
এমদাদল
ইনটারনযাশনালের
রেগলেটরি
গযারি
ছহল
ডানা
ফিস
রীত
ষট
##রমের
##কিলোমিটার
##াদাযক
##িরভর
সংকো
আমলেই
শিকষাগত
লাফার
কেনাবে
##এসএফ
##সেক
মাসাকাদ
আনছে
পরাশকতি
উইমেন
##ভিযের
সযোগটি
১৩৭
পরোটিযা
##ষাঢ
দাফ
ফটপাত
ওযেসটার
গাঙ
বিবদমান
এইচএসসির
চালিযেছিল
আনোযারের
নিযমিতভাবে
অরধন
জিতলেও
কারখানাটি
নিযমতানতরিক
বারষিকী
অভিযকতদের
নাদিযা
কৌশিক
অনিযমিত
মফসব
##ভানডার
মনসিগঞজের
মাদারীপরের
অমীমাংসিতভাবে
জেএমবির
সধী
সংকরমণ
আকষরিক
সাবলীল
ভৌগোলিক
কণড
কাইল
ফেলায
বটিশ
মডার
##মিসট
##ানড
##যেলের
নাথান
পািক
দেশটিভি
কোনোটাই
##িজে
অসাধ
রাখলেন
##হারের
রাষটরপকষ
ডিএফ
আহমেদসহ
নিযমক
সদরল
সদরপর
দিলারা
বিনয
পরাণিসমপদ
বনদো
এফআই
সংসকতিতে
ভিডিওচিতর
মৌসমি
পরিবহনে
অজসর
গরনথাগার
নিকষে
বিএসএফের
এলোপাতা
অযাটলেট
##ডিসিতে
লেখাপডার
হিটস
নিরমমভাবে
রাকিবল
এসবিটি
চিতরাঙকন
উদঘাটন
মলযাযনের
ঠাণডা
মহারাষটর
রাষটরদরোহ
নিরৎসাহিত
এলোপাতাডি
অমলয
কদম
গাপটি
ঢোল
##পোলি
##বিকে
##হদ
##োজন
##ানীতে
পরতন
তারানা
যেখান
করমসথল
যাির
##ডিউল
আহা
সমপরি
বারল
শিলপপতি
বাকের
লেডিস
বসাতে
##মবীদের
দোতলায
সইং
মহরতেই
কাটছে
পযলা
সংযোগের
১৯৫৫
উতথাপনের
সঙগীতের
উপসথাপনায
মিনহাজ
পেটরোলিযাম
অসতিতবের
সােড
সঞচালনা
মযাককালামের
ইটভাটার
যোদধাদের
পরবশরত
িবভােগর
আকতির
ছাদের
ঝে
ধমকে
##জাব
##ানতির
##েশর
বলায
জানাজার
জানযাির
সবখানে
মোডের
বযাজ
পেপ
বৈচিতর
রোপণ
চারলস
হারালে
আদিল
বিরদধেই
উততরায
পালাব
শাহাদাৎ
পরিবেশক
ঘোষণাও
মিলার
##পাশা
মরগির
চিকিৎসাসে
১৬৬
অনযাযভাবে
জবস
লেট
চািলেয
##তাবিরোধ
পাবো
শরেণিক
বিরোধীরা
রামর
করিযেছেন
টানাপো
ছককার
বরগকিলোমিটার
কটনীতিকরা
##পরেমী
টেলিফিলমটি
ডাইং
খজছে
পেশাজীবীদের
পিকেটিং
ইযাসমীন
োফব
বাঙালিরা
বরহমপতর
থিরিমান
ইসর
কটির
ডেলি
বসর
হটস
##গোর
##শীর
##ামণড
##পরাপ
নিরলস
##মাতা
আহরণ
##শিমা
ভালোবেসে
##সমযে
পদটি
আনান
পরাচীর
দবিতীযটি
##সারস
উৎসে
##বোধের
কালপনিক
খাদেম
আগরাসন
মিশা
সাবমের
আমিরের
উৎপাদনকারী
এসআইটি
##ওযানি
হসতকষেপে
হেলেন
বাছাইপরবে
টাঙ
আইএসপি
অঙগীকারের
যাচাইযের
##পরকাশের
রমজানে
হতাহতদের
পরভাত
উইলসন
পরোডাকশন
পতরপতরিকায
সজাতা
শিকষাবোর
গরাজযেট
ইযেম
মাকস
ামী
##েডর
##ফফার
নাযেক
##বারট
##রাগন
সংকষেপ
করাচি
কারতিক
গরহের
উদীযমান
বিরাম
নযতো
মনসতা
ইনশাললাহ
আপলোড
##াধা
মকতিপরাপত
পিষট
এতেই
লকষাধিক
কোনটির
##জেস
করমসচিও
সমযেও
জোসেফ
গলিসতান
বসনিযা
োশেষ
মেযেটিকে
অযাপোলো
কাউনটার
গারদি
সবরাজ
শোকসনত
থানাধীন
আডাইশ
মেরেছেন
বিশলেষণে
নরসিংদীতে
রাজনীতিকেরা
মকতিযোদধারা
অরধশতকের
কডিগরামের
কসোভ
খেলাধলার
পরজাতি
দাপটে
বেডাচছে
লডতে
বনদযোপাধযাযের
টেমপো
লীলা
বযাটালিযনের
এমআরএফ
উৎকণঠা
অভিশংসনের
শিষটাচার
বানধবী
শোকসনতপত
অজিত
জস
সজান
হতব
োট
##ঙর
##ৈল
##োশ
##বেই
##ামালের
##াকী
নাহ
যেতো
রাশিযান
দেখো
সিটিতে
বরিকস
গেটে
ইসলামও
মারকস
বকশ
জিঞজ
মলান
জবালা
শোচনীয
বিশববিদযালযসহ
বৈঠকটি
সফরকে
যারির
হারিযেছি
জনগণই
গাজীটিভি
কথাবনধ
লডাইটা
খেলেছিলেন
##গারের
বরাজিলে
##লাইট
একবারও
টারন
চিরন
বেঞচের
ইভেনট
ইতালিযান
দাপতরিক
অহংকার
নেতবনদের
ডরেসিং
কারযদিবস
সাইনবোরড
গলিবরষণ
কীটনাশক
বকষরোপ
কঙগ
কাড
খানা
পিযাস
লরি
##নাস
##বনের
##ঋণের
##ামো
##পরযনত
বাতেন
আরকাই
পাতি
মতৈকয
ইসলামীকে
মনিরা
মখসথ
হাটা
লাখেরও
শাহনে
সিনেমাগলো
পরবত
##ভাঙ
ভেদ
ভেসতে
জযকে
বিশববিদযালযগলোতে
ওযাসিম
মিরজজা
সপারের
যেমনটা
খাদিজা
ফিতরের
নযাটোর
##ফোড
আমনতরন
কাটাতার
আধনিকাযন
গোপালগঞজে
শিবপর
অভিষেকের
অটোরিকশাটি
ইচছাকত
আবেগের
সাফাই
পিরোজপরের
উপকলের
োচযারম
জযোতির
বিআরটিসি
অযারন
এলবিডবলিউর
জাইকা
ঘেটে
সষটিকারী
লাফারজ
অরধনমিত
সমপরিমাণ
টানাপোডেন
এেত
চেষটাই
জযার
ঢালাও
ভিম
##খলা
##অযাপ
##তিরে
##পরিকর
##বিচছিনন
##নিট
পরতিজঞা
##মানষের
কমবল
##টরিকের
মানদণড
মাননানের
বিশবসেরা
বেবি
বেদী
নামলে
অসাম
হারতে
তোযাক
বারড
তললে
নিরদেশনার
সৈকতে
ওযেলিং
দরনীতিগরসত
নববরষের
পৌছাবে
##তাসং
চকরিযা
অরডারে
অলিমপিকের
নবীনগর
টিউলিপ
ওলামা
কাশমীরের
একসপরেসের
নহাশ
শষক
##ভিলা
##দত
##ছটি
##থাম
##াদো
##পরযোজনীয
নাড
সরত
কোপ
নিরনতর
উপনিবেশ
রাফাযেল
শরতি
করমবিরতি
বিশবখযাত
বিশবমানের
##িজম
মারছে
##সেবার
তোফাজজল
ইনসট
বিশেষণ
##উদদীনের
##সকোপ
ছযজনের
বাসতবতায
##বনদি
করমকরতারাও
মিশরের
ইউনিস
আসাদকে
##মণি
কাটানো
১৯৫৭
রিকশায
##িলিযান
১৯৪৯
সোনম
শৈলক
ইভেনটে
গালাগ
সেকটরের
বিকেএসপিতে
হযামিলটন
আইএএনএস
সিডনস
কোরআনে
##মরমিতা
কপির
কৎস
শেরা
##জাম
##কিক
##গাম
##মনে
##ছাট
##পরবের
পরিপতর
উপাধ
উপনীত
রাশ
শিকষান
সহমরমিতা
হোসট
অভিভত
মারস
ইউনিক
রোম
চালাবে
পরতীকষিত
ডিভি
জাটকা
ডিসিদের
##আরবি
কোরসের
দামপতয
ভোকেশনাল
বেলাযেত
নবয
বেসরকারী
শাসতর
অধিনাযকতব
খেলোযাডেরা
খরশিদ
মোকতার
চাকরিচযত
হইল
রাশিযাকে
নিবনধে
বিধানসভা
টাচ
নেতাকরমীকে
মধযরাত
বসতনিষঠ
সযারের
গরিডে
শযামলী
অবসানে
কেরানীগঞজের
হোযাটস
আতলেতিকো
টঙগিপাডা
বরোকারেজ
ফারহানা
অগনিনিরবা
নসরল
কচছ
লিস
শাট
ীকার
##জযনত
##জমিন
##শপ
আমতয
অবতার
##ওযারি
মেসেজ
এমিল
রাখলেও
টাকাও
মনডল
সরবপর
পাঠের
পাঠযস
জীবিকার
১৪৬
কমিটিও
গাঢ
বিশবাসঘাত
বিবেকের
##হাটি
বিকষিপত
সইযের
করপোরেশনকে
ভেবেছিলাম
১৯৬৪
পাতলা
কাযরো
মাহফজল
তেজসক
অধযাদেশের
রাজাকারের
সিএসইর
অজঞাতপরিচয
শাবানা
কযাডারে
দৈনিকে
পরযটকদের
অচলাবসথার
পানিসমপদমনতরী
পানিবণ
মজাহিদল
উইকিপিডিযা
আইএলও
পাটকল
আলেকজান
উকত
চেনে
ঢাবি
ধাপের
রিব
লঘ
৪রথ
##যনি
##তাজ
##ঠাসা
##যাই
##যাইন
সমতিক
সমীকষায
বলিনি
হযিন৷
শরমের
##ডেত
অবগত
সহাব
গেটস
ইসলামপনথী
আশি
কযেকদিনের
##সমদধ
খানসহ
দিট
##তীত
ভাইদের
দাশের
অভিনেতর
ভারতীযদের
হযাডিন
এডানোর
লেগেছিল
োসই
চিরতরে
লিখিতভাবে
চাপাতি
পষঠায
চেতনাকে
শারীরিকভাবে
শিখর
গরিনহাউস
মযাজিক
কলোনি
ফিউশন
দরগাপ
নশং
মোনাজাতে
মনতবযে
দরনীতিবাজদের
আফসোস
ভিটামিন
নসরাত
এনটারটেইনমেনট
সমবনধে
অকাল
চযন
জডি
দপকষের
হেলা
##গাস
##খডি
##বধর
সমবোধ
কষকেরা
মেমবার
উদভব
হাজারে
সারজিও
বারক
বাডান
বাডেনি
বিপদস
##যোজনের
ঘণটাবযাপী
ডেসক
নাগরিকেরা
নাসিমা
##ফেযারস
খেলেই
ফেলল
মতিযার
##ভযতথ
বরষবরণের
খসডার
অনসারীরা
ভেবেছিলেন
কারিগরী
##িওগরাফ
মদরায
থিযেটারের
মারধরের
শরোতা
জবাবদিহির
উদভাবনী
বিটিআরসির
শবাসরোধে
উইমবল
জবাবদিহিতা
পলযাকারড
তাবলিগ
জেসমিন
লঞচে
হাইল
##রর
##মোট
##ধির
##দাতার
##তদের
##যাবের
বিছ
বিদর
বিযোগ
বিচলিত
বলাড
সরানো
বাংলাদেশির
গরো
থাকতাম
ঘটলেও
সামির
লীগও
পডেও
নিযমের
পরশনপতরে
উদধারকাজ
টেলিটক
ভিউ
উঠবেন
বিলবা
রপানতরের
আফছার
আহমদকে
চিঠিটি
##শিকষিত
পিলখানায
অভিভাবকেরা
তোলপাড
কলপনার
জযাকব
টরলারটি
অবমানন
পলাশবাডী
রযাবের
অিভযান
নোটিশের
যমনার
আইএসআইযের
পনরবিবেচনার
সবাচছনদয
অনীহা
লঙকান
ডবল
পীয
পসপ
ভাডায
মদি
মাইকে
রবির
রটিন
সপরে
িচি
##রীর
##বালা
##শঙকর
##ডেল
##কেশ
সেও
কোমর
কোষের
##দরব
কারডের
মাতা
চারদিনের
মনতরনাল
বডই
গোডা
এমনও
সারাকষণ
পাঠাবে
ততকষণ
##সাথে
লকষমণ
শনিযে
১৭৮
উচচাঙগ
কতখানি
অফার
গাং
অতিষঠ
বিললাহ
সীমানায
রফিকের
যাতরায
ভাসতে
রেজাউর
পরযোগে
ভাডাটে
মেরেছে
দঢতায
করিসটো
দেখেননি
রকষণভাগ
সিলিন
শিকড
##থেরাপি
অভিবযকতি
মতিঝিলের
ওবামাকে
জবানবনদিতে
টরলারের
উদদীপনা
উললাসে
নেতরকোনার
মনজিল
রেফারির
োকানও
পরিলিম
শফী
কনডিশন
মেনডিস
গণভোটের
নকষতর
জনসবারথে
গলার
গীত
ঝোল
রেন
রেই
লঙগর
৫ম
##নং
##ভরে
সমিত
বাপা
বাঞছ
দলসহ
দলকেই
আসতেন
##াগঞজ
সিজি
##সিফ
উদবাস
এমস
আমাদেরই
গণিতে
আজহা
ডিপি
সংগীতে
##চছল
##সনতান
শোভা
##খেত
##কোভিচ
জেসন
মজবত
চাও
কযাট
শাসনে
সৌমিতর
এনেছি
৩১টি
লিখবে
লিখছেন
##শোনা
##কষমতার
জেরার
দঢতা
হরাসের
সংশোধনীতে
মসলমানের
ঝলনত
পদারথের
পরথমারধ
এমএমআর
অযাকাউনটে
##যাতরায
লজজার
কাওডাক
োপেয
পারাপারের
শবেতাঙগ
বরাউজার
মরিযম
কারযাদেশ
সৌহারদয
শভা
সাইকেলের
##জিক
##যলার
##তলে
##ঘল
বিজন
জনসবাসথয
##মানি
##াডী
কারল
##সিযার
বরধন
ঘটান
##লিংযের
পরসারে
গানও
ফেবার
বাহন
সাহসিক
ফরেন
লাগেনি
কোরিওগরাফ
বিশববিদযালযগলো
বদধপরিকর
ধরমকে
যৌতক
ইসরাফ
নেমেই
তরণরা
কষমতাসমপনন
গাইলেন
মাতভাষায
পরাইমারি
সোযাইন
১৯৪০
ইটপাট
কষণিক
সেজনযই
আেযাজন
কিনেছেন
ছিনতাইযের
সঞজীব
নডবডে
ইফতেখারজজামান
জনসচেতনতা
কিমিটর
ইলেভেন
বিসতীরণ
বনদোবসত
তোযাককা
গলেন
ঘমান
টযর
পদা
ফিদ
বথ
লাযন
লেনের
হদার
##থিতে
পরফ
একি
একশরেণ
জানো
সেফ
দেখলেই
##সিপ
আহাজার
##নারা
শেষবারের
ছাতরনেতা
বারধ
ফিরবে
পোকা
##ভাষয
ওযাসা
জররী
দরশককে
পরতিকরিযার
ইরাকি
করমীরাও
উদদেশযমলক
দঃখিত
দেলোযারের
মনোনযনের
হিমা
চিরকাল
পরতযকষদরশীর
সেরগেই
ওযালী
আইসিইউ
কইজ
পরবাসীরা
অযাঞজেলে
ভদরলোক
কৌতহ
কাওসার
অরগানাইজেশন
গণঅভযতথ
অযাকটিভিসট
কোটালীপাডা
সিনডিকেটের
বযারিকেড
আতমসমরপণের
ওযেসটারন
গযারে
চাহিদ
ঝলক
ডানে
মরিযার
িহ
##মিনা
##মরিং
##ধনয
করসে
করণা
##িকট
##কষীদের
অনিক
কারার
যেটক
সাযেন
রাজিযা
##ওযারথ
শেষপরযনত
হারার
মনতাস
পদসথ
নেতাই
মাধযমেও
সথানটি
১৬৭
রকষিত
বরিজের
বাদীর
পালনকালে
বিবিসিকে
##ঙখিত
২৯টি
পঞচগ
লকষযেই
সিরিযাস
সরবরাহকারী
##হিদর
মেঘমালা
অসসথতা
পথকভাবে
ইশতিযাক
বযসেই
রাজাপর
ওযালটন
সিআইডির
চিৎকারে
অরধশতকে
অপারেটরদের
কোহলির
লেনিন
অসথিতিশীলতা
মিঠাপ
ভিযেতনামের
নযাদিললিতে
ধরমানধ
বডাইগরাম
পযাভিলিযন
সংগীতাযোজন
অজান
যালি
হেনা
িগেয
##পযা
##হানের
বিত
বিচছেদের
করমকার
##কাট
রহিমা
মিটিযে
হারালেও
##দারন
রেওযাজ
##সাট
কারযপরণাল
মোহিত
১৪৯
মরক
বাইবেল
ভাবনায
##ভরভ
বানর
এইচএস
পরযকতিগত
ফেলেছিল
চিতরকরম
দোযেল
পেরেরা
সশঙখল
সমভাবনাও
মিসরে
বরাজিলিযান
অযাডভেঞচার
মেরদণড
রানাকে
চালায৷
১৯৫৩
বিধবা
োবশ
লিমিটেডকে
##ভাযরন
ফেইসবকের
রাজীবের
নিতযপরযোজনীয
ভিলিযারসের
তানজিল
হোলডার
তনময
রেমিটেনস
সমীচীন
ইউিনযেনর
##নধরমী
সাবমেরিন
লঙগরখানা
কনে
সচিতর
হণ
ারা
ােয
##যেশ
বলত
বলকে
এইট
নিরগম
পারসি
##মাখা
শরতের
রাজকনযা
কষটকর
মেসারস
বিশববাজারে
মহাদ
বাসভবনের
অসহন
বিকরিযা
নেতাসহ
টিচার
তৈমর
গানটিতে
##িকিং
শিলপীকে
কারণও
##মারের
ফলন
সিদধানতটি
ফলেই
##তনতরের
বেডেই
খনিরা
আযতনের
বিনযাস
পেরো
গহসথ
ভেতরেই
মেলাতে
সংসকারপনথী
অসমমান
অশব
জিনিযাস
সপিনাররা
অবনতির
চিতরনাটযকার
চাপাইনবাবগঞজের
ভিজি
পনটিংযের
গোলডকাপ
নিমজজিত
কতোটা
এভিনিউযে
সবযংকরিযভাবে
রেমিটযানস
সোরস
লাঠিস
শাশডি
গাফিলতি
গণশিকষামনতরী
উনাকে
খটিনা
ডেনটাল
তপতি
সগনধ
োত
##েযে
##শাদ
##ডিকে
##অর
সমাস
জনসবারথ
সবীর
মানেন
নিরবাচকরা
থাকতো
সামেন
সেইসব
হতযামাম
পিএসসির
ছবিটা
##জাতীয
এটিও
পরীকষাও
বসতির
ডেস
হরতালবিরোধী
এইচএম
অবসথাও
ইংরেজির
তেংগো
জাফরল
৭৫০
জযাকি
শাখাওযাত
১৯৬৫
ইউএনডিপি
ইনডাস
অবিচল
পরাইভেটকার
সনতানেরা
শাহাদত
চেনেন
পরিযাংকা
বযাকটের
লজজাজনক
পরতিহিংসা
মেটানোর
শঙকায
ডিজিএফআই
বজলল
সবৈরশাসক
সহপাঠী
অযাশেজ
ফতোযা
উচচাভিলা
পীযষ
অখণড
বেনে
সিনা
হালি
িভ
##ফিরে
##ষটে
##ালিযা
তারার
অনভত
সেলে
পারছিলেন
দেশাই
কমেনি
##গরসথ
কাটায
চেঞজ
এমএস
বরস
গেটের
মযাগ
##োটাই
লিগার
আনলে
অরড
অযাফেযারস
সিনেওযারলড
১৮০০
শনলে
রিটে
জেস
আটলান
##দানকারী
মিরাজ
ডেথ
সচিকিৎস
সডকপথে
লাইক
জেনারেলের
পঞচকবির
যৌথবাহিনী
আতমা
সতরকতার
ভযানক
দরদশা
নকআউট
এইচএএইচ
চাদাবাজ
বিলপতির
##সথাপনা
ইউকরেনে
খযাতনামা
বিধিমালার
ঢোকা
বসনতের
ইনসটা
মেইলে
বনযপরাণী
মসতিষকে
পেটরোবাংলার
সেগনবাগ
বিরোধিতাকারী
নাবযতা
অঙকে
উকি
উপরের
গদয
ফাদার
মটরস
##েসের
##হোল
##হরের
করেছ৷
থেকেছে
পাচে
মাধর
অবশ
পেচিযে
শেখানো
অভিধান
বহিস
দিকেও
পদকষেপে
নারসিং
চিটা
পডো
হকম
পরবীর
দলীযভাবে
##সীমায
পাবলো
দরতগতিতে
রাজনীতিবিদেরা
ফেলেছি
নিউমার
যগমমহ
ছেডেছে
চনদরাবতী
সাকষীর
পযালে
নাসিরের
ইউসফের
কষদরঋণ
মোকাবেলার
জাতীযতাবাদ
জোরদারের
ফটবলাররা
সিপিবির
ঝলসে
কিমশনার
পরসিকিউশনের
জরজিযা
এগারোর
নাতনি
পলযাটফর
সিচব
আমদানিকারক
শিকষানীতির
একসটরা
মেঝেতে
গজারিযা
কডাকডি
শেষমেশ
যগমমহাসচিব
আবরতিত
ইমি
খলি
পঙ
মসত
সানোযার
িভি
##ভষণ
##ডী
##থরি
বিশবপরিচয
##ঞজর
এলডিপির
কলানতি
কলকারখানা
সযোগই
দামও
শেফ
ভোটিং
বসাযী
তরণকে
পরশিকষক
পথিবীকে
বিধানের
অপারগতা
আরিফর
নিউজিলযানডে
মাতব
কষেতরের
ছোটা
পনঃপরতিষঠ
ফেরদৌসী
চামড
সারকভকত
ছিনতাইকারী
থাইলযানডে
ঢোকে
রপকলপ
মযাকসওযেল
ইযথ
আধারের
ঝালকাঠি
সেশনজ
নীতিনিরধারকদের
পারাপার
পরোগরামের
আগরাসী
িবষযিট
লনডার
খাযরজজামান
নিশচপ
গাঙচিল
খটিনাটি
কজন
নটর
বধয
বালা
যের
##জম
##জাহ
##করি
##দাদের
##দরিদর
##হোর
##যেদল
নিউর
নেপথ
সরকষায
কোযেল
সবোধ
যেভাবেই
##গরভ
রাজসথান
মানলে
দিনটা
কলামে
ঘোলা
পদকে
হাটিক
##চছের
সাহাব
ফরিল
পরোফ
লোকাল
ভেদা
##যবসথার
সষটিশীল
ধারণকত
ভিপি
জরাসিক
পরাণবনত
সোহেলের
কযানট
মাইকরোবাসে
মনিম
আডাইহাজার
মিউজিকযাল
নানামখী
তিনজনই
সটারট
১৯৬৭
জাদর
ভগছে
সবসতিতে
##মেযাদি
টারমিনালে
রপতানিকারকদের
আরামবাগ
িচিক
অভিযাতরা
ইউনিসেফের
এমাজউদদীন
এনটারপরাইজ
সেবাদাতা
##ইউজে
পনরমিল
##ভাযরনমেনট
গণে
তছন
ধাতর
শসয
হযার
##ানদার
##ালড
##াযারে
##তরির
বাষ
কোম
সবাস
##গরণের
দেখভাল
সংসপর
আপা
পৌছেন
পরচারা
বদধিমত
মনোহর
চানদিন
রপপর
##াবাদী
কানাড
এলাকাটি
##গোনা
সেলিমকে
গহযদধের
##খিলে
বিচারকাজ
সনতষটি
কখনই
পাটকেল
সযারেস
মসলমানরা
কলাউড
অংশীদারিতব
তরটিপরণ
মোসলেম
বেলারশের
লোহাগ
ছাযানট
সযামযেলস
ফাযদা
তাবিথ
শাহনেওযাজ
তছনছ
উজান
এপ
কডিযে
তাকালে
পালের
ফকস
যাকের
লকো
শেলা
##পানি
##ভোর
##ারল
##যেস
##ামতে
##াতিক
আরন
বযথিত
উপপরধান
শরমব
করমকান
টোল
নামবেন
সংসারের
বাসদেব
বিষযটিতে
##জিংযের
জিপ
##মনগর
উইকিল
##এমিব
বাহাদ
এরপরে
ভরপর
##েশনাল
তলতেই
##াটটা
মালিকপকষ
নাইটর
##যকষম
##শিলপীর
ইকযে
সমতিচার
পরাককল
অযাডমিরাল
সাকষীদের
৩৭টি
অঙগনের
কৌসল
বযসততা
কাঠমানড
টযাঙক
ইশারা
সাপের
পরামাণিক
এসিআই
জিহাদি
বাসসটযানডে
সষম
তাততবিক
রপকথা
চিকিতসক
গিবসন
মজলিশের
জেনারেটর
অসহনীয
এনি
ঘানা
জাসট
ডটক
দপ
দাহ
নলক
ভরণ
যতর
শখের
সতী
৫শ
##ইনে
##োত
নিধন
##াকল
জানাল
সরবা
হয৴
##বিষ
দলমত
##িকেই
বিডমব
আইই
আইইউ
সমযোপযোগী
হোতা
শেখর
কেনিযা
১৯৩০
হারাবে
ইনসপ
আনল
রাষটরকে
সরববহ
দিঘ
পরশনগলোর
দেখেছিলেন
শেঠি
বেলাশেষে
জরজর
##জারের
পরষকার
মেযাদো
সপারিশে
গারডেন
##বাধিকারী
সপতাহবযাপী
কবিতাটি
বোনকে
বিবরতন
##টরিবি
শেরপরের
সাধনার
অবাধে
এএইচএ
সষটিকর
রাজাকারদের
পযারোলে
লোকেশনে
জবরদস
কওমী
লবণাকত
ঢোকেন
গোধলির
অনাযাসে
নিকাশ
বখাটে
অনিনদয
দেবদাস
দাফনের
হোযাটসঅযাপ
যৈব
োনে
করেতার
নিরজন
দেশাতম
দিযেগো
আইযের
সহশিলপী
মানষজন
পরেজেনট
বিকেলের
খেলাই
লিটনের
সারভে
গানই
মাহফি
সিরিস
শিলপকারখানা
অনষঠানটির
##সকরিপশন
মরশে
জীবনমান
যাওযাটা
মাঝের
পরকরিযাকরণ
কলাবাগান
##তামকত
জাযগাটি
সশরম
হইযা
শরমিলা
##ঘরই
গলিটজের
উনিশ
মোরসেদ
সামযিকীতে
োজর
ভাগযবান
জিমবাবযেকে
এমডিজি
নযাপের
অভযতথানে
বিকরেতারা
লেবানন
এলবিডবলিউ
ইযং
ওপেনের
জাননাতল
চৌরাসতা
পারবতীপর
এমিরেটস
শেহজাদ
ফেবারিট
সরববহৎ
গাজার
নবান
ফযানট
শঙখলার
া৴
##পড
##পতের
##দরা
##াযণের
সরফর
অবয
বিশববাসীর
মারত
বাসটিতে
লীগই
সদসযবিশিষট
আদালে
সরবমোট
এসেছিলাম
সিরিযান
মিনিবাস
বিজঞানে
পাননা
বিমানটির
বদধের
দরতগামী
##াকরানত
মেডিকেলের
আকল
বাণিজযিকভাবে
দরশানোর
খাতিরে
মিশিযে
আরথার
রামপরা
কষমতাসীনরা
ফাসিতে
সাকিবকে
আকতারজজামান
োদযা
োদওযার
দশযটি
খসডাটি
উপভোগয
বিসমিললাহ
অবসানের
ডরাইভিং
উপনযাসে
গযালারির
পলাসটিকের
করসফাযারে
রশিদের
গোযেনদারা
আতমতযাগ
অযালাযেনস
মেদভেদে
রেজিসটারড
বিচছিননতাবাদীদের
দৌলতপর
কষণিকালয
অকষণ
এগলোকে
জাব
ডোর
তরে
ধিক
ভিসি
সানত
সগম
##টোগরাফ
##দাহ
##ছো
##াকবলিত
জনজীবন
নেভি
##িযাসের
যাে
সিটিকে
সমযটায
দেওযাই
##েবেল
আজই
চারকলার
নিরবাচনও
লিট
বককর
মলযবদধ
শিকষকসহ
বনমনতরী
বনপাডা
নিরদেশের
কনযার
মহানগরে
শরেয
মৌন
সফলতম
চরিত
##মালয
টোযেনটির
কাটাচছেন
সমানভাবে
মযমনসিংহে
সদনে
োনওযা
সমারটফোনটির
সিলক
কষেতরবিশেষে
পরযটনমনতরী
মহাসমাবেশের
উললাপাডা
মনদিরের
কিংবদনতী
এনআইএ
পঞচাশের
হসাইন
বেচাকেনা
জিঞজাসা
করিসটোফার
যৈবতী
অংক
ইনো
উযে
ঝরণ
পঠ
পসতক
##যল
বলম
জনকের
##দিনী
বরাস
সহজাত
সংসকতিকে
চারি
টরযাক
মকতিপণ
সরবসব
হামাসের
সালামের
কামড
ভেটো
তলছেন
২১০০
বাকলিযা
বযাংকগলোকে
মাতরই
দরনীতিমকত
##ারটজ
ফরিডম
শরীফল
দেবীর
িনজ
বিদরোহে
রাষটরীযভাবে
অভাবনীয
বিডিআরের
উরবর
অধযকষের
উততরাঞচলে
দানব
রেসকোর
োজএমিব
নাটোরে
নোবেলজযী
##পটটি
নাজিমউদদিন
নিকটতম
বযালন
মসতিষক
অনতবরতী
ধাতব
##েশবরী
ালেযর
রেলকরসিং
কাওডাকানদি
ইটপাটকেল
শরমবাজার
অংকের
এব
কপার
কভারড
কসংস
নালা
পঞজ
রেনে
োনত
##জেনের
##বকস
##লেজ
##াকেনদর
সমাহিত
##িনিযো
##ঙগনের
নিরপরাধ
মািক
সাফি
##বাদন
করমজীবী
কাধ
কষিতে
মানার
বযাখযায
আবদার
সহযো
ইউপিএ
তিনেক
বহরে
চারদিন
##বনধন
হওযাটা
##াযাের
##সারী
যাবৎ
##রিযাস
আটজনকে
চাচছি
বাতিঘর
সবপনভ
চযাটার
ফোনটি
কষমতাসীনের
করেইগ
মওদদের
বিধায
১৯৪৬
আমানউললাহ
এইচএসসিতে
বিনোদনমলক
সামপরদাযিকতা
ভৌত
অহিংস
ডকটরস
পিটিআইযের
অগণিত
সবভাবতই
দরভাগযজনকভাবে
রেলসটেশন
মানবেতর
বসলেন
সহসরাবদ
লণঠন
থােক
জিনদাবাদ
অমন
এযাব
ওসব
##মাসের
##শাযার
##ভেশন
##ভিনে
আমবিযা
পরতিবারের
পাডক
সবল
পারকিং
##মাগম
মেইন
বিশবযদধ
অধীর
ভারতব
নামই
ধরবে
##বিততের
নারস
ইউনিটিতে
##োযাইন
টেবিলের
বিদেশিরা
শহীদজজামান
কাননার
অসতরশ
সইডিশ
সশানত
নিখিল
##কানদা
নানার
অসমপরণ
রাহানে
##যালিটি
অমাব
জিনিসের
সবেচছাসেব
মদরানীতি
মাহফিলের
কনসারটের
উপাদানের
ইচছক
শরোতারা
নিঃসঙগ
ফৌজদার
জামাতা
লীেগর
গভরনমেনট
উখিযা
পানিবণটন
মহাদেব
মাহফিলে
চের
ছালাম
জৈন
ডরাগন
ধামা
হটট
হজে
##টনি
##গণের
##ফিযা
##দিতে
##তকের
করযকষম
##কেক
##ামাতর
সমানে
সমীহ
##াইনে
আমলার
##বিংশ
পািলেয
শরমার
মোনা
রাজী
এসোসিযে
মানষটি
##ীবনের
কেনাকা
সাংবিধানিকভাবে
আজো
খেলছি
ইনট
লিচ
বারনার
রেট
হািস
নিযমান
এনভাযরনমেনট
এগতে
মরহ
বনজ
লোকজ
লোকটা
১৭৭
##িণী
কালকের
লেজার
##মযী
জোহর
##এইড
মতযকে
অপরাধীর
লকষযভেদ
চোটে
ছেযে
নদীভাঙ
তেভেজ
ভবিষযদ
রববানী
##নাথন
বরণবাদী
রেকরডের
মাথাচাডা
পশচিমাদের
কযারিবিযান
চমপা
অনষঙগ
একরামল
বৈষমযমলক
টিকতে
রিপোরটে
লাকী
রাশেদল
ননদিত
সেকেনডারি
পনরদধারের
হেনরি
জযামাই
পকরিযা
নাহিদের
ভখণডে
সফরসঙগীদের
বেষটনী
রদরিগে
নিযমকানন
পাডকোন
অচেতন
তীয
ফফ
যথে
লাইল
সতি
সনা
হাডে
াই
িকে
##োহ
নাকে
আমায
মাং
রাজন
মহাতমা
কাজকে
গেথে
##পতিবার
সাধারণের
##তমানের
নিশচিতে
পরকলপটির
১৭৯
সটাম
সটোন
পরচারপতর
বিতরণী
ইসপাত
দোলা
লোভে
ফারককে
রকতপাত
দীপক
মঞচাযন
আতঙকের
৩৩তম
৩৮টি
সিলেবাস
কণঠসবর
তৌহিদল
ছডানোর
সবিধারথে
অলিমপিকে
থিযেটারে
ঘরণিঝডের
জযপরহাটের
পাপিযা
টরিট
বিআরটিসির
কোনদলের
উপনিরবাচন
পেইজ
শরাবণ
বাহরাইন
ভাতিজা
লাঠিসোটা
যতরততর
অতয
ওবা
কপো
ছাটাই
জিক
টপি
বোগ
মাযার
রমি
লারা
লমিযা
সতন
সঞচি
হেম
##গযান
##ফাকে
##৫ঘ
নিশি
##াসফ
##ঙগলি
##নিষট
পরতিদান
উপগরহ
মাযেদের
অবিসম
মোদা
##কাঠ
পললি
আইরিন
চলের
মারট
অসখ
হোসেনও
দাযীদের
কলিম
পদাযনের
সারাবিশ
ডিভিশনের
পরশনটা
মরতে
##োপতা
ভাবতেই
নভো
আরেকজনের
গাণিত
োতা
মাঝেই
আযনা
সেলাই
লেখাটি
পেরর
##সথানীয
বযবসাযীকে
ধরেনর
ধারাভাষয
এজনযই
মিলেম
সিসিসি
পেনটা
নাটযদল
অদময
সিপিডির
চামডার
##াবলমবী
লংমারচ
ধৈরযয
মালিঙগা
কারযদিবসে
পাের৷
চৌদদগরাম
চোরাগোপতা
এনসিটিবি
হাতাহাতি
মাথাবযথা
বেলেছন৴
ঝোডো
চাঞচলযকর
ফাজিল
মতপারথকয
সমবোধন
অবিসমরণীয
জগত
বনদে
##জং
##দফা
##চিনি
##ানবাদ
করোধ
বিপততি
##ামন
উপচে
দেশটা
আইভরি
##তনিক
সংসকরণের
আশান
রোশন
দাবিগলো
পাঠাগার
থাকাটা
##ফিকেশন
সতরটি
ফেরনান
ফেরেননি
সংঘের
সংখযাটি
ভিযার
মেডিস
আবেদনকারীর
কযাশ
জেনডার
মাসেও
সিদদিকের
কাউনটি
জমিযে
বোরডকে
বরষীযান
৪২টি
জনসংহতি
রেডিওতে
শীতাত
বদধিজীব
জনগোষঠীকে
পোলটরি
আতমবিশবাসের
হিংসর
গতিরোধ
এলজিইডি
গোযালনদ
দরশনারথীদের
খাওযানো
রোহিঙগাদের
অযানিমেশন
কারোরই
মেযাদোততীরণ
অতিকর
ওযারি
মশাল
##ীযা
##গিজ
##উসের
বলী
##বারন
পেযার
আইবি
সমযকালে
বরম
কাজীর
কেবিনে
বাসচাপায
গণস
চারপাশ
অনযভাবে
ইনিযে
পদাতিক
সারকেলের
তথযসতর
ততদিন
পরিবেশনের
নিযতি
হন৷
##সংবলিত
মোহমমদ
কোরবানি
বিশববিদযালযকে
##বামলক
টাইপ
গারো
মেরিট
৩৪তম
পিরক
বৈশাখের
তরিপি
নানন
হিনদসতান
ফযাসি
িবিডিনউজেক
দঢভাবে
হরক
মঠোফোনের
নৈতিকতার
অভিবাসীদের
মরতজার
অনচছেদটি
##সততবা
োরেখ
োযৗ
বরিগেড
আবশযিক
মজাহিদের
পাঠােনা
দািযত
##িধক
নিরাপততাবযবসথা
অপরাজিতা
ওরেফ
সটরাউস
এসকানদার
গণআনদ
হলফনাম
##সীমানত
কাটাতারের
জরজরিত
শীতাতপ
জটিকে
মজন
হকার
হবহ
##াচছে
##কোন
##াবসথায
আরতন
শিকষাকষেতরে
মানদ
মারামার
বাসযাতরী
গণশন
রাখতেই
সমপরীতির
আপেল
##তাযন
উততরসরি
##যামের
##ানতকারী
বাডাবে
তথযমতে
বাডিতেই
পরিসর
রাযপর
১৬৮
বযাংকক
ওযাহিদল
##বাহিন
কোমপানিতে
ছেদ
মযানডেট
যাচছিলো
পেরেছিল
দরবযের
আখেরি
চরিতরকে
বদলা
টাটা
শামীমের
উদদেশযেই
কিউবা
উতথানের
অনপসথিতির
বরেট
তালকদারের
মেগাওযাটের
হযরানিমলক
বৈশিষটযের
বরধমান
অগনিকাণড
ঈশবরের
##কণঠে
সহকরমীরা
বানদরবানের
ভমিকমপের
ফারনানদো
কাকরাইল
কনডিশনে
কযালিফোরনিযার
যদধবিমান
মসললিদের
োচৗধরী
সিলিনডার
ইসরাফিল
এধরনের
চাকায
জযাস
থের
পিজি
ফোট
বনো
মতা
রটি
রচয
ষোলো
সোলার
সখয
##১১
##ছিস
##পরীতি
একাকার
##াপদ
সরযা
কোযাল
পারমিতা
কারপে
কারফিউ
রাউল
##তবপরণ
##বাদীরা
আসব
পেটের
বরমণ
ইউকে
গণের
বহদলীয
মযাড
পদপরারথী
সারজারি
##ভিষ
##পরিচযের
লোকসভায
লেব
জেএস
চাঙগা
অপরাধমলক
মানবজমিন
২৮০
নাসার
ওঠানো
কিশোরের
মতিহার
কারখানাগলোর
সেকযলার
##মালায
১৯৫৬
১৯৫৯
তীবরতা
৪১টি
মিলনকে
শোভন
যগানতকারী
শিবলী
সফটওযযারের
বেগবান
আমদানিতে
ডযানি
জেলেদের
হলিউডি
জোনস
ফিলিপাইন
মীনা
তাণডবের
সিমফ
উৎখাতের
শিপইযার
হাজারীবাগ
কালচারাল
বোঝাপডা
রমানা
বনাযন
লোগো
ডিওএইচএস
ইনডাসটরির
ভেদাভেদ
আঠার
কানা
কণা
জোল
জগল
দষকত
লাস
িতি
িসি
##াকির
##াপাডার
বযাঘাত
আইসক
বিরকতি
##ীবয
আজগর
দাবিকে
তোবা
সংগত
পরসন
মিনিসটার
তালিম
লেকের
বযবসাযের
৩৫তম
পরযকতিপণয
##হীনভাবে
রযেছি
শামমী
ভবনটির
অনতরগত
বালিযা
ফারকীর
চলাচলকারী
দাডিযেছিল
গহবধর
সমারটওযাচ
নিঃসব
১৯৫১
সোনারগা
১৯৬৩
হাযদারের
শীতকালীন
গবেষকরা
এডিপির
দাশগপত
মযাজিসটরে
নদীগলো
ফতললায
খালেকজজামান
যাতরাবাডীর
অরাজনৈতিক
বরিসবেনে
আগারগাও
মাঝমাঠের
ফারগসন
পনরনিরধারণ
অকসফোরড
এইচআইভি
চিরনতন
কৈর
গীতি
লল
সসবাসথয
হাডি
ালয
৬ষঠ
##যেও
নিবাস
নিভিযে
একটায
বাঙগ
বলকের
##বারি
##রাচর
##কারজনক
সংযত
##বািড
নিরভ
নিরভল
##লোল
##করড
মাঈ
মাউনট
##নধার
মেটাল
চেইন
হোসেইন
চলায
পরধানমনতরীসহ
আশিকর
তোতা
নিরবাচনই
নেতাও
উপজীবয
হতযাসহ
কলেজকে
শাহের
কেনদরটি
পরশনও
ডিসটরিবি
বনানীতে
##োপল
অনযাযীই
রিভল
হাতছ
শিডিউল
পরসকারপরাপত
সাজাতে
##হীনতায
যগমসচিব
##তললাহ
রাখেননি
যাতরীকে
পরেমিকার
আরথিকভাবে
হালিশ
আধযাত
##িনেস
শনেই
সপিকারকে
সপষটভাষায
পরতিশরতির
শাকসব
পিরষ
##জানর
যকতিসংগত
সনতপত
আউটসোর
সথিতিশীলতার
##চিনতা
আবিষকারের
বনদকযদধ
মোবারকের
কডাল
টরিবি
মেমোরি
আঙগিকে
ইউটিউব
পথচারীদের
দরগাপর
মোখলেছর
জিননাহ
শাহজাদপর
আরপিও
নডাইলের
অসনতষট
আংটি
মোদাচছের
মিলেমিশে
আধযাতমিক
অজঞান
আঞজ
ইএইচবি
গবাদ
দবির
দসয
ধী
সজনের
হানে
##জলের
##গনের
##খানের
##উডের
##ানটি
পরানা
বিতত
সমথ
বলয
দেও
নেহর
দেশটাকে
##িমাল
ইসলামিযা
ইসলামাবাদে
পরধানমনতরীও
মামার
##ানিযার
আশংকা
মনকে
ইনসা
দশটা
পরীকষিত
##যামত
অযাগ
##চছতর
ঘটনাপরবাহ
সবাধীনতাবিরোধ
তাহার
বিপকষেও
ধারণের
অপরাধীরা
কষমতাকে
বাকিটা
সবিধাভোগী
দোকানি
রোগীকে
চযালেঞজিং
৬৫০
পরানতের
দণডাদেশ
পরিনটিং
সকযারে
অসকারজযী
যনতরপাতির
তীরের
কাকডা
##ষকতায
চিকেন
সমতিসৌধ
ছটতে
নিরবাসিত
অযথা
মযারাডোনা
রোমাঞচকর
পাশচাতযের
োযাগ
অনমতির
গাণিতিক
তরিপিটক
অঞজ
ওখান
চওডা
ঝোপ
তলি
তাজিক
যগল
##জালে
##কোট
##ভেনের
##ণঠ
নিতেন
##াসীকে
একচছতর
বাথর
পরতির
পরতিবার
পাির
আসতেই
##েমি
##তনগর
ভারজ
ধরপদী
অসঙগ
রোচ
##সবাকষর
পরতীকে
##মিতি
কলকার
১৫৭
গোম
গোনা
সরবশকতি
অরনত
তৈয
সাহাবদদিন
লাগত
জযটা
হেডে
সটোক
কালর
মজল
গাফফার
আতমগোপ
পরসকারটি
বাজেযাপত
সাজানোর
##মাধযম
বিকষোভকারী
টেকসট
অভিজঞতায
চযামপিযনশিপ
সাদামা
৩৬০
দবারপরানতে
মেঘে
মামনকে
কবিতাংশ
রিকশার
পেনসিল
োবা
মাদকদরবয
গরিবের
সমভাবযতা
কাইফ
বেডানো
নিচতলায
বিসমযের
শরণাপনন
মযাগাজিনের
নিকটবরতী
কিসতিতে
ফিলিপস
সরোতের
শেযারবাজারের
মঙগলের
অরাজকতা
অধিবাসী
জীবাণ
কোণঠাসা
বিলাসবহল
গাদদাফি
ছিদদিকী
পরমোদ
পাটোযারী
ফটিকছডি
নেতানিযাহ
সীমানতরকষী
সরবপরথম
হরকাতল
কানেক
ঢিলে
বশে
মছ
শীতে
##গেশন
##মরল
##মকতির
পরলোভ
##িকরম
##কৌশ
##বারগের
জনবহল
দলা
হাসেম
রহিত
শেষদিকে
অসব
১৯তম
মিহির
##সটিক
##সমাজের
সারবিযার
মখোপাধযাযের
চিপ
ফিরলেন
বাডিভাডা
দলীযকরণের
লোকটি
পকষপা
তাহসান
গলফার
ডেড
হতাম
দিকগলো
সবিধাও
আগরাবাদ
এফএম
পাহা
ফলাগ
##পরাচীর
মহাপরিচালকের
দেডটায
ভিডিওটি
১৯৬৮
ঝলিতে
লাইফসটাইল
নাছিম
বিহারের
দরভোগে
ইউনিভারসিটিতে
আকাঙকষার
বিআইডবলিউটিএর
হাতবোমার
পানিবনদি
এএমটি
আশরযে
রজনী
িছেলন৷
নিরবিঘনে
সমাদত
হতবাক
পোলার
ফাগ
মাড
শঙকার
##পনের
##গাডি
##ভাকে
##ষটার
##যাকট
বিদেহী
##িততিক
পারভিন
##গরীর
##কােল
রাজকীয
কষয
কেএম
নামটা
অনেককষণ
##সবাসথযের
রাতভর
##তবযসক
উননতমানের
পাচবার
চিগম
শোকে
##টনির
নৌক
ইসপ
সমমানী
##িসটরি
##ষিকীতে
নিবনধক
শামীমর
পরদানকারী
এককথায
চিরদিন
পরিদরশনকালে
দীপিকার
অভাবের
বরগমিটার
অভিষেকে
বাগেরহাটে
সনিরদিষটভাবে
ডিপজল
শোধনাগার
পরতিনিধিতবকারী
ভিজে
পরহরী
ইকোনমিসট
দরঘটনাকবলিত
গোযেনদাদের
সাওতাল
আতমতযাগের
সানজিদা
সাযেদাবাদ
ইযাছিন
বাদযযনতর
জরডানের
জাওযাহির
অডিট
ইযাম
খানে
ঘডির
চাব
ডিযে
পবা
লেল
##সাপেকষ
বিততব
নিবার
##কারক
জনকলযাণ
##যানার
##নিযাব
সবনিরভর
##টেত
##গরভে
কাতর
পেতাম
আইকন
আহাম
আইনবিদ
কলহের
এসেও
চৌধরীও
হকমের
পোপ
##বন৷
##বনিত
মহাসচিবকে
সটেপ
হাইসক
পনরজজ
পরিকলপনাও
পরাণি
সামাজিকভাবে
কষিবিষযক
লিখতেন
ফরিদর
অপেকষমাণ
রিযাদের
আমিনকে
শিকষারথীরাও
িনম
বষটিপাতের
##পোসট
উডতে
পরতিবেশীরা
মতবিরোধ
সোনাকষ
টযাং
ভটভটি
##চকরে
##জোড
উপনযাসটি
রণজিৎ
##বিধায
কাকলী
ভরতকির
সওজ
তাসলিমা
ফলোরি
বাকসবাধীন
পারটনারশিপ
টযলেট
বঙগোপসাগরের
ইউনিসেফ
পরারম
করোযেশিযার
থিরিমাননে
বারধকয
ধামাচাপা
আযাদ
ওপার
টযাট
ডমিনি
ঢলে
নোল
িরে
##পেশ
##ফটে
##ভীকে
##াবসথা
পরতিজঞ
উপসহ
উপাসন
দলগত
মাগরি
রাে
অবমকত
করমদিব
এমজে
থাকবো
মতৈক
বডদিন
ভাওযাল
জিআরপি
টিযার
পালাতে
সরবরা
ডিবে
বিপকষের
অযাপার
করতাবয
বাইস
বইছে
১৭৬
থাকবেই
##লকাম
উঠা
জেনেই
এইচটি
ছেডা
আযত
ঘটনাই
বনদকের
ডরযের
পরিযজনের
মোবাইলের
বযবসাপরতিষঠান
চরিতরটির
ধবংসাবশেষ
সানচে
চরমভাবে
নিরভরতা
যকতিতে
চিরকট
অনসারীদের
কাশিমপর
রশমি
অমরতয
##নাটয
সেরনিযাব
আইসিএল
ফরেঞচ
টারমিনালের
উজবেক
ইপিবি
শযালা
কেমো
পষঠপোষকতায
দকষিণাঞচলে
টেনডারবাজি
পদমরযাদা
পযারাগযে
মলধনের
সফিকল
পেনালটির
সাদাকালো
বিপদসীমার
হাটিকমরল
আচল
আচছনন
টাযার
দলেও
পলেট
রপার
ীেদর
##ফটের
##দযের
##তলের
##হড
##তেল
##িরাই
##াইনি
সরোতে
পারদরশী
এরাই
##গরো
এসটেট
পেযা
সথিতি
১৯০০
নেই৷
সপলিন
ভাটি
##ভিটি
হাটার
১৬০০
পকষানতরে
জাহেদ
শিউ
তততবাবধান
পরসকারও
তরটির
তরসকে
উপাধযকষ
অধিনাযককে
এলাকাগলোতে
আগরহে
ঋণখেল
শারশা
##েনসিযা
অযালবামটির
সশিকষ
ইনিংসটা
কাটেনি
বোলারের
মসলিমদের
জাফরললাহ
মানিকের
োগেল
পরযালোচনায
পটভমি
ভগতে
বরাজিলকে
ফাইবার
##াবাডিতে
দিতাম
ডালিম
শযামনগর
দশচিনতায
এযারলাইনস
আদরশে
পিটনি
ককরের
জাগরণের
লরডসে
কিমিট
মাকসদ
িছল৷
কিউইদের
ভেনেজযেলার
অপরিকলপিত
আতমগোপনে
চিগমবরা
ইনধন
এথ
ভের
মলা
শঙকর
বিচিতরা
বিচযতি
নিরভার
আরটিসট
##িশনের
সরকারগলো
মাতিযে
কমায
মোম
##ফোরডে
শিকষাজীবন
সিডির
##সিবল
পলের
মতন
সথলা
অংশবিশেষ
গোতর
##ফরনটের
খানও
মযাচগলো
লোকসভার
##মোহনের
বযাংকগলোতে
চকতিভিততিক
ওযেলকাম
একসিল
ডেভিস
কষমতাযনে
কযাথ
২৭০
পরাণঘাতী
মখেও
অনতরঙগ
অবৈতনিক
গযাসকষেতর
##গোডায
সমতিসতম
বনদরনগর
দখলমকত
দীপা
৩৩টি
তথযান
জযাকস
ঊরধবগতি
ভগনা
সেমিফাইনালের
চকবাজার
ফটবলারের
শবাসরদধ
দাতাদের
সরবসতরে
কনসাল
দশচিনতার
লিজেনড
মখরিত
জীববৈচিতর
কেজরিওযালের
ফেলোশিপ
মশাররফ
বরাদারহডের
অবাঞছিত
##িডেকল
কাপাসিযা
অঙগরাজযের
নিরিখে
শৈলকপা
আশানরপ
ফলাগশিপ
টডে
তঙগে
পানের
বাকা
ভিযা
সওযা
হও
##চিক
##চিযা
##ানধ
করযা
##যাদি
##িকন
বলপর
পরিহাস
সবাত
রাজবাডীর
মানায
দরখ
দরপতরে
দেখতাম
বছরজডে
দইটায
##সেনা
গোমেজ
পরাধযকষ
রাষটরধরম
##জাতির
শাহান
সিরি
অনষঠানসথলে
সিদধানতও
নিতেও
##মলযে
মরসি
অপেরা
সফাযাের
ইউরেনিযাম
যদধাহত
দঃসংবাদ
চযামপিযনশিপের
আননদবাজার
দীনের
দেডটা
আকতারকে
পযাটরিক
ভাসানীর
##শিকষক
নিঃসর
অধিবেশনেই
##ভাইজার
টাঙগাইলে
পলেবযাক
োমিডেকল
সমাপনীতে
সেরেনা
ফসলি
দারোযান
লৎফ
সীমাবদধতার
কবিকে
লংঘন
২০৪১
কালিযাকৈ
গালিগাল
##চরিতরে
ফজিলাতননেসা
পচাততরের
টরযাজেডি
তকমা
ওযাশিকর
নসিমন
চিকিৎসাসেবা
ইকযেডর
কষমতাসীনেরা
অসতরশসতর
হটটগোল
অপত
আবিদ
ছিনি
পনা
পাসট
মযায
লীল
শযযার
সবরে
িফের
##গডার
##দষণের
##দখল
##উপা
##যাি
##াসব
##পরতযা
##িসতি
##োগলো
পরতিসথাপন
কারাম
বযসি
বযতীত
##টেজ
সাযেম
কাঠামোগত
কিপিং
বিশবজিত
পেমেনট
মতাদরশ
সহেযাগ
মানষগলো
ধরমে
##সেনের
তিনটির
বৈরি
হারও
বিষযেই
মলেন
সারচারজ
চৌকি
পরসনন
ফিরেই
মধযয
অগরিম
কোরিযান
ছাডবে
দীরঘসতর
একসপের
নগরবাসীর
যেমনটি
ফিলিং
কানিজ
সমাবেশসথলে
পতরবধ
যদধবিরতির
৩১০
এফডিসিতে
উৎপাদনশীলতা
কমপোজ
রকতচাপ
##োসটের
##গলিতে
পরিবহনমনতরী
যথাযোগয
উচিযে
চকরবরত
হানিফের
রোধের
জাকাত
আতমীযের
অযাটাক
ফলযাটের
সভযতা
কামারজজামানের
অরণব
অনভিজঞ
ফারমাসি
নবনিরমিত
বিএসইসির
দাউদকানদি
বোযালিযা
অনতরভকতির
গযারেজ
ডলফিন
আলজেরিযা
লিপিবদধ
আইপিএলে
সিরামিক
সমানতরাল
নিকষেপের
সরফরাজ
আযান
উজির
ঘমনত
জঙগল
দধের
ভিলার
মডে
সিকান
##নভ
##ফক
##ফাত
##ষময
##েনত
বিতাডিত
##াজানি
##িলক
একসাথে
##াতাল
নেছার
নিরঝ
কারিক
এমি
এমপির
আলল
##কতায
চলেন
আশংক
পদমায
পথচলা
উইংযের
চাইব
খবরটা
রেঞজ
রেগে
তথযও
অরণয
##লেনদ
অযাসা
এনএ
পোসটের
মরনে
১৬৯
কোরীয
জোনাথন
আযোজকেরা
গডেছে
জাতিসত
একসিকিউ
দরততার
জঙগলে
পরিবারগলোর
নাটযম
করিমিযা
দবিশত
##েবশ
জিততেই
মাতরাতিরিকত
ইমরোজ
রেজিম
দঢতার
রাসেলকে
বরেসন
##াপিড
আবাহনীকে
ইলেকটরিক
সিএসআর
সৌনদরযের
রেশমা
##চনদরন
লাকসাম
দালান
এলবিডবল
জলপনা
পরিশরমের
মদিনা
তামাশা
ইনটেলিজ
ডাযাবেটিস
লালদীঘি
দসতগীর
গাপটিল
আফছারল
জবরদসতি
##ভিষিকত
উপসহকারী
ঔপন
খাবে
ছিব
পতিত
মডি
রবী
লোপ
শবেত
সযট
াপী
##জিসট
##ফলে
##দাই
##দিযে
##হযা
##তরাই
##তরণের
##লেষণ
##াপাডায
##বরপ
##নাশের
কারজন
##দধের
মাউস
অভযার
##নদদীন
মতিনের
কেপে
অসদা
গণপরিষ
রাখেনি
১৫৯
সরবকষেতরে
মখিযে
হাওযার
অযাসটন
দিদি
সিনেমাতেও
##শালায
অপবাদ
জেত
##ভরষট
উঠতি
ডাকস
কারযকরমকে
পরসততিও
জনেরও
করমীসহ
রামকষণ
পাইপল
পতাকার
হেলপার
সাদশয
##পরতিবনধ
হমকিও
##দৌলা
বসতঘর
রশীদের
গৌরনদী
মিতরদের
টিকিটের
কিরগিজ
টরলারে
কতিতবের
ডোবায
পরটোকলের
রপকথার
উডোজাহাজটি
ডেলটা
ভরমণে
রেসতোরার
ঝটিকা
রসিকতা
সরমপকে
তেজসকরিয
অবমাননাকর
পরিলিমিনারি
আেন
কসতা
তামান
ধযে
পচ
বদন
ভণড
রকাটন
লাসট
াবর
ীত
##কডা
##মিশ
##বাযের
##শানের
##ঢালা
##োষ
##নেসটি
জনদর
নিরবা
##নিষ
পরতিতে
##াকাঙ
কষির
মানবেন
##োধিত
আইচ
সহিষণ
চলত
অনষঠিতবয
সামিযা
দেশেরই
##দেস
মাসতান
বডদের
জিএস
সারাহ
গোলাবার
শাহিদ
মিলখা
অনষঠানেও
ফলযাগ
##আরএ
বোরহে
যকতরাষটরসহ
অকল
বিমানবাহিনী
সচরাচর
চডায
নেততবেই
পরামরশও
সাবা
পেরেক
বদধিমান
শোকাহত
ভোটারবিহীন
অরথনীতিবিষযক
বিধানসভার
##হিষণ
কযানভাসে
রাজিউদদিন
নানদ
ভেবেই
টরেক
মীরজা
দণডপরাপত
রাববানী
সিডল
পরজেক
গরাউনড
টরানসফ
নৈরাজযের
হালকাভাবে
িদেনর
জলাভমি
লযাপট
লালমনিরহাটের
বািডেত
উভযেই
াসীেদর
টাসকফোরসের
খতিব
সপাইডার
অনতঃসততবা
িছেলন
##পষঠের
বাযেজিদ
নিরকষর
হাসিমখে
করতাবযকতি
খাডা
টিলা
ডিবির
থযা
দোল
বারথ
যিদ
সতযা
সিকো
##সতরে
##দাল
##ণবিক
পরবরতনের
##াজক
অভিস
করমের
##কাতে
কষধার
##কষেতরের
##সেপ
অংশই
কলাপাডা
১৫৬
বনধনে
জামানত
অরকষিত
খেলাঘর
শিলপনগর
ভারতবরষ
পরতিষঠানটিকে
বনভমি
চলেছি
ইতিপরবে
ফলেসট
সটলের
কালভার
আবেদনও
ওযারকিং
আযশা
কেরোস
##এলসি
বোঝানোর
ভালোবাসায
হইবে
শাকিরা
তরিভজ
পিলখানা
সচেতনতামলক
করোড
আহমমে
গিগাহ
অবকাঠামোর
মতবিনিমযের
ভযাবহতা
নাটযশালার
শানতিরকষী
দারল
পরিনসি
টিআইএন
সনদরবনকে
শরণারথীদের
জালালাবাদ
পাথরঘাটা
ছাতরছাতরীরা
নেভাতে
নীতিনিরধারকেরা
পরকাশনীর
গরনথে
মযালওযযার
উপরিউ
তসলিমা
শরীযতপরের
ঝেডে
মনসতাততবিক
কপিরাইট
ফিদেল
কানাডীয
সথলাভিষিকত
অকষম
ইসত
ইইউর
উচছেদের
ওমান
ঘনী
চরের
বেলের
মযারি
যাপিড
োবর
##রণে
##সদন
##ষটের
##বেলে
##লৌ
একনে
বলযা
নাচে
পরতিমা
উপউপা
##মােনর
কাফর
পলোগরা
##িজত
ইসলামাবাদ
সংসক
##িনাকে
গণভবন
গণগরনথ
চারদিক
আমারে
মনটা
কলযাসিক
চাইতেন
পিঠা
একইদিন
##িংযে
##দীপত
মরব
কালী
ভাবলাম
গাথা
##োভন
যৌতকের
সফরকারীরা
ডাকতে
অযাপের
শারলি
খনদকারের
উপরয
বিযেতে
রাষটরদতকে
##হিরভত
অযানাল
ডানহাতি
খেযেছেন
সংবরধনায
ভাষযমতে
আউটের
##ছেলন৷
অসনতোষের
তদপরি
মেটানো
বখারি
পেটরোবাংলা
এতিমদের
##নিযনতরিত
আলাপচারিতায
ডিআরইউ
তাডাহডো
ফরাশগঞজ
মাতববর
ডিযেগো
এমজেএল
গালিগালাজ
উপরিউকত
ইজার
ইমেইল
ঘনিষট
ািন
িলে
েকট
##গারট
##মযা
##মরা
##মারা
##চত
##ঘটিত
পরলয
##েশা
সমারথক
সংবলিত
##বাগান
##িসক
কোণে
সবাদের
২০তম
অভিপরায
জাতীযকরণের
মযাপ
বারমিং
পাঠদানের
##পাতিক
সেনাক
হামিদর
মাহতাব
পডযা
সিনেমাটিকে
বোযিং
##ভাঙগা
অপশন
রিযার
ওযাহি
লেভান
আতমপকষ
আপনারাই
সমসযাটি
বিবেচয
নীতিগতভাবে
ফিলযানডার
##সাইডের
নাজিব
মোশাররফের
সাদল
যনতরে
যাতরাপ
রকমারি
মখযমনতরীর
বিশলেষণের
শভকাম
দরবততের
আশরযকেনদর
পলেযিং
সালাউদদিনের
সমারটফোনটি
সবচছতার
নিরবিঘন
উপদেষটারা
##মাসটার
সঞচালক
ওযাইলড
লারমা
নাশকতাকারীদের
##মিনিটে
নিবিডভাবে
খোরাক
পরিচছননতা
নেভানোর
দবাইযে
আকসমিকভাবে
ফিলিসতিনিদের
দিদারল
হাতিরঝ
বাউনস
খোজাখ
চোরাগলি
চেহারার
সতমভ
গজরাটের
চযাডাঙগার
ডেলিভার
ডটকমে
সরবরাহে
ছিনিমিনি
অজি
জেলের
জমক
থিও
ধমক
মকট
যকতির
রসদ
##শক
##ংখলা
##অন
##আউ
পরসব
##াসমপনন
##াবিজঞ
##াপির
অনসম
কোসটা
পরিমল
রাধ
আসীন
মানছেন
দরীকরণ
হাসন
কাজি
##ীগামী
কিনডার
মারকো
খেলানো
পরতী
পডেছিলাম
জিৎ
পরীকষাগলো
খবরও
ধারাবাহিকে
##জজমান
জবসের
জযলল
##টিংযের
পরতযাখান
ছাডবেন
এইচডি
সাংসদকে
পরিণাম
অযালিসটার
পরশিকষণে
রামকান
আকরামল
কযলার
ইতিহাসবিদ
##ডিংযের
পরবেশপতর
োদন৷
বৈশাখে
কারখানাকে
তানভির
পাঠিযেছিলেন
অযানি
চমকি
বলবৎ
আসিফের
রকষণাতমক
অযামনেসটি
হাউজের
লকষমীপরে
গৌরবের
ঘনিষঠতা
গাইবানধায
নাদিম
##াবযঞজক
কসবা
চমকপরদ
োফেল
এলিযট
ঘটাচছে
##জগতে
কাটাকাটির
##মালিকানা
জলিযান
পিপডাবিদ
ভখণডের
করোযেশিযা
##টরাকশন
ফরযাঙক
মিউনিখ
অকতকারয
কোপেনহেগেন
অযাটলেটিকো
##ফোডিল
উদবাসত
সাদামাটা
পরিনসিপাল
ইছ
গয
ছদম
ফাডি
লসি
িছ
##িফ
##লযে
##উনে
##োশে
করদাতাদের
##িনীতি
##লেশ
##ঙগলের
অনদর
##াডমবর
কারডি
উপসং
##গরহী
করমকমিশ
দরপতরের
গরমের
দেখালেন
লাঞছ
##পততিতে
ঘোডার
রাষটরবিজঞান
পরসারের
কলেজগলোতে
কলেজিযেট
শাহাব
রানওযে
আগামীতেও
বযকতিতবের
উৎপততি
সালিমল
টেপ
##পরেত
ভমিকম
বানিযেছে
২৬০
শতবরষ
ঘরেফিরে
খলীক
পরভাবের
লাইবের
ভাঙনে
আওতামকত
মিথন
##পরতিম
আতশব
মিলনাযতনের
আরিফের
অনপযোগী
##বোরডের
পাটজাত
উদযাপনে
জেনেভা
##জোডা
দারিদরযমকত
ভগনি
সখকর
হিমেল
পদারথবিজঞান
সিআইএর
ভাবেই
সটোরেজ
পোলযানডের
সটডিওতে
অযানডারসনের
রাঙামাটির
চারটারড
জযাবরধনের
োভাের
কযেতের
পানিবনদী
রিফাত
বাযোসকোপ
হাযদরাবাদ
পাণডলিপি
মরিযারটি
ভবিষযদবাণী
কপোত
ইভা
কসাই
চতত
জণ
ডোযাইন
ধসতা
নোভ
রবেন
শেক
হডো
##াখ
##েপর
##ফেজ
##দাতারা
পরামান
করিযেছে
একসমযের
##মানয
উপকরম
অভযা
কাশিযান
উদভ
বরাক
বেগে
বেকায
দইজনকে
ইসলামপর
আওযাল
অসহিষণ
আজঞ
সদসযও
##জিবি
খেলব
##বাসীদের
ভাঙগার
পরাচয
##ফলল
সরবদা
পাচলাই
দটিই
সোমবারও
লাগায
##ামাটি
বসলে
বদধদেব
শততম
শাটার
##পেরর
##বযসী
নজরলকে
আখি
বিশবকাপেও
পৌরসভায
##গলাস
ষডযনতরমলক
একবারই
সমরণসভায
বাযদষণ
অযাসিসট
পরতিবেশীর
িনেদ
সকরিযভাবে
##জনেক
৬৪টি
পরিশোধন
শরিকদের
ডাকতারের
বিবিএস
দামেসক
এলিট
পযাটিনসন
মহাকাশযান
এজেনসির
সহানভতিশীল
পনরবিবেচনা
মোখলেসর
শানতিনগর
বাচচারা
মোরশেদল
রাউজান
ইহসানল
উডডযন
সদরপরসারী
ধমকেত
মরশেদী
উপরযপরি
উষ
কাদা
খশির
গিনি
গনে
চরা
জাদে
ঢাকাব
বেষ
ভোলায
রচি
রিকার
লাকি
াণ
##ীকরণে
পরর
##বাটি
##াপয
##ওযাই
সাতরে
গরভে
চলক
শেষকত
বাসদের
বকিং
##ডারস
জিতিযে
আনতনগর
সারো
রেজার
অপরিশ
খাননা
তথযপর
হামদ
চটটগরামগামী
উইকেটকি
বঙগভবনের
পোষা
নিশচিতভাবেই
চেষটাও
দাঙগার
ফারমে
জানায৷
খোচা
ওযারন
যারিতে
বিনির
চযানেলগলো
রেলপথে
নাটযব
কিশোরগঞজে
চরফযা
করমচারীকে
যনতরটি
বিকলপধারা
পিরবােরর
সালমানকে
১৯৪২
জেরিন
অনধকারের
সঙকটে
অধযাযে
ঢাকঢ
তাগিদে
াবধাযক
হেযি
##াইজড
মাইকরোবাসটি
##৪৫ঘ
ইউকরেইনে
টঙগীপাডায
কৈলাস
খলনাযক
রোমাঞচিত
মালিবাগ
ভোকাল
অযামবলেনসে
##পোলির
মোহামমদের
মরালিধর
অযাকাডেমি
কোতযালি
মযারাডোনার
ভোগানতিতে
লৌহজং
দষটিভঙগির
কমবোডিযা
আযরন
মাসাকাদজা
অপতৎ
ঘনীভত
ভমিকমপে
অজন
আের
ফিনি
হেনে
##ভাক
বিটিভিতে
একলা
বললো
##াপল
##াহাড
পরিতরা
মানানস
গরবের
আবের
অসকারের
বিষযভিততিক
সারিবদধ
বারতার
##বানদা
সাংবাদিকসহ
ফিরছে
সিনেমাগলোর
দকষতায
উললেখিত
রাযহানের
চলচচিতরবিষযক
পানথ
সমাজসেবা
ভাগযে
শকতিধর
নিষপ
আককাস
২৭তম
লাভল
মাইকিং
ফরিজ
শিকারে
সপরিযা
শাসনবযবসথা
িনেত
আকরষণের
জাগানো
বরেকিং
সারবজনীন
কাঠামোতে
এএইচএস
গোলরকষকের
ছডাতে
নাচিযে
মেশানো
কযালাল
##৪০ঘ
ইপিজে
বেতারের
দীরঘমেযাদী
টেকনোলজির
রণবীরের
##সাহিত
গতিশীলতা
জবলছে
নােমর
পরিচালনাকারী
বযাবসা
ঋতপরণা
মিললাত
গরযাভিটি
ভোগানতির
বেনজীর
হেমাযেত
খাদযশসয
শযালক
চিরপরতিদবনদবী
আইএসপিআর
নিউমারকেট
লনডারিং
সংসপরশে
রচযিতা
চিব
থারা
দন
দিমি
রচন
হটে
##মকা
##খিন
##শেন
##পরহর
বাতির
নাগর
জনজীবনে
নেবো
সরাইল
পরতিমাসে
দলটা
আগলে
যাং
সমযকে
যাযিন৷
কেট
##চেত
বাসনা
সাংহাই
##বললাহ
মনথর
১৫মি
হতেও
গোসব
##আইযের
##াযকো
গানরাজ
মাহির
পিটি
মিলক
##আরএম
গলজার
সপারহির
মৌচাক
ডেট
মহানগরীতে
ছাতরলীগকে
পররাষটরনীতি
লালপর
টরাকটর
কাপডে
অগরজ
করিমিন
টাইমসের
লোপেজ
দঃসাহ
অবযাহতভাবে
৭০টি
গতিপথ
জঞাপন
ডেমরা
অশোভন
রেডিওর
তযাগী
সিসটেমে
##পরেমীরা
সামরথযের
সারকলার
আতাত
নতযশিলপী
মণডলের
পোলযানড
কোহিনর
মহাজোটে
বরাহমণবাডিযায
পেটেনট
নবাবগঞজ
রাজারবাগ
সমাজকলযাণমনতরী
জীবনযাপনের
জলাবদধতার
মধযসথতায
আরোহীর
কলিংউড
কেশব
অপপরচারের
ইযাকব
উপাধি
গাংনী
হডোহ
অপরিশোধিত
মানানসই
কযালালামপর
গঙগার
ঘটক
দটোর
মিমি
যনত
সযাব
িনধ
##েণর
##সষট
##বনে
##ভাত
##ডানো
পরডাক
একাকী
##াইতে
##াইটস
জনবিচছিনন
নেম
সিমেনটের
পেজ
মহযা
নামাতে
অভিবাদন
গণভবনের
গণপিট
পরতযর
বডদিনের
১৫তম
আনচেল
রেদোযান
সংগতিপরণ
চিতরের
##টোলা
সালফার
ফরেনস
##াইকোর
তাহলেও
তাহমিনা
দেখেছিলাম
লেভ
গাডিগলো
সমভাবনাই
কেবলমাতর
সাবর
দৈহিক
কিশোরীর
পাইপের
আসনটি
চাকরিজীবী
হইনি
এডিসি
যাতরাবির
কাহিন
##ভোগীদের
মিজারল
মাহমদা
ভেবেছিল
১৯৪১
কাশম
সনদবীপ
দরযোগে
নিমনমানের
বীভ
পরবনধের
শযামপর
ছডলে
কষেতরফল
হদিস
ফরেম
বিবিএ
রনিকে
হারডওযযার
মফিজর
ধরমনিরপেকষতা
ধরমনিরপেকষতার
দীনেশ
এজলাস
ইলেভেনের
রদধদবার
পলিটিকযাল
কনডিশনের
নিযামক
ফরেনডস
ফযাকটরি
নিউকলিযাস
অনবেষণ
আলেকজানডার
উচচাভিলাষী
জযাকসনের
জমকালো
ওরি
কহ
ককের
টট
নাইকোর
ফাত
ভেলা
রিল
োরা
##রনি
##যিক
একচে
একসেস
করেমল
সেবক
##রিটি
সবনাম
পারস
##গরহের
মোসট
বিশবসাহিতয
মতপরকাশের
তোপের
উপজাতি
কষমার
##ভিপরেত
##িকাট
পিযার
দিতি
শিলপোননত
গতকালও
কামরাঙগ
পরিচালকরা
নরদ
ততীযত
দিলো
##মরতি
ডেসকো
একেছেন
সচিন
সমমানসচক
ঋণচকতি
শারাপো
হাজীগঞজ
জাহাঙগীরের
বিজেপিকে
অতীতেও
পিরচয
যকতিযকত
সবলপতার
পশচিমাঞচলের
পরযবেকষকদের
সংঘাতময
ফিলমফেযার
কলিনিকের
ইরানকে
কযালালাম
কারাবনদী
আনতঃমনতরণালয
##কাহিনী
বাধযবাধকতার
বেআইনিভাবে
বািডর
নযাদিললির
কযাটরিনার
সাশরয
করসিংযে
টাকাপয
গোপনীযতা
কেনেডি
তিবব
করিশচিযান
বিলোপ
ডিজাইনার
শিকষাবোরডের
ভগনাংশ
একসিকিউটিভ
সংসকতিকরমী
বেকাযদায
অনতরীণ
আকাল
ঈর
দটিকে
##খাতের
##কেটের
একমাস
##াবিরোধী
##বারক
জনসনের
##িসিযা
সরযো
##ওযাট
এরআ
##দনীয
গণমানষের
অরথপরণ
জাতীযকরণ
খেলানোর
কলষিত
পাঠাবেন
ডিপারটমেনট
তৈযব
ধারাবাহিকের
বাহাত
বযাটমযান
কেনদরীযভাবে
তততবাবধ
সফরকারী
##সভিততিক
পশচিমপ
মকতিযদধকে
কমারশিযাল
অফিসারস
নেমেছিল
বনদীদের
সতপ
সথাপনার
সানতা
##বযবসথাপনা
পরাইজ
সটারক
বাজনা
নকিযা
কাদমবর
পলেসি
##বাডীতে
সকোরবোরডে
দণডবিধির
দাডাচছে
জিনপিং
শাকিবের
এডিবির
লজজায
##িচায
লিজা
মিহউি
বিমসটেক
সদরদপতরে
গণফোরাম
দপচা
অকষণন
ঔপনযাসিক
ধসতাধস
ঋষি
খেজর
বেকে
বীরা
রময
লোন
সজজিত
িশি
##ংযে
##ঝিতে
##িনকে
বিবাদী
নিগ
বাগম
বাটন
##োরটি
অনভিপরেত
##মাে
অববাহ
অবধারিত
##কাও
রাজনাথ
গরযাজ
হাসিব
মহামানয
সহদ
রহসযের
দেওযাটা
রাখতেন
রোদে
##সহীন
মনেই
ধারাকে
পদবঞচিত
টিপে
চাইল
সমপাদককে
পরসারণ
রানবির
এনইসি
মধযদিযে
##সকির
সাতশ
রাতেও
পরসতাবকে
নরন
২২৬
সরবোততম
সৌভাগ
নেমেছিলেন
সনদরগঞজ
কানাই
পঞচবারষিক
চতরঙগ
রামেনদ
সেতটি
দাডিযেছেন
সমভাবনাকে
৩৪টি
অযাকশনের
ভযানচালক
ফেনসিড
সোনারগাওযে
সাধিত
কণঠের
সটরযাটে
ককষপথে
তরাণমনতরী
ফযাশনসে
ইউপিডি
ডবলিউএইচ
##ছেলন
রহমতগঞজ
দাগনভ
নিনদনীয
মখারজির
ফাকির
সেকেনডের
েরর
যোদধারা
এজাহারভকত
বকষরোপণ
আহাজারি
পরচারাভিযান
উযেফা
নাটযবযকতি
আিদ
ঊন
এেস
দাদার
বশের
হরল
##জাদের
##কলায
##যতার
##ধাপ
নিভ
জননির
দলবদল
এরও
মোসতাফিজ
##রথিত
বেচার
##িমায
শেষবার
সরবনাম
সংগঠনে
হাথর
কলেজছাতর
পরিবেশমনতরী
রোববারও
মহাসথান
ফরী
শহেরর
শধরে
তাহরীর
অগো
কালজযী
রিচি
২২০০
কতটি
##কোনন
ডেপ
উঠলো
ফেলেছিলেন
পাকিসতানিরা
##ধেয
বিরোধে
জমিজ
কলাবকে
পাইক
ভযসী
এডিশন
কবিগর
িতক
আইনশঙখলার
দবারসথ
মোডানো
##জঞানহীন
উডনত
ভযানটি
নিরমিতবয
জাসটিস
যাইনি
ভীতিকর
কলাউডা
ছাপার
শীঘরই
আেছ
রণাঙগ
ফিলমসের
সাউদারন
আইসিএ
বানিযেছেন
ইচছায
রেডকর
ভাবমরতির
ইসমত
ইনডাসটরিজের
ফযসালা
টেমপ
রিপাবলিকানদের
গরীষমের
চানদগাও
সসমিতা
এভিনিউতে
সমসামযিকবিষয
আবদাল
সদিচছার
সাকষরতা
সামঞজসযপরণ
অতলনীয
বিশরামে
লাদেন
যৌগিক
শাটল
নাইটরোজেন
অমাবসযা
মাগরিবের
ঢাকঢোল
বীভৎস
একচেটিযা
হাথরসিং
কাকসিকষত
তজ
থিস
ভায
ভগে
ভমিতে
৭ই
##ইসট
##তালি
নিদ
##িযেটিভ
##াবিতে
সংিশ
অনিম
অনশনে
এইজ
##াবেলা
##করী
সহকারীর
লাও
কেনদ
ইউএসবি
বহষ
কলিনট
বনধবানধব
দেখাশোনা
টিটো
##ৎসনা
মখেই
পরাযর
পরসততিতে
হতযাকা
হকসহ
শিশশরম
বাডিঘরে
হাতেও
নিশচিতের
নিশচিতভাবে
দীরঘাযিত
বেসরকারিভাবে
লালনের
ফিলমস
ইরানে
##পণযে
ফাটিযে
মকতমনা
কারাভোগ
োদেখ
অধিকাংশের
জাফরের
##দৌল
টরেডিং
পাটগরাম
সদবযবহার
ঘাটিতে
দজনেরই
রবেলকে
পরবাঞচল
ছডেছে
রাজযসভায
পরাঙগনে
চামচ
নাচতে
একতরিত
দবনদবে
সবযসা
বিএসএম
মমিনর
##৫৫ঘ
বেডাচছেন
লজজিত
উমম
কনসোরটি
বিমরত
ভোজযতে
জীবাশ
আগারগাওযে
পরিলকষিত
বিজেএমসি
গরাফিকস
ভটটো
কচছপ
ফারমাসিউট
শভকামনা
কপোতাকষ
জাদেজা
হরলিকস
কিসি
কখযাত
জমিন
ধাবিত
পাপে
মং
রপির
লাসি
##িগত
##কিশ
##পিসি
##সকর
##ভানস
##হায
পরবর
##যােগ
##রাণ
##াপাত
অনাদা
বলেযার
বিশঙখল
আসিনি
##চিপ
কাশি
মেহর
বযাটের
ভারেতর
৩০৪
মানষগলোর
সমপরকোনন
খেলেননি
গোডায
সারার
পিৎ
##চছবি
##সনদর
##গাং
##গাতি
হেদাযে
উদধারকরমীরা
বিপকষেই
ভিডের
গাডিও
বিলট
জঙগী
আনাগোনা
ডরপ
ভোররাত
কযল
ভিডিওর
হাবিল
পরশংসায
রাসতাটি
ভিততিসথাপন
রোডমারচ
মজিবকে
দৌরা
নকশ
করাইসট
সামানযই
মযদানের
সোহাগের
তীরবরতী
বিশলেষকদের
নদীগলোর
লঙঘিত
বশীর
##সঙগীত
আফরিদির
গোলাগলি
##পরসাদ
এহসানল
ডযাফোডিল
ফরাসউদদিন
নেকসট
##সনধযা
সমারকে
সিমনস
অবতারণা
হাইলাইটস
হালিমা
মযাজিসটরেটের
হাতছানি
টরানসফার
কামরাঙগীর
গটি
ঘির
ঘিও
চিম
ডযাব
থো
ভঙগি
রলে
রাদ
শরিয
##ফাস
##শচিত
পরাত
করদাতা
##লেটে
সমতিতে
##িসিযাম
##নিযকত
পরতিটা
পরতিধবনি
##ষঠা
##যেনসের
রাজেনদর
মানচিতরে
##সতানের
নামান
খেলবো
মনমন
শাহী
বিদযার
পডলাম
খেলাকে
ফেসট
জনগনের
চেযারমযানদের
জোযারে
হলফন
আককেল
কাজেও
নাসা
সমমেলনককষে
টাইটেল
ইকযেড
অতটা
মনিটর
োসনা
হিযব
৪৪টি
মেলান
ছোডার
উততরাঞচল
কবরের
সলতানের
আকবরের
এএইচডি
অগনিসংযোগসহ
তাগাদা
নৌকাটি
ইংলিশদের
অরডারের
কলোনির
পরতিদবনদবিতাপরণ
পোসটারে
জনপরতিনিধ
জোগায
ভালবাসার
বৈচিতরযময
মহেশখালী
পৈতরিক
কলাকশলীদের
কদমতলী
সঞচিতি
দরখাসত
কারিকলাম
অঘোষিত
অলৌ
আসথ
কাযকো
জিতব
ঝোক
টসে
ণালে
তাকায
দীকষিত
ধরি
ভন
ভপা
রঙগ
রেবে
রযাম
োপা
##রোগ
##ািজ
##জিকে
বিলা
##পরীর
আমিনী
##াপদধতি
##ীরাই
##বিবর
নিরীকষ
আরশাদ
অবযয
সিডর
মারকা
তিনবারের
চালিকা
তোড
তোকে
খেলনা
লিউ
##েনটস
গোডার
সমপাদকসহ
পাকাপো
যকতরাষটরভিততিক
সবাধীনতাসং
ওযাচের
মজরির
ভিডিপি
উঠতেই
আপনিও
অযালেন
খেলেও
অবযাহতির
আমিরাতে
##ভোটে
করীড
নিরমাতাপরতিষঠান
জেরারড
শোনালেন
বিচছিননভাবে
ইলিযাছ
৫৪টি
ভোগয
শতরর
শিকল
ইচছেঘডি
ডাইভার
ভরাততব
দারন
বিআইডিএস
খজছেন
রিমানডের
নৈরবয
বটতলা
রপতানিম
লসকর
নৈশভোজ
গাডিবহরে
নাবিল
রকতকষরণ
দরশনারথী
শতাবদীতে
উপদেষটামণড
বিভরানতির
উইকিপিডিযার
অযাথলেটিক
কষিজমি
ইমারত
অনসরণের
কেনদরবিনদতে
আরকাইভ
নশংসতা
মেদভেদেভ
জনদরভোগ
আহমমেদের
ইসতাম
ফারমাসিউটিকযাল
হলফনামা
পাকাপোকত
অদি
আিজ
ওঝা
জাবি
তপত
পযাক
ফিসট
রমের
সেলের
াংক
##ফিস
##ধবনির
##ভিজ
##ছবির
##ানডার
একপর
##িরার
##রাটের
সংহত
দেওল
অনধর
##ওযাশ
সেটের
পাি
উপসাগর
বিষাদ
বেটার
##িমক
দইদিন
মারি
হারভারড
আইনকে
ইনতে
দেখাচছেন
গোপী
পরকোপ
দিবে
ঘটনাটা
উৎকর
কামনায
রাযগঞজ
##ভেস
অপমতয
কোরি
দাখিলে
উচচতার
সহযোগিত
অবসথানকালে
অতিবাহিত
সমসযাটা
উঠি
মালিকানায
ইংগিত
কামালউদদিন
মহাখালীর
সংসথান
এফডিসির
ফোরবস
সবাভাবিকের
নিযমিতই
হেলও
শিবিরকে
আশরাফজজামান
সাননি
আইএসবিরোধী
মঞজরী
##বদধি
আবদললাহর
##িলিযন
সেমিস
সোনাইম
সসথতা
সটরোক
পেসাররা
শরেষঠতব
গোলরকষককে
বাপপ
বণটনের
৯৯০
মোহামেডানকে
মেজাজে
একতরফাভাবে
ভিকটর
##যাতরীদের
আমলাদের
উডোজাহাজের
ভিনসেনট
পরতিশোধের
সসপষটভাবে
কনসালট
বততের
ঘটাবে
েলই
গযারানটি
খতিযান
জোকোভিচ
শিরশছেদ
ছোটাছটি
লকোচরি
কসংসকার
সবপনভক
পাচলাইশ
নাটযবযকতিতব
বহষপতিবার
ভপাতিত
চাকার
পানে
পতরে
লযান
সঙ
হটাতে
েপর
##েধর
##যকতরা
নিউট
সমরাস
##পরাপতির
##িরের
সংশি
##ওযালার
সেগলোতে
##বিএস
##রেখা
##দরের
##তবিকষত
অবকষয
##ফোরডের
কিযো
সিলেক
##সিদধ
উদগর
মহাম
##ংশা
দিনগলোর
দইজনের
চললি
পরথমদিকে
ধরনা
এলডিসি
কেনেন
কলহ
##সমপাদক
##সাং
সিনেমাতেই
##খযাতি
শিশবিষযক
##াযীদ
রেখার
কোরের
বসায
পরসকারে
বিনীত
পরভাবমকত
হিসাবেই
##চাষ
হইতে
##িরেয
বাছাইযে
অনপাতে
দোকানদার
যকতিতরক
বিধিতে
অশানত
জেনেও
আরাফাতের
নিচছিলেন
পাওলো
কাসতরো
এমপিওভকতির
লডবে
সওগাত
নযাযবিচারের
লোকেশন
ঝকঝ
ফাতেহা
মোসতফার
মিরসরাইযে
পলিটিকস
ভিসার
জাযগাতেই
সকোযাড
মােঠ
মানোননযনে
তেতলিযা
আমলাতানতরিক
মরিনহো
##মেটিকস
কশপত
শরীকানত
জলকামান
দোরগোডায
ঝোলানো
মেডিসিন
ডিসটরিবিউশন
কাকত
সানতি
াং
িপেয
##গপতের
##বযানড
##বতী
##১৩
##ঝির
বিঘ
##িযেনট
##নেতারা
জনৈক
##রেস
কোঠায
আরদর
কারান
##ডেজ
##লাপর
কষণা
কষতবিকষত
##মেইন
বিশবনাথ
অভিযোজন
বাসচালক
চালাতেন
##সটাইন
দশে
দশেক
রাষটরগলোর
ডিঙ
পাচদিন
##এমএ
পডান
গরামবাসীর
মরার
বিজঞপতির
টেলিটকের
জোছ
নেওযারও
শিপন
হমক
উঠছেন
এইচআর
আইনজীবীকে
কথন
মসলল
এনেছিলেন
কাপিযে
তারপরই
##পথের
টানাট
শরীফের
##করমীকে
কযানবের
ইঞজিনের
ইবোলার
তবক
আইএসকে
লতিফের
বাযর
সচেতনতার
মাতভাষার
জযাকলিন
চালাচছিলেন
যকতরাজযভিততিক
কিনেছে
শিখিযে
ভরাটের
##শাসনে
চেমবারে
ফিউরিযাস
রেশম
ভিননধরমী
শবশরবাডি
ইনজেকশন
আদমশ
এনামলের
ধরমানতর
মলযাযনে
কলঙকিত
ডাযালগ
রিদম
অবযবসথাপনা
ডেসটিনি
রফিউর
ডেসকটপ
বাঞছনীয
জাসটিন
এরআগে
খডে
ডম
ডাসট
মব
লটে
##টরা
##ীপর
##ধরি
পরলে
পরাধীন
বিউ
বিযাম
##াযত
##পরারথ
অনাদ
##োগরাম
আগা
করমকত
দেখবো
বযাগে
##সিএল
থাকলেন
যায৴
কেয
দেওযাসহ
গণসবাকষর
##মিট
মাসক
পরসাধ
মাহা
ফিরলেও
১৬২২
লোকসানের
পরণয
তলবেন
কালবৈ
জডান
##টনকে
কনঠ
কষতিগরসথ
নারীসহ
সতযকে
ঘটনাব
অফিসারের
পরিণতির
পরতিকলতা
ফরিদল
চরকি
গাছগলো
##ওযেলের
আজাদকে
ইতিহাসকে
মোরচা
আদরশিক
পাততা
গজরাট
োবগম
চোরাব
বারসেলোনায
অসথিরতায
নওশের
মিতররা
সাইফজজামান
আরজেনটিনাকে
উদভাবনের
ঘোষণাকে
িমযা
তাণডবে
##ডামারা
বযবহারকারীকে
আইএমএফের
অকসিজেনের
সিপাহি
লোহানী
ইনজরির
বাংলালিংকের
চেহারায
পরিকলপনাকারী
শহরতলীর
সরবসমমতভাবে
এজিএম
##জযনতী
ধিককার
রেসকোরস
পরারমভিক
সিকানদার
ঘিরেই
ঝগডার
ধলে
ধলো
ভবানী
মলার
##মগধ
##ঝম
##োভিচ
পরবাদ
পরোযা
বিযান
##টিএ
##তেত
সমকাল
##বিভাগের
##নিযাম
পাডের
সবাবলমবী
##দরত
##েষর
দেশটিকে
রাষট
##থাংশ
কষটিযায
গরহন
উদযন
কেস
কেদর
কেযামত
নামি
অভিযকতরা
##চৌ
##ঞচির
হারাল
##োকেন
বিজযনগর
##ীলায
টিফিনের
##সনধান
বাহক
##সারের
১৪০০
##মলযাযন
ছযশ
অকতরিম
সটযান
ভাইযা
পকষেও
আটশ
বাদামি
োভ
হমকিতে
উঠানে
বানিযা
রপলাব
##াবিধ
পাসপোর
সপরিকলপ
করীডাবিদ
সবারথসংশলিষট
৪২০
ডাকাতরা
ফোটা
আহসানল
ফযাদ
হাফিজের
##িকসড
মযনামতি
অনশীলনী
সেসবের
মদরাসফ
রাজীবকে
বযানারজি
কযালেনডার
লযাভরভ
পিকেএসএফ
বিহারি
বনদকযদধের
হাওলাদারের
চারজশিট
পাঞজাবের
উমমে
পরসপরবিরোধী
আচমকা
আবহমান
তামিলনা
মাযানি
সবৈরাচারবিরোধী
বজরপাতে
দরগতদের
শিলপাঞচল
ওঠানামার
আরমড
বিচকষণ
গামছা
একগযে
আডাআডিভাবে
মহাবিদযাল
নিতানতই
ইযেমেনের
বিততবান
ফরেনসিক
জীবাশম
লাসিথ
ঝকঝকে
কালবৈশা
রপলাবণয
আি
আণবিক
ইসক
এযাড
ঐশী
ঔষধ
কংক
গানি
গনড
নহ
ভকতি
মেলো
যিশ
লয
লির
সতার
সপি
সদান
ামান
##রিকে
##েসর
##যং
##হনী
##২৪
##থনের
নিমত
কারক
যেগলোর
বিশবর
সাধার
##কাির
দরকারি
বিভাজনের
সহিদ
ঘটলো
নিজামল
বিষযও
দেখাচছিল
বিভাগেই
পরিবেশকে
পিচে
জলদসয
হওযাকে
ছবিই
ইউনিটির
ছেলেটা
##জেট
কালামের
দেখেও
ভোকতাদের
হাতেন
সনতরাসবাদী
কমেছিল
হতদরিদর
জনমসথান
জনমভমি
দিবযি
পরভাবশাল
##েনদরনাথ
ভলগলো
জেনারেশন
ইউরোর
জিতেছিলেন
সাবধানে
নেততবকে
অনরোধের
দাডিযেছিলেন
ইযাশ
দমকা
পরশাসককে
##বিশব
ঘনিযে
৮০টি
সনদি
অগনিপথ
মাহফজা
রাজনীতিকের
আবিষকত
রিপোরটার
আঙিনায
গারডেনে
নাইজেরীয
নিষঠা
লডছেন
সারবভৌমতবের
গেইমটি
ঢেউযের
আছডে
লাহোরে
পদমরযাদার
তিলকর
##মনতরণালযের
ফারগসনের
##মিলিযে
দামেসকের
খাজনা
বহদদারহাট
##পরাপতরা
অভিনেতরীদের
ইনসপেকটর
দেশাতমবোধক
আরতনাদ
আইসকরিম
লৎফজজামান
চকরবরতীর
গোলাবারদ
পরামানিক
উদভট
সারোযারি
সবযসাচী
হিযবত
নৈরবযকতিক
আদা
আচে
আকম
ওসে
ছডার
জই
দলেই
দপের
বোক
বদৌল
রঙগনা
শভব
শেকস
িঠক
েযাজন
##িটর
##মিকে
##ষযে
##হরি
##হানির
##েরল
পরাজ
##যাসল
সমাপন
##নেও
নেটে
##ধানো
কমিক
##ডেভা
অভিসর
কিপার
গরিল
বরতায
আলাপে
বেঙগাল
##তিরোধ
এলইডি
রাখছি
##যাযনের
সিনধ
##মদদিন
মননী
লিফট
টরিলিযন
গোলেই
হাভিযের
শাহদীন
করমসচী
জলপর
ভারতসহ
এনজি
সিদধানতই
ডিসিসিআই
শোযার
শোবিজ
হেযার
মোহামমদপরের
অফিশিযাল
গলাকাটা
োযেত
পাবনায
কমিশনও
অধিকারকে
বানচ
হলগলো
বিশবাসকে
অধিগরহণের
সইচ
সইফট
শারদ
নিরযাতনে
সপারিশও
আলমগীরসহ
হযাড
আননদময
এডওযারডস
টানার
অমতা
হচছিলো
নোযাখালীতে
বরগফট
ছাপানোর
পলাট
পলাটন
দশকেরও
হিনদধ
তাহেরকে
ফকিরহাট
সামপরদাযিকতার
বিএসটিআই
টরানজি
রাঙাব
মাঝামাঝিতে
টরানসফর
সথানানতরিত
খাগডাছডির
১ঌঌ
নিতযন
কাসটম
সধাস
ঘাতকদের
নিরবাহীদের
সবতঃসফরতভাবে
##মাতললাহ
পযারাগযের
আনিছর
রিটারনস
সোসিযে
বলযাকবেরি
পনরবিনযাস
ইনসটল
পঞচগডের
সেরনিযাবাত
বাগমারা
অনাদাযে
ইকযেডরের
গিযার
ডালে
ধনট
নডা
বথা
যাড
##রায
##গরাহক
##ফরি
##ইর
##দাগ
##ণযে
##৬০
করবার
##টিম
একনায
একাধ
এককালীন
অনবাদের
##বিহার
পরতিসথাপ
##টকই
সবমিলিযে
উপলে
মাগো
সাউদ
অবজারভে
আসলেও
কাঠা
মাননাকে
দরনীতিকে
মেটা
##িতেই
বরদা
##নারি
আলতো
##দাকে
লাট
বিএনপিপনথী
##বিতণডা
উলযাহ
পালক
##ভিটা
বিপথ
হতযাকারীরা
জলীয
বযাপারী
আহমেদও
পরবঘোষিত
দাযিতববোধ
সামনেও
হাতেখডি
তলল
বইটা
১৭০০
বরিফি
দাডালে
ফটোক
মিরর
পালনকারী
দিলর
োটি
একসপোরট
উঠেন
নবনিযকত
শাসকেরা
শামিম
##তলীর
বেলক
লিখলেন
সইতে
চতরথাংশ
দঃখে
রামদিন
ফটবলকে
সেতমনতরী
চাকরিজীবীদের
ভালোর
পাবলিকেশনস
সবারথান
গতিময
তারকাকে
তরিপরায
পরসঙগটি
নিখোজের
রিযালকে
কটনীতিকেরা
গেইমার
ছডিযেছে
হরিপর
রোজী
জনেক
অতযাচারের
আইনগতভাবে
বেদখল
খণডকালীন
শহিদললাহ
সাকষাতকালে
আমপাযারের
তাডিযে
শাসনামলের
নশংসতার
চোপডার
এনাযে
বারিধারা
িতেবদ
রজারস
সরিষ
ধরমাবলমবীদের
নছিমন
গাঙগলী
মাকসদল
জগলল
পরলোভন
##মালিকানাধীন
করাইসটচার
শেকসপি
##ডেভােকট
এেক
ওআরপি
থবডে
বালো
ভেরি
মমরষ
##লযের
##দবয
##ওড
##ৈনিক
##াকট
বলাসট
জানমাল
কোকিল
সবক
রােখ
##গরেশন
বাংলাদেশই
বাংলাদেশীদের
মোদ
আসছিলো
গরহী
##চারি
##চছেদয
বেত
বিএনএফ
##িজের
বছরকে
বাসন
উততাপ
গণডি
আজি
দেখাও
মলনীতি
টিফিন
রেদ
পডতেন
কেনদরগলোতে
দিগ
হওযাই
আলোচনাও
পরশনপতরের
গতকালই
অধযাপিকা
৪৫টি
জাহে
পরতিবেদককে
খলশী
অফিসিযাল
চিতরটি
ঘটনাসথলের
চিনির
জিতেছি
পেরেই
গারডার
মসণ
পরকৌশলীর
ফাযেজ
নিবনধের
ওসিকে
##তিকরমে
##হিও
আধনিকাযনের
মদদে
অভিভাবকের
োকউ
##িকরমী
পরিসংখযানে
লকাস
১৯৩২
১৯১০
হারানোয
রোকেযার
মাইনল
তিতমীর
বাসসটযানডের
কাবযগরনথ
সেকেনডে
টাওযারের
সরকাির
বডিগঙগার
জারনালিসট
সাংবািদক
নালিশ
সিঙগেল
রাজাপকষে
আগরাসনের
নিউকযাসল
সবতবাধিকারী
##সাধন
বিইআরসি
বিকেনদরীকরণ
পালাবদল
বকশীবাজার
গালাগাল
পরফেশনাল
এযাবৎ
মাংসের
ইনটেলিজেনস
গিগাহারটজ
সমরাসতর
অতির
ঔদধ
গজল
তও
নথিতে
পোক
ভির
লটারির
শরিযা
সানির
হজের
##জবল
##তেদর
##াবাডির
নাপোলি
আমরণ
##নতরণাল
অনসবী
##রেটর
কোসটার
##দধতির
উপযোগ
একটিই
কষানত
আহামমদ
কিনলে
সামিনা
ধরলেন
রোমের
নিরবাচনটি
ছাতররাজ
ঘোচ
জিইযে
পথনাটক
নারসার
বাডী
অযামি
##দরশিত
বধবারই
##মারজন
ভরানত
ছেলেটির
পোনা
অধযাপনা
নিরদেশিত
##রাহাম
ছাডিযেছে
হরতালও
খোদা
আকাকস
মাঝপথে
টরাকচাপায
দোসত
ডরযিং
শিকারের
দেবপরিয
একদিনে
৩৭০
তরিমাতরিক
নিযমনীতি
সবজির
নিরমলে
মানববনধনের
২০২২
ঝলমলে
ইংরেজদের
ভরাডবি
মিনটর
কাচপর
শরণারথ
গলোব
পরতারিত
নিষঠার
বরকতউললাহ
অপবযবহারের
সবভাবের
বরবরতা
পারফরমেনস
করতোযা
বখত
আশলিযায
মননজান
করিসটেন
মযালের
টযাকসিক
এনটারপরাই
তাইওযানের
অযাঞজেলিনা
বরষপরতির
বহিরবিশবে
চামডাজাত
সমতিচারণা
আদালেত
ইনসাফ
দলাভাই
ফেনসিডিল
অনিমেষ
অনসবীকারয
ইকরাম
ওযালি
জওযান
ডগ
ডযানস
ধোলাই
বজ
মাযান
ােদর
েকর
##িদন
##সাস
##ফলের
##ভটির
পরমিত
পরিকর
##াতাম
দেবার
থেকেছেন
সেস
##বিধার
উপানষঠানিক
মোন
যােব
মেকান
সিঅযানড
বেডিযে
##পারা
মারাদো
সংসকারে
গণসবাসথয
বিষযই
আইনজঞ
##াধার
হওযারও
জীবনধ
চিতরে
লাখে
পরতিষঠানই
ফলহযাম
অবসথানকারী
অভিনযও
আরেকজনকে
পরারথনার
##তাবোধ
অপরাধীকে
সবাসথযগত
##িরাও
##ভাগেই
২৭৫
শানতিচকতি
সবীকতির
বাতিলে
কারযকরমও
এনেছিল
দঃসহ
কযামপেইন
করমচারি
গহহীন
রেকরডটি
বাছাইপরবের
সবারথকে
ইতোপরবে
ভাসছে
মাততব
নানাবিধ
হিনদতব
করীডাঙগনে
নীিত
রেজওযান
টানেন
পরিষকারভাবে
তোলায
সমপাদনার
িতিন৷
মনাফ
যৌনতার
ইবরাহিমের
অবিচছেদয
পরিতযাগ
১৯৩১
ইভানস
ওযাটসনের
টঙগীতে
ছডাচছে
পদমাসে
ইনজাম
ফজিলাতননেছা
সথবিরতা
যদধবিধবসত
ভেনেজযেলা
শৌচ
অনতিবিল
মেগাপিকসেলের
বারগমযান
ডবলমরিং
হািসনা
শাকসবজি
কযাথলিক
তামাননা
আজঞাবহ
বরদাশত
আযব
ইি
গাট
ছানা
ডমিন
তদে
দিস
বপন
শোল
সতে
সাযীদ
েফ
##খাত
##বোট
##শকতিকে
##ভঙগের
##ঘের
##উম
##েরার
করিতে
##টিফোর
নিদের
সমতার
একদা
সংঘট
আমমা
##িসথ
রাজিন
##ডিএ
গরান
##নদাজ
বিশবাযনের
আইনী
এমবিবি
বরত
মারাক
ধরপাক
ইউসি
গণক
বহনের
নতনতব
বিজনে
##সমপর
আনব
নারকীয
পাঠকেরা
অরডিন
##জাতি
গোলাপি
জীবের
হতযাকান
হকও
উৎপাদক
সালভ
চলচচিতরকে
বিষযটিই
পরণতা
কোরান
টেকের
সিনেমাই
োছে
##চরযের
##কসংশ
সমপরকটা
উঠত
নবীর
আযমকে
রপকার
লালমোহন
তরণীকে
যতবার
মযানযেল
হিসাববিজঞান
##গোলা
মিথিলা
মাধযমিকের
ধারাটি
ওসামা
নিঃশেষ
অঙগসংগঠন
বারবারই
এমপিদের
##৩০ঘ
টিকেটের
পরিশোধিত
তফাত
শিবনার
এবিষযে
ভীষণভাবে
ঢাকামখী
গণপরিবহন
ভরাত
টিকফা
পজিটিভ
ডিসিপল
##বততির
উনারা
দিইনি
শাহিনর
হেযেছন৷
অরপিতা
ইযেস
দকষিণাঞচলীয
সমপরদাযকে
মফিজল
কইনযা
জামিলর
চানদিমাল
সাঈদীকে
কাকরাইলে
সকেলে
লেখালেখিতে
বিহঙগ
গরেপতারকতদের
অযাডিলেড
কষমতাবান
কিযেভ
নিশচিনত
এলাকাজডে
শাসতরীয
নেপথযে
ফরিলযান
মেরিটাইম
রিভলবার
বারধকযজনিত
মরালিধরন
থামে
রাবি
লকষে
সদন
##৩৭
##থনি
করচি
##তরার
একরাম
##াবী
নাউ
নাৎসি
তারলয
অনমিত
আরকি
পাখা
সবায
##জনম
মােন
চেচ
এসপানি
আহরণের
ভারপ
##তযাগ
##শিপে
বৈকি
হারলে
খেলডে
অভিযোগটি
সালেহা
আনতো
##াবাহী
ধরেছিলেন
অযাওযার
সিনেমাকে
মধযবিততের
বোমবে
##আরএস
জযশঙকর
নিরদেশেই
উদধারকাজে
অবসথানকে
লাশগলো
ডেজ
উপাখযান
রপপরে
ডাকওযারথ
পরিণতিতে
##০০০
##নিরবিশেষে
পরষদে
ডরট
##গারড
টাইটান
সিংকে
রিজভীর
বাচান
জানাতেই
বরষপরতি
সংগীতবিষযক
সপষটতই
পরতিনিধিকে
োথেকই
ফযাকস
নিকোলা
বাজান
পরতযেকটা
সংরকষক
৪৭টি
জেলখানায
গনাহ
বরেস
বরেইল
অবলীলায
দবীন
সাহেবকে
রোজিনা
পোরটাল
জেডিসিতে
আইপিওর
মনীরের
পরকারানতরে
আরসেনিক
নেইমারকে
টরানসপোরট
শযামা
বততির
##উইচ
হযাটটরিকের
পললব
লাহির
নোটিশে
গিলকর
কোসটগারডের
সাকষরতার
শাযেসতাগঞজ
সালোকসংশ
তোপখানা
ঝামেলায
রীতিনীতি
বারলিনে
আরনলড
নবানন
অসবচছ
গযনা
আিদবাসী
অনতিবিলমবে
অশেষ
ওহাব
কশীল
ঘমা
ঢালি
থামার
মদয
হরম
ািতক
##পিযা
##াসম
##াইস
##াপী
সেচের
##িযাখালী
মাশা
মধসদন
রাজাবাজারে
কষিক
##পিজেড
বযাপতি
কোনোমতে
আইআই
মহায
সমযসীমার
বরডের
বেধ
বেযার
শেষভাগে
আশীষ
রোভার
চারচ
সভাপতিমনড
টরন
টরফ
##ধরষ
চৌকস
বারডেম
অপরদরশিত
চিড
কারণটা
শনিনি
##ফাযেত
সাকি
নিরদেশও
সকলগলোতে
পরতযাশ
আগেরদিন
বেডেছিল
আতমনি
##বোনের
বিসিসি
জেনর
##বযসত
কাদেরকে
শরীলংকার
মাইকর
মিথযার
আধিক
ভিননভাবে
মিসেস
##বিলিটি
মানবাধিকারবিষযক
পাহাডতলী
৩৬৫
##িসতানে
পরতযকষভাবে
মাঝেও
মহিষ
পিডিপি
জেরজালে
িনেজর
বেনজে
সবীকতিসবরপ
কণঠভোটে
গিযেছিলো
জেলেরা
পেসারের
হরর
ঘাযেল
টেলিফিলমের
শীতকালে
আকাঙখ
আমানতের
বাপপি
হিমঘরে
মতযদণডপরাপত
ইচছামতো
নিরবাক
সটোরে
ঘোষণাপতর
মাঝেমধযেই
অসবসতিকর
গপতচর
ডরেজিং
কালেক
মেইলের
আবদেল
ছাতরাবাসে
মাযেরা
াচেন
##াবানধব
কযালিফোরনিযা
ঝাউ
বেদনাদাযক
হাইডরোজেন
অযাডিলেডে
বঞচনা
যোগসাজশে
হাইকমিশনের
তেহরান
উপতযকায
পিকেটাররা
পরোটিযাদের
বাহাদরী
চারিতরিক
পেযাজের
বদনাম
কালভারট
ভগনিপতি
সবারথানবেষী
চটর
পটার
পচা
ফযাল
বমি
ভগরভ
রাকা
রপের
শিযাল
সেশনের
হতি
হতবিক
৬৩০
##কবি
##কযের
##লজি
##লজজ
##টাস
##টরে
##োনের
##ানযাযী
বিরাতে
জানলাম
অনশো
নিরণযের
বযকটের
##টেয
দেশসেরা
##ওযারক
গরভব
দেখতেই
সিজার
সিযেরা
থাকলো
আলিব
দিনার
রহমােনর
সামিল
ইসলামে
##দেবী
হারনান
হারামের
ইনফ
লিমা
সিদদ
চাইলড
তথযগলো
নিশো
বধবারও
ফলিনট
ফরজ
লাগান
শনযের
লোকস
সনতরাসে
সমাজসে
নগরবাসী
তরফে
##কটরেট
জারন
বেগমগঞজ
ফিঞচ
অসতরসহ
মিথযে
সবাইকেই
িনহ
অপারগ
৪৮টি
উচতে
শটটি
রেজওযানা
জাগপার
রশনারা
৪৯টি
পেটরলবোমার
রবিচনদরন
সমমিলন
শতরতা
পশচিমাঞচলে
যানজটে
সটরাইক
জিনস
জিনাত
অংশীদারিতবের
ইভান
মনসটারস
নডলস
উদভাবিত
ফিলিপাইনের
##পরকরিযা
এমইউএ
##মালিকদের
গৌরবময
অধিবাসীদের
সটযাটাসে
অবযবহত
কোতযালী
সননযাস
খনীদের
ফসফসের
গচছিত
তারপরেও
উপকমিটির
করোমোজো
বনাঞচল
অডিটোর
নিরদবিধায
ইজিবাইক
ডিএফএ
ইচছাকতভাবে
খলিফা
সেশনজট
পরোফাইল
মরহমের
ফেরনানদো
কিনডারগারট
দিমিতরি
করিমিনাল
রেবেকা
বদৌলতে
ডিলার
পযানড
পসরা
মংল
শবন
সযদ
হেলে
াধীন
োসন
##কিত
##পলা
##পণে
##সকার
##সটিং
##মভব
##বতা
##যাং
##াসতের
##বারষিকী
##ঙগেল
নেসা
রাঘব
অবজঞা
পরধানরা
ছিলই
কাধের
##পিংযের
২০৯
দেখছিলেন
সিএফসি
বযাধি
আলর
##দাওযা
দিনরাত
সহকারে
রহমাতললাহ
হিসযা
ইউপির
বডড
বডভাই
ধারক
সারাদ
জামাতে
অপরপ
ডিউটি
সেনার
সাংবাদিকতায
গোলই
জাভি
শিলপকার
জলর
অনষঠানমালার
ফলমল
ফলতলা
##গাথা
নরী
জেসি
ওযেলস
চাচার
##এইএ
সংবিধানকে
২৬৬
দরশনের
ইসিকে
চিতরনাযক
চিনে
কথাম
খাটিযে
##শিলপে
মিশরণ
পতাক
যনতরণায
বযসীদের
শহরটির
সনদেহাতীত
হঠাৎই
অঙগন
##কানন
ধাওযার
আশরযকেনদরে
##বযাধি
নাসিমন
পারিবারিকভাবে
কেরেছন
নতজান
কযাপসল
সবগলোই
সামিটে
বািহনীর
অঘটনের
দরঘটনাসথল
লিংকন
মাহমদউললাহর
ফকনার
মাপকাঠি
জভেনটাসের
##গনধা
রিহযাব
নিউকলিযার
এিটএন
এসইসির
পরিদপতরের
ইসরাইল
ডিভিডি
অরডিনারি
ধীমান
সপলিনটার
বোরহেস
কাশমীরে
বিপথগামী
রেদওযান
আপরাণ
কনিষঠ
খনে
গামা
টিসি
তষ
ধৈর
লটিযে
সপির
ালা
##সতবক
##ণীয
বিদধ
বিঘি
বলটা
##বািরক
সরণ
##নাধীন
##যানায
যেকোন
দলবদলের
অবিসং
আসম
দেখাই
সকোযার
বেতনে
মারলে
ধরণ
গণনার
আজমত
বিকতি
সদসযদেশ
আদতে
মাসত
কলঙ
অপরকাশ
অপরযাপত
##চছিক
গরেডে
খবরা
মযাচও
মঙগলবারও
মোহনা
পরবী
এনটিভিতে
বইও
বাদির
যোগাযোগমনতরীর
একসপো
মানবজাতির
ওযারল
কারযকরভাবে
রযেট
মাহমদকে
অনততপকষে
সইট
এফডিসি
আলমগীরকে
অরথমনতরীকে
৫৫০
বাচবে
চিকিৎসককে
জিতলেই
ভমিহীন
গরাহককে
তাপসের
১৯৪৪
সাকষাৎকারের
ইতালীয
শেরপরে
সজনশীলতা
সমারটফোনটিতে
শীতব
মদরানী
সংবরধনার
সোনাগাজী
মকতিযোদধাকে
সজানা
পাওযেল
কৌশলপ
নিপীডিত
এখেনা
হতাহতরা
সেনাপরধানের
কনসটরাকশন
গণযমানয
বিএনপিকরমী
পলযানটের
ভিকটোরিযার
বাটটা
বাযারনের
পাঠযপসত
গোলাগলির
ইবতেদাযীতে
দরভাগযের
দহগরাম
বঞচনার
##করামক
বিমোচনে
মাউশি
সটরেইট
মচলে
অনতবরতীকালীন
জযাসরিযা
সপারহিরো
জমিজমা
কংকরি
আেস
তলো
তমা
ধলা
মলি
লডাক
হালের
হযাপী
##জেলা
##পোসটের
##গহ
##দব
##বেজ
সেটিং
পরিজাই
পারভেজের
কারম
বযো
উপবযবসথাপনা
##াগামী
দরবিষ
হাসযর
পেথ
মহিলার
##পারস
কেনায
সমপরচারের
পরকাশকদের
দেনা
মনমোহনের
সপকষে
##সটরি
শিকষাঙগনে
টিএসসির
পাচছিলেন
সনমান
পিযের
পডলো
##মবারগ
গরেপতারও
ফলিত
ডিসক
কোরিযায
জীবনটা
ভাবলে
সপারমযান
ছাডেননি
হরতালকে
বিসওযাল
বানায
আকতে
দরঘটনাটি
সলইস
খেত
লাভলী
ফেলবেন
সিরাজদি
গহযদধে
লেখককে
পজির
রাজজাককে
কিউরি
বযেটে
১৯৪৩
ইতালিতে
ইনসটিটিউশনে
আমনতরণপতর
কষণকলি
পারথিব
হরন
মেগাওযাটে
শিবচর
পাখিদের
অপসারণে
ছাতা
ছাযায
মেহেরপরের
পিসিবির
মেধাবীদের
হলিউডে
সাইটটি
রোনালদোকে
মেহজাব
দবৈরথ
ফিলডিংযের
সটাডিজের
উডোজাহাজটির
নেশায
হারাচছে
রাজপথের
দখলদারদের
রাইফেলস
রকষণাবেকষণের
পরামরশের
িবচারপিত
রাজাপকষের
ফিনযানসিযাল
ইততেফাক
চিটাগাং
নিযমানযাযী
সবাধীনতাবিরোধীদের
পিপডাবিদযা
গোসবামী
সাবরিনা
পিৎজা
কাকতালীয
কথামালা
দরবিষহ
ওআইসি
কফিল
চমব
থি
লামা
লযাট
শিলা
াহী
##চং
নিলেই
বলট
বলিযে
##াতলা
জানাবো
নেভায
সরজ
কোলাহ
এইটা
পরিহিত
সবাসথ
বিশঙখলার
##িমকত
দিনটিতে
৩০তম
কিছসংখযক
গণড
১১১টি
চালাবেন
আদরে
আননা
গোদাগ
পাঠশালা
জীবদদ
যান৷
শিলপাযন
কেউবা
আলীমের
ভেডামারা
কোরেশ
ওযেজ
##চরিত
বৈঠকও
জনমতের
মারকায
উঠার
পরযাযেও
পরিবারকলযাণ
পদকষেপগলো
##াদারের
ঘরপাক
সিদদিককে
বিরোধপরণ
খােল
অপেকষমান
শবদটা
উদবোধনকালে
একাডেমীতে
কমপলা
রিজওযান
রাইফ
বিচারককে
মাতাল
গমভির
##ামারী
বিধির
বাবকে
৩৯টি
পরশংসাও
নকশায
জেনেছেন
অপহরণকারীরা
পরবণতার
দরিদরদের
পরতিদবনদবিতার
মাসটারের
ভযেজ
অফিসারদের
আনসারললাহ
নগণয
বাশারের
ইযারডে
১৯১১
ছিনতাইকারীরা
১৯২১
াসাবা
জমেছে
বযালানস
পোশাকশিলপে
তালেবানদের
পাপডি
পিনাক
ইঞজিনচালিত
অপারেশনস
মহাকাশে
মেলবোরনের
হিজবললাহ
পাউবোর
##াবাজারের
যথারথই
যথাসমভব
সৈকতের
সিদধিরগঞজের
পেইজে
পরতিকলতার
পৈতক
মানোননযন
মদিনায
সাইকলোন
শাযখ
এনপিপি
বিপিএলের
ভাইরাসের
গরামাঞচলে
ডোনট
পাতিল
সহাবসথান
গরোথ
চানদিনা
িকেশার
জোলির
শবাসরদধকর
লীলাবতী
উইকেটকিপার
শারাপোভা
উপদেষটামণডলীর
হাতেনাতে
টরানসফরমার
বরিফিঙে
এমবিবিএস
করচিপরণ
গরভবতী
অড
আকি
এরিযা
ওভাল
ঘষের
ছতে
টবল
ঠাটটা
দরা
নখ
বনি
বোট
##ীকত
##উডার
পরদাযিক
##াদিযা
##াকো
##াবাই
সংযম
সরসব
সেবাস
##বিহ
কোটিরও
আরশা
##বাদিত
অভযনগর
করেন৷
২০৮
দেখেশনে
সকযানড
বিভকতির
সথায
গেডে
সামনত
ধরছে
##দিযার
সোযে
রাখল
১১০০
মযাংগো
তোডা
দশটায
পদযাতরা
পালিযেছে
বিপৎস
পিউ
পিঠের
পডছিল
##ষটিত
করমকরতাও
মিলিব
##পাচার
বাহরাই
##সারকিট
##মারির
১৮তম
১৬তম
লোকসংগীত
ভেড
বোরকা
বরিজে
বিশববিদযালযটির
কনঠে
বৈঠকেও
ধারণকষমতা
খোডা
কযাচিং
২৯তম
টরাকটির
যদধাপরাধে
এলাকাকে
দোনে
মাঠপরযাযে
লিখেছিলাম
কঠিনই
আওলাদ
রকতদান
সানডার
সমপরণরপে
তাজরিন
অধযাযভিততিক
নিরমলেনদ
সনদপতর
রশপনথী
িদেযেছ৷
এজাজ
সমপাদনের
মযানেজমেনটের
তাডাশ
কলমবোর
পলাশী
চাষাবাদ
টইটারের
সিডনির
নাদালের
চাপাইনবাবগঞজে
বনদকধারী
পীডনের
মভমেনট
##াকরমীর
এডিপিতে
আবদচ
হংকংযে
বযাটারিচালিত
এমএলএম
বেসিসের
লযামপার
বরাদারহড
মরিনহোর
দৈরঘযের
দঃসবপন
বযাকটেরিযা
মারামারির
পািরবািরক
ছদমবেশ
কাশিযানী
হডোহডি
পরতযরপণ
##কিশোর
বেনজেমা
পরিজাইডিং
নিকে
শাডির
োজা
##ইজ
##ভকতি
##ভিনন
##দপর
##পরারথীদের
একতা
বলতাম
সংযোজনের
আমে
দেহর
##বিবরণ
দরধরষ
সকরি
##ীনার
সামছল
শেখে
সদসযই
পরকাশনার
##দধেয
ইনফর
বেশিদিন
আনানের
পিআই
পরযাতের
##পাথ
হকির
ফলও
এনরিক
এনডিপি
কামান
বোতাম
সমরথকের
জডাতে
গলদ
উইকেটটি
োশা
নিরাপততাহীনতার
পাবলিশ
মালিকানার
চাপানোর
##কলযা
জোটসঙগী
নাটযর
অগরগতিতে
##শিলপীরা
আমিনীর
রমনার
শহরগলোতে
চরিতরটিকে
কংগরেসকে
খালাসের
পরশংসার
সংকটাপনন
শভসনধযা
পযসার
খলেছে
জনপরশাসনের
রেজিসটরি
মৌলবাদের
শফিউর
োজাট
থামানোর
দাডাতেই
ইনডোর
ফরেমে
তললাশির
জলিলকে
নেতরীদের
খণডিত
একেকটা
পরাপতবযসক
##বিজঞানে
নিজেরাও
##নিরভরশীল
পরাসাদ
অযেলের
মৌখিকভাবে
আধারে
মজতবা
##শিশদের
পতেঙগা
উনমাদনা
পেশোযারের
টানাপোড
একসপলোর
পনরমিলনী
চযাটারজি
নিশিগনধা
ইনিযেসতা
দপচাচিযা
কাযকোবাদ
ণালেযর
সনদিহান
ভগরভসথ
অমত
কনা
কলিপ
খশী
খেনর
টযারি
দদলের
হরষ
াডেভােকট
িপি
##ফাযার
##ইএন
##ানতিক
নিমনতর
##পরো
##পরিনট
কোক
কোযানট
##যানোর
কারনে
রাতরি
অবলো
গরহে
এমটি
থাকাই
আলভী
##ীবান
দেওযাল
সরকারেরই
লিগা
সপটে
সারাজীবন
সরবসম
মখটা
##এমইউ
অযাচিত
##কারীকে
##মেরী
আলীসহ
পরণিমার
২২৭
ফেরানো
ছোটবেলার
শেভর
২৩৯
পাবার
মহানগরী
পরসকারজযী
বেলট
উৎসবটি
খাচা
জমাট
ঘণটাখানেক
অযাডভানস
##াগলোকে
চকরানতের
পিডিবির
লিগযাল
দরদশার
োনওযার
সালাহউদদীন
ককষিগত
সেঞচরিতে
ঝলছে
অনিরাপদ
শলথ
নেতরীরা
এখনি
আঙলের
উসকানিতে
খেলাধল
##সাধারণের
অহং
বিএমএ
কইনস
রকিবউদদীন
লোহাগডা
ফযজল
উদীচীর
ঝটপট
রতনা
কচকাওযা
শিষযদের
অমিয
কসোভোর
বিলবাও
##হোলডার
আউটসোরসিং
টাকাপযসা
সমাপনীর
জৈ
ঢাকে
তেরে
তমাল
ফাডিতে
রশো
৩শ
##জিযা
##সজজ
##ছাড
##থওযে
##যািজত
##ছেলা
নিহিত
সমীকষার
বলছিলাম
জানেত
##িসার
আরোগয
##টকও
সবদিক
উপকরণের
##গরতবপরণ
রাজপতর
কিচির
গরমে
গরডন
পেতেই
দিনরা
##ছিড
ভারসন
বেশে
মিখ
বিএনপিবিহীন
মনিকা
আপসহীন
বডির
তথযই
সচিবসহ
বযকতিবরগ
পরযাকটি
মহাসিচ
২৫৭
অপশকতি
বাসতবের
রিড
কমিটিগলো
আটজনের
সপারভাইজার
২৩০০
আটককত
আটকাতে
##রাফট
শিকষারথীসহ
পরতিবেদকের
অনযানযদের
২৯৫
##মাধযমে
বঝবে
নদীগরভে
যতগলো
অসতরবিরতি
দোহার
ফোরকান
সবরাজের
আমেরিক
মডেলিং
ধরেননি
িতনিট
সানতো
হানার
ভমিদসয
োগাপন
গোপালপর
ওরাও
জাকের
নাটযতততব
গেমশো
পরিশোধে
মককা
৭৭৭
এগোযনি
দষণমকত
লৎফল
মালেকের
জডেই
টেলিযোগাযোগমনতরী
মোনাজাতের
টেইল
সাকষাতকারে
উমেশ
কলাসেকারা
নাবিলা
হোলডিং
পনরগঠিত
রেলসটেশনে
মীমাংসার
গোছানো
সসংবাদ
ধবংসসতপের
বযাচেলর
মহাদেশের
ঘোরাঘ
ভিভিআইপি
কেনাবেচা
হটসপার
পসপসতবক
ঘমানোর
মনতাসীর
হালিশহর
কিযোটো
শবনম
ধৈরযের
খেলাধলাবিষযক
অফর
ইনিশ
জযর
দানা
মফি
যন
রকি
হাপ
১শ
##টিকি
##ণডি
##ঠেক
##োদর
##েলন
##ঙগো
##টাউন
সেতব
সেদেশের
পরিপক
পরতিচছবি
কারের
কারেনট
কমো
মানেষর
হাসে
##টিরই
মতভেদ
##িবিত
পরথমদিন
চারিদ
কলনি
পদবি
সারে
ধরেছি
পাঠালে
সননিবেশ
খেলাও
##েরােধর
শতাংশেরও
২৫৬
সিদধানতটা
ফরমান
##িটাস
মরসির
লাগোযা
অধযাপকের
তাহস
##ভেজা
ভাইজান
কনসয
জোসে
##জনেরা
সনতরাসীর
২৮৮
মাঝির
তরিনি
পনরনিরবাচ
বঝলাম
ইনটারভিউ
ইনটারপোল
##তলীতে
খাচছেন
৩২তম
সবরাষটরসচিব
রামদা
##লিউশন
##পনথার
কবিদের
দেখিযেছিলেন
সবারথবিরোধী
সতরকবারতা
তরিবারষিক
উভযপকষের
শভেচছ
টেসটেও
ফযাবরে
দীপঙকর
বসতায
টানানো
োনতেত
পরতিশরতিবদধ
সতরাপর
টেলিফিলমটিতে
##চিনতার
তোরা
ছিদর
শৈলপ
বিজঞাপনচিতরে
১৯৩৬
হবিগঞজে
##জেনসি
হিটলারের
##১০ঘ
বেকসর
বানদরবানে
লেগনা
ডাযরিযা
টেকনোলজিস
বচচনের
বাশখালী
কোনদলে
গরীষমে
অনপসথিতিতেই
লেবাননে
ওযাকআউট
মিটিংযে
ওযারকশপ
রেলসটেশনের
সাথিযা
বিহাইনড
বিসততি
বিজেএমসির
শরদধাবোধ
##াসংকরানত
এযারওযেজের
টিচারস
সিমফনি
বাথরমে
রপতানিমখী
উদগরীব
অচিন
ইঞচির
ঈশ
ওডার
চণড
ছার
জোযা
পতি
ভঞা
মগন
যাপ
যাদর
রিলি
শেরি
িসর
োডে
##ফকে
##ফকস
##হাদের
##ৎসর
পরতাপ
করযের
বিংশ
##িরকা
##ওযাতের
##লোকে
##িশের
পাছে
কারবার
##ডেকস
গরতে
কোনোটি
আইজ
আইএইএ
বিরশাল
##ীগোষঠ
কিনারা
দইযের
আগেভাগেই
##দনত
অসখে
গণগ
গণবিরোধী
অরথযোগ
রোমার
উপজেল
##যামপ
অযাপারটমেনট
মাহী
রানআউট
নিশান
কারযবিধির
বাডিটির
সিদধানতগলো
ফরমা
কামডে
পোদদার
##মোহ
রিমেক
কতবার
ভাবন
##বাহিক
হাসানজজামান
উপদেষটাকে
যোগাযোগবযবসথা
শিহ
সমসযাই
সটেইনের
পাযরার
খননের
পরাণহান
জোরেশ
##াবিহীন
ফিওর
জোটবদধ
উনমখ
##রকষা
মযানহাট
ডরেনেজ
নাজমন
হযাং
আতাই
পযাচ
ফোটে
শানতন
কলাসরম
ইলিযাসকে
মেলাম
##বসতি
করিসেনট
বরগনায
গাযেব
নৈপণয
১৯১৩
ছাযাছবি
অযাকাউনটের
##াবািহ
ডেনিম
ডাকাতদের
সপরিচিত
বিপণিবিত
পরোটিন
আইপযা
##সঙগত
ইউএসএ
জনসমাগম
উপারজনের
ফযসল
উনমোচনের
নজরদারিতে
ডবিযে
পডালেখার
##চকরের
হতযাযজঞের
অযাভিনিউযে
ওডনা
উইনটার
রিহযাবের
ধবংসসতপ
আইপিএলের
কারসাজি
বেপারী
ঢালাওভাবে
হোসটেল
খানেকের
আেনাযার
নানদাইল
রামকানাই
তততবাবধাযকের
সৌভাগযের
ডবলিউএইচও
বিযানীবাজার
এনজিওর
এনটারপরাইজের
সভাপতিমনডলীর
খবরাখবর
টযারিফ
আেব
ওে
কাপত
ডেক
নের
পষট
পটল
িমর
োবে
##মাসহ
##শিতে
##ডাকে
##তলি
##১২
##উটিং
বিমরষ
সমবল
সংহতির
জনসহ
সেযাগ
##রেডস
##যানে
আরএইচ
সবকীয
##মাটি
কািশ
কষকরা
##মেটেড
##চারাল
সিমপ
থাকাকালীন
কাজলের
মারলন
মানষটির
ধরষ
##বলী
আপযাযন
##বাসীরা
টরফির
উততরসর
সরবজন
ডিগরী
ডিগরির
সেনাপতি
##থিং
বধির
কোনভাবেই
ছবিগলোর
বাহবা
##মারচের
##িটেশন
১৩০০
তালাবদধ
নামেও
সকলটি
কালকে
যাওযাই
বদধিদ
সবাসথযসেবার
উঠক
২৭৭
অবসথাকে
সমনকে
সথানেই
চিতরকলা
কামালকে
খাদযনির
ফিদে
সবপনকে
পরষেরা
জিলল
দেবেনদর
পরিবহণ
বাজেটকে
কাহার
রওনক
##মণডলের
করিকেটারকে
করোম
গযাবর
পরাইস
নীলা
মেননের
উডছে
সেগলোও
রেজালট
সাধক
শাহজাহানপর
##ছানল
বরাহিমি
শিকাগো
মৎসযজীবী
কমানডারস
জিনিসপতরের
১৯৩৯
ফরেড
বেইজ
উজানে
সিসিডি
সীতাকণডে
ডিভাইসের
ফলোরে
আসতানা
ইউজিসির
ডিজিইএন
টাকাই
অদকষতা
অযাডিলেই
গভরনরের
ভোলেননি
সহনশীলতা
লিনড
জোহানেসবারগ
অনসনধানীমলক
উসমান
ফোনালাপ
পরভাতী
ভারজিনি
মাহাথির
ইনিশিযেটিভ
অহর
ইদানি
ডরিং
দগ
দযাট
পিকিং
ভবনধ
মীম
রঘ
লটারি
লযানস
শরাফ
সশর
##পডা
##সাপেকষে
##ইযের
##শানতি
##দদী
##ছট
##াদশ
নিলো
নেহাত
তিনিসহ
পারছিলাম
সরকারগলোর
দেশদরো
সাট
দরবী
এসডি
আইথরি
এমও
##সততরের
ইসলামবিরোধী
##সেনস
অংশটক
লিথ
আপলত
বডজোর
রাষটরযনতর
অপরাস
তৈল
হািব
কলেজগলো
অযাপারট
সাহাদ
থাকেল
সালা
এনএইচ
সডঙগ
পরকলপগলোর
শোনায
##মোব
দাডালো
রিমেই
কতদিন
##ধারীর
মজিনা
বদধিবত
োছাট
##ষঠানিকভাবে
শেযারধারীদের
শতবরষের
ডাকসর
##াবারের
যদধজাহ
দোহা
৩১তম
দজনকেই
ভবনেশবর
কমিশনারদের
ফখরলকে
এফএইচবি
চাদে
ভাষাশ
বিদযালযগলোতে
সথাপনায
দমনপী
বরষাকালে
৩৩০
##যাবলি
করণার
বাগদাদ
৪৬টি
৭২টি
সিলিকন
পতরিকাকে
৮৫০
সবিধায
সথলসীমানত
কইরা
এডিটর
কিমশেনর
মনীরসহ
টরানসম
পজিবাদী
টেলরের
ভঙগর
বিহারে
##িনিযোর
গোলাপী
রাঙামাটিতে
শযটিং
মখোশধারী
বিশবাসযোগযতা
জাইকার
মরিচ
সবৈরশাস
ছাগলনাই
রাশিদা
লিমনের
পাশচাতয
অনসরণে
মাজেদ
ফযাসিসট
বোঝাবঝি
পঠিযা
গবাদিপ
পরজেকটের
থারাঙগা
অবিসংবাদিত
লযাটিন
##বিবরণীতে
এদেশ
ওিস
চিরা
টযাল
টেরি
ডরাগ
দবছর
নঈ
পচে
সিযা
হৎ
হজর
াট
৮ম
##জপর
##ীপত
##সডক
##ইবি
##খেলা
##ধাক
##শাম
##শঙখলা
##ভালের
##ভিনের
##চান
##ানকারী
##যেখ
##যেকে
##যাগো
বিবির
একধাপ
বলছিল
দেডেক
অনশনের
নেটো
সরযার
সেপ
নিরমান
সবচ
কমিযেছে
কমবলে
কমরেডস
করমজীবন
কষতিক
পলানট
এমটিভি
সমযটাতে
বরন
##িজার
সহে
চলছেন
##ঞজয
##পারক
এলটন
মামলাসহ
তিনে
##এসএ
বৈমানিক
মযাডো
##ধারণের
টরনে
পডেই
##ভাবী
সরবনা
এসেছিলো
চটটগরামকে
মিলিশ
ছবিতেই
পাকষিক
চেযারমযানরা
পরযকত
তললেন
লেদার
ছোটভাই
ভাবেননি
গাভাস
গলযা
দীরঘশবাস
ভলিতে
চিতরনায
ভমিকাও
দোলে
খেলেছিল
গডানোর
অগরযাতরার
লিখেছি
করিমিযার
বালাই
সবাধীনতাকে
ভাষাভাষী
ফলাওযার
হযাকারস
বদলাযনি
ফরিদগঞজ
কিউরেটর
হিউজ
মমতাকে
সিসিমপর
শোনানো
মঠবাডিযা
পালটাতে
গণমাধযমকরমীদের
শরিফে
সাজেদল
বেডানোর
সবপনা
গণপরজাত
##২০ঘ
িশকার
মোটরসাইকেলটি
লেনোভ
পরতিহতের
হাডড
তারিকল
সফিউল
টেলিকমি
ভিকষা
চনদরা
বিএফইউজে
কতবদিযা
নিরবাসনে
জেদদা
শিকষানীতিতে
বিমসটেকের
োগেছ৴
ডবরি
শৈশবের
মনতরনালযের
লোহাগাডা
বরাসেল
ফৌজদারহাট
বাইসাইকেল
অকলানত
যাতরাবিরতি
কযালালামপরে
হাবিলদার
একপরকার
মসললিরা
অভিসরবণ
মচলেকা
অপি
আটের
ঈগল
এমা
ওগলো
কঙগনা
ঘটকের
জযান
টকর
দারস
নতি
নওর
পেরা
পচন
মশা
শচী
সিকত
৭ম
##জাকে
##পকর
##পলেট
##যমান
##চছিলাম
##ছের
করিজে
বিবিধ
##াদিও
##পরভ
একজোট
আমর
জানাজানি
##াপলত
##িসটের
হযানিব
নিরাময
পাভেল
সবকটি
##করমিক
কারনি
কারামকত
আগযেরো
কমরেড
দেখতেন
##তিকাল
আইএমই
বরক
##রথনের
বিরক
ইসলামাবাদের
উতপনন
খেলছিলেন
লিঙক
##বাসা
##ভারের
##আইএ
মাহাম
সিনেটে
আগামীকালের
মিলটন
গরাময
জনগেণর
শনছি
বেরোতে
পরসতাবগলো
বযাংকসহ
ওযাহ
পরতযাশী
এইচপি
শিরিনের
শাসিত
পরেসিডেনটকে
রপসা
শামক
শামছল
পরতিকারের
একটখানি
খেদ
বিরোধিতায
পরযোজকের
বনদনা
এফসি
পেরি
গাইতেন
শহরটি
বরষায
টেনশন
ইকবালকে
জঞাত
জীবনেও
ফাযারফকস
বসতবাডি
আখতারের
জালালের
বযানডদল
মারফত
মককায
পরবাহের
ফলাইং
সজিব
সাফারি
##পরতিষঠানের
##াইজেশনের
ডালিযা
খারিজের
কোষে
ভারসামযপরণ
আইটিউন
নিলামের
কিবরিযার
ফারমগেট
যবরাজের
উদদীপত
রেফারেনস
টিএসসিতে
কনভেনশনে
দরঘটনাসথলে
ঝরনা
মকতাঙগনে
গহবধকে
সংকরমণের
বেইজিংযে
ওপেনে
কাননাকা
গণঅন
##গরাউনড
ভাজক
মকতবাজার
ঝালকাঠী
টরাইবনাল
মনোরম
সোসযাল
এটআই
োগােয
সবখানেই
গারদিওলা
দরগাপজা
ভারতবিরোধী
##কৌশলের
নিঃসরণের
সহেযাগী
কেরোসিন
ওযাহিদা
পরিতরাণ
সযাবিন
কাদমবরী
সানতিযাগো
অবজারভেটরি
ঔদধতয
টরফিতে
ইদানিং
বদধিবততিক
অশিকষিত
উথ
এযা
ওহ
কদদ
গালে
জংশন
দফ
বারণ
ভনড
ভাতের
মঘল
লমব
শযার
##িষযক
##ককারজনক
##যযাল
##ইং
##খশি
##বচ
##বীয
##চাপের
##যোর
##িকাদের
##িকেশন
বিটস
নিভে
বাশির
##িরল
##িনিময
সংয
দেবর
দেবের
সেজ
##াডিযা
অভযদ
কষোভে
দরভিস
গরজন
বযাযাম
বযাটারির
ধরল
##মিকা
নযককারজনক
##কাশনের
বৈরত
মযাসা
আছে৷
হারারে
মনড
বকসিং
সপিল
দশজন
নেতসথানীয
জাভা
ফিরছিল
থাকেত
##াপতিকে
বঙগানবাদ
##আরএফ
বাজারমলয
উদযোগও
বযাংকটি
ফেরেনি
ভোকেশন
সমাজতনতর
ঘণার
ছাডলে
তততবের
বঝবেন
##জলদি
ভলতর
জোরপরবক
ফিড
কোচকে
কমিশনারকে
করিমকে
সহজভাবে
িবিন
সিরাজের
এসএমএসের
হযাটরিক
কারখানাগলোতে
সিরিযাকে
কাটেন
সানী
চীনকে
##গিরি
রকমে
জাহাজটির
পিরচালক
ইবোলায
সমদরপষঠের
চিরাযত
অযাকসেস
সঙগত
হাবিবের
বেনগাজ
শোনাতে
আলাপের
জাপানকে
অসংগতি
৬৬তম
রোমানা
গৌরবো
নগদান
ছিটমহলে
অকষরে
অগরাধিকারমলক
সমপরসারণে
তীরথ
এহছানল
বযারেল
টাইগাররা
এজেনটদের
জোহরের
শরটসারকিট
বিবাদীদের
ডিএমপির
বোমাবাজ
লিওনার
মইনদদিন
যমনায
বাঙালিকে
রাঙগনিযা
নওযাব
ালবাম
হাওরের
জনসভাসথলে
অসটরিযার
উততরবঙগের
জলোচছবাস
ফতেহ
শিকষানবিশ
মটরসাইকেল
ঝরণা
বদধিজীবীরা
কালরঘাট
অযাপারেল
নিরঝর
একাধারে
ফটোকপি
কোযানটাম
মহাসিচব
দরভিসনধ
ইরশ
ইসতফা
ইআরডি
উডি
ওক
কিলো
কঋণ
চডাই
ছদ
ছাত
জত
জতার
জসি
ঠাসা
দবয
নানি
ফলপ
যাত
রিনা
লনা
িতর
েণ
##জেক
##জেনর
##সাতমক
##ভানি
##ডব
বিলক
##তিযান
##েশান
##পরাস
##াবিল
জনন
জানলে
অনগর
##োগা
কারটার
শরদধেয
কষককে
দরবরতী
বিশবপরিচযের
সিভি
কথাশিলপী
বরমন
সংবাদদাতা
মারজিন
৩০২
লাৎসি
পরেসকরিপশন
ইনটি
বিচারকে
##েনটাইল
চৌমহ
অপরা
সংগতি
পরিবেশবিদ
রানও
শিলপকলার
ফলছডি
##গেজ
ডিসটরিক
জানােনা
জাহিদর
শেঠ
োচেয
##চরণের
##ভিশনে
নিরাপততাহীনতা
সৌরশ
পরাণীদের
লালমা
অভিনেতাদের
ইসকা
পারিপার
উৎসক
পরতযাহারে
সইমিং
জনপরিযতায
গারডি
##িমিডিযা
বগির
পরিবীকষণ
সারভিসে
টরেনটির
পরশিকষণপরাপত
শাসতিযোগয
মেঘনার
মহিমা
##শিকষার
মিডিযাম
সফটওযযারটি
সজোরে
সিআইপি
খযাতির
িদেন
ডাকাতেরা
বরখাসতের
লেগসপিনার
দেশপরেমের
ইজতেমায
অকারণে
ওলাদ
গণপরতমনতরী
তানজিম
##ঘণটার
বাউচার
ভটটাচারযয
মহেশপর
আনদরেস
জািনেয
অরাজক
োপেত
সবাযততশাসন
অননমো
গডিম
সামরাজযের
পরিশরমী
পিএসজি
গাদদাফির
##নিযনতরণ
সবেচছাচার
চটজলদি
মেগাপিকসেল
মিঠাপকর
বহিসকার
পলযাটফরমে
টরিটমেনট
হলফনামায
মযাডামের
ইযামিন
পনরজজীবিত
পিটিশন
সচিনতিত
টরানজিটের
মিখাইল
টেলিকমিউন
অযন
আপি
ইএ
কতী
গজে
চাহ
চারণ
জকি
থরো
পাসে
বেনি
যগান
রিমি
লফে
লগি
িসির
িসই
##িঠ
##িটোলা
##জিল
##জিকযাল
##সতরের
##বীদের
##দযার
##ওলার
##চকতির
##উযে
নিমনা
##াসার
সমকামী
একানতে
করে৷
তারিন
সেকস
পরিপতরে
পরিধেয
আরটিভিতে
##করাই
উপম
মােস
বাংলাদেশেই
অবজার
এসসি
২০৬
হাসনা
##েমার
মহরম
মহোদয
মতত
আগেভাগে
আলোকের
ইউরিযা
চারট
##বিদযালয
নিরবাচনকালে
লিটারে
##ীকষণের
##বাসন
সপেলে
##সমপরক
জিটিভি
আনদর
সমমতিতে
মলমনতর
##সরগের
হামিদা
চটটগরামসহ
গোলমাল
পডছি
পডানোর
শিলপীগোষঠ
কারণগলো
গরেপতারকতরা
ফরিক
লাগছিল
অনযাযয
হেগ
৪০তম
ফটপাতের
আতমত
আলোচযস
চাষাঢ
ছাডছেন
শিপিং
হাইম
আসািম
##খাওযা
সেলফ
চিতরগরাহক
তরণীদের
মহাশ
মহাপরিকলপনা
শারল
চাদর
কলাবটি
ভালোবাসতেন
দঃসমযে
দরবসথা
চলাচলও
বরণবাদ
বরণনায
ওরিযেনট
যনতরণার
কাটবে
পরসততকারক
লাইনআপ
জিতল
তবকের
##ঘাটি
##োযারা
মিউজিকের
টেসটেই
শপথের
নিকসন
তাকওযা
রবীনদরনাথকে
রিটটি
হরাসে
ইউএনএফ
কাহিনিতে
সপিনারের
বযানডউই
সিসটেমস
রেসপন
মেশিনের
সেলিবর
বিপরযযে
১৯২৪
বাধযতামলকভাবে
আবেগাপলত
ইনডাসটরিযাল
িবেকেল
এনআইএইচ
বেলারশ
িতনজন
উৎকণঠার
শিলপাচারয
বরিসবেনের
ডলফিনের
জযনতী
ঐকমতযে
আলজেরিযার
অভিশংসন
ালেয
ৌবঠেক
অধযযনরত
বিওএ
োলাকজন
বোঝাবঝির
বযাডমিন
পিকআপের
কনফেডারেশনস
কষাকষি
একশরেণীর
জেসিকা
মাধরয
ধারাভাষযকার
মছতে
কাফরল
বিএসএমএমইউ
কনসোরটিযাম
পািঠে
১৬২২২
মাশাযেখ
শীতবসতর
জীবদদশায
ইরশাদ
অমক
আঙগল
উগান
ঐচছিক
ছই
ছোযার
টাইল
দপকষ
নাজে
পংক
বহার
লবি
ীকা
##নাদের
##নামা
##যসী
##খায
##ণামলক
##হেল
##১৭
##১৯
##৹৷
##োনে
##ানগর
করতব
করোন
বিউট
##বেশি
বাথ
সংকরামক
##বাষ
নেকস
বলেছ
দেশভাগের
আসকত
পরধানসহ
রাজৈর
##খনড
বরাইড
বিরদধ
দিনেশ
আবত
১০ম
৩০৭
লাঘব
বাসটিকে
##সেনর
আশাক
গণেশ
##এসএস
বিষযগলোতে
চারতলা
সমপদে
আইনটির
সপে
জিযান
##ভারত
সরবসাধারণের
শাহিদা
আলমসহ
জববারের
পানতা
শোবার
ছযবার
গাডিকে
সটপ
অপছনদ
ওযাসিফ
জডায
ফারিযা
ছোটো
##যবশত
মজর
গলানি
হাতকডা
দীরঘকাল
বানিজয
নিযোগপরাপত
গাডিটির
দিবেন
শাসকের
ঘরেই
হাইেকা
দিকটা
##হরতে
নজরলসংগীত
যতদর
চাকমার
লিখবেন
##নাথপর
বিকরিও
বাঙালী
সিংডা
রমাল
রমনি
সাদাত
করমকাণডকে
ভালকা
নিরপেকষতার
পিলখানার
বীরেন
করিযেটিভ
আডাইটা
জঞানী
ভাডাভিততিক
মখপাতরের
শানতা
মিডিযাতে
আশবাসও
কষটসাধয
এএপির
গরনথনা
উততীরণদের
লাইসেনসের
ােসর
বাপেক
১৯৩৩
এসএএ
ঝিনাইদহে
পোরটার
বিপদমকত
পাখিরা
পনরবাসনে
বযাংকিংযের
জলাশ
মীজানর
##৩৫ঘ
কেমার
কডিল
ধীরগতির
ইযেমেন
ছডাছডি
নশংসভাবে
##চরিতর
াচেনর
অধিবাসীরা
সেভিযা
তারানকোর
মহারাষটরে
খাওযানোর
মেটরোরেল
সামারাব
ঘেট৷
পরকরিযাজাতকরণ
ডকমেনট
ওযযারলেস
মডারন
ওরিযন
নিগহীত
বালোতেল
সকযানডাল
কষতিকারক
আষাঢ
কটা
খসে
জেবেল
থাবা
নকি
পেলো
বাজিত
ভিলা
রলস
সদীপত
হোর
হারণ
হচছিলেন
##ৗল
##ডাব
পরির
##কেলে
নিবতত
এককে
##াবদের
জানবে
অনান
সরতক
সরফত
কোনোর
##নিহিত
পারফ
রাগে
রাকেশ
আসস
##াগে
বযাগের
পলিজ
সমযকাল
বরিক
অধরা
সহিদল
সামস
ইউল
খালেদের
রোমিও
চারঘাট
হারমো
আদিত
পারে৷
ভালোমতো
মলম
পরাচী
টিটিপি
পিটারস
পডব
মামলাগলোর
রোববারই
ঘটনাটির
সোমবারই
সাহসের
এনডর
এনটরি
২১৯
টেলিছবি
মনোনিবেশ
ভিএকস
ছাডেনি
দীরঘকষণ
অবসথাযই
হাইবর
ছেপে
রাজনীতিবিদের
পরিবারগলো
নাসরীন
বাকিগলো
অসতরধারী
মাসেরও
দোতলার
পরষতানতরিক
চরচায
আখের
কমপো
বিদযালযকে
সাদমান
দশযপট
আশঙকাও
বাযমণডলে
গৌণ
রিকসা
সদহার
নাযলা
নিলযের
রোমানস
পবিতরতা
বিলপতি
শিমলিযা
টিকিটে
রিপোরটের
কিসতির
সরদারের
দাগে
আলেযা
হিরণ
ওনারা
টযানার
করিসটিযান
দিপিকা
ািরত
চাইনিজ
গযাংসটার
করসফাযারের
পেশোযারে
মালযশিযা
বেদীতে
নিরভযে
লেলিযে
উপসংহার
অলৌকিক
বেলকচি
বদধিদীপত
অলাভ
ইজজ
ইকোনো
এখােন
কেমবর
খের
গযাপ
জাজির
ঝিম
ঠক
ঢাম
তিলা
পিসত
ফস
রিশ
লোর
ললিপ
াড
িডি
োকে
##পঞজ
##খনদ
##খলি
##বশয
##ণীর
##ঘির
##ছোযার
##েনায
বিধানে
##ামর
করেব৷
সংকে
অনবরত
অনননত
সেবামলক
এইউ
##যানসের
নিরলি
করাচিতে
পাংশা
সবটক
উপশহর
আগৈল
রাউটার
##ডেয
কাঙখিত
দরীকরণে
##সিদ
##িতেত
মহো
সমযটক
বেজ
##িজযে
সভাম
আবীর
আবাসনের
বছরবযাপী
অভিঘাত
তিনটিতে
চারবারের
অনযরাও
ভাণডার
##ভাবনার
ধারাব
বারই
##এমএল
ততটাই
কলেজসহ
##কারীেদর
##েরাি
মযাচটিতে
মঙগলবারই
জযই
তালপটটি
##বোধয
সটাইলে
##োজার
২২৮
২২৯
কনমিং
বসিযেছে
ভিততির
মালিকপকষের
২৮৫
২৮তম
##টিকেই
ছাতরলীগকরমী
পনররনি
টরাককে
সমাবেশকে
নাকাল
মাঠপরযাযের
সিলেটগামী
উৎপাদনশীল
ভেঙেছে
অরজনকে
দরবযব
৫৫টি
##লীলা
অযাডহক
মোললাহ
একবারে
##হিদজজামান
দবারে
দদকে
হানড
অভিজঞতাও
দৈনিকের
আডত
মালযেশীয
এযারএ
আদরশকে
হোসনি
আশপাশ
বৈধতার
জনতাকে
উততরাঞচলীয
জাতীযতাবাদের
উললাহর
মঠোয
ফজরের
করমসংসথানমনতরী
বেডান
কাপরষ
বেগনি
জিমবাবযেতে
আইসিডি
আবেগে
উচছঙখল
ঘরণিঝডে
ডবলিউটিও
কসমেটিকস
দাপটের
মনসীগঞজে
নিরভরশীলতা
অঙকন
এলিফ
টিউব
সকটলযানডকে
কেরানীগঞজে
ফিলিসতিনকে
মধযসথতাকারী
আওতাভকত
সটযামফোরড
গণমিছিলের
নিবেদিতপরাণ
দসথদের
জিসান
সামলানোর
##কলপে
উপকমিটি
অনকরণীয
মারসেলো
সিরিসেনা
অতযধিক
জনপরতিনিধিরা
চালিকাশকতি
অপরাসঙগিক
গৌরবোজজবল
দবযরথ
অলাভজনক
অকে
ইলিন
গলোর
গরাফ
দিম
ভেষ
সারথ
াপ
াপন
িবেদ
৯ম
##পপো
##সতি
##মভাবী
##ধশত
##দকষ
পরকারের
##াসতরের
একনাযক
বাটেকস
নাপোলির
অনমেয
কারশিলপ
##টেকার
##িযালের
অবানতর
অবতরণের
মোবাশ
দেখলেও
আইযে
##কতামলক
গেসট
হোসটে
অরথই
আপে
##সটেন
ধারনা
পদচারণ
##মনসক
নারকেল
বারোটা
সেনস
মিলা
এনআরবি
ভরতিতে
##গাছি
এগচছে
লাগলেন
রকষক
বাকশ
দাউ
লেং
জেটি
চলছেই
গােনর
চাওলা
২৩তম
সবিদ
নগরাযণ
অবরোধকারীরা
কযাটি
বিলমবে
সচী
পাওযারের
রপচরচা
জবােব
পরতিমনতরীকে
পৌছাবেন
নজরলসংগীতের
সফলও
কানদ
অযালমিনি
##দরেক
িবষযক
অলং
দঃসথ
দবিবারষিক
আসবেই
রকতমাখা
জমিযতে
ধারােলা
ঘনমিটার
বীরের
বযাখযাও
হিপ
কষেতে
সটকহো
তাপবিদযৎ
সবজবাগ
কপিল
মিলনমেলা
ডানকান
গভরনিং
কাবল
পডাশোনায
পরযবেকষকরা
মদরিত
গলাচি
রাজনীতিবিদরা
অংশীদারি
ঘনিষঠভাবে
১৯৩৮
িলিব
পটযাখালীতে
মগধতা
আনতঃশিকষা
ইশতেহারের
সবৈরাচারের
কমলগঞজ
বিআইডবলিউটিসির
ভাগাভাগির
চৈতর
টিনশে
এসএসএফ
উকতিটি
নীতিনিরধারক
##বাকয
অনপরবেশের
##ংগোর
কারযকলাপের
কটটরপনথী
লাইবরেরিতে
অসটরিযা
মালযশিযার
অনতিম
কারসাজির
বৈরিতা
ভিভিএস
শভাশীষ
মারটিনের
সারারাত
অদিতি
নিউটরি
টানাটানি
হিনদধরম
কশীলব
সথাযিতব
শৈলপিক
ভাষাশহী
চৌমহনী
আগৈলঝ
গই
জযেনট
ঝম
দাদি
ধবনিত
নটিকযাল
বযেনস
মসতা
রমী
রেক
শালি
হসেন
হিলার
##নস
##সবরে
##বশত
##দসত
##চেষটার
##িনয
##িননদন
##ামনাই
একবিংশ
##েলও
##েলগঞজ
##কষীরা
##ওযাদ
পরিমাণের
আরার
##িশমা
দেশও
সাযে
##তবাদ
অবঝ
##লাভের
করমযজঞ
কাঠি
মানছে
বযাঙ
পেদরো
পলান
থাকো
##তিরেকে
চলতেই
চলছিলো
##পারটি
জানিযেছিলাম
বাসযোগয
অসাব
আজাহার
বহনন
##াকেই
##সবকস
তোবার
ভােলা
##সমহে
মলল
সারধশত
উলফ
পালার
##বানির
তথযভানডার
শাহনর
অনষঠানমালায
##মখো
ফলাড
ফলগাজী
করবেই
##গেটে
শনযে
নিজেরই
মনতরীসহ
বাকানো
##কোটি
চকতিও
হাততালি
##লামি
যেনতেন
ভরতিচছ
মারকেনটাইল
অধিকারে
শিরোপ
সিরিজটি
পরিবরতনজনিত
নাগরিকরা
চযানেলগলোর
নদীকে
##নিরধারিত
পরিমাণও
অনতরনিহিত
ঋণাতমক
ঋণগরহী
জমায
মসলা
আকরামের
হেলমেট
মানবাধিকারকরমী
আততায
মশতাক
টেলিভিশনকে
পরীকষারথীকে
সবারথপর
ভমিমনতরী
মোডল
গরাহকরা
বেনিযা
অযানথনি
আশবাসের
দষটিননদন
সমপাদনায
ওবাযদর
৫৩টি
কাঠামোয
োজনা
ইচছেমতো
নেটওযারকে
অলিখিত
উইনডোজের
বেতারে
১৯০৫
শবশরবাডির
বিনোদপর
ছতরাক
##পরবাহের
বনযারতদের
জবলনত
উনমতত
সফিউললাহ
অিভযা
টাকাসহ
আশরযের
ইনজরিতে
কলমবোতে
বরষণে
ডেভলপ
গরযামি
ফরযাঞচ
আতমরকষার
বিছানা
##ভিনেতা
টরিবিউট
তৈযবা
কারামকতি
পাইপলাইন
হাতিরঝিল
গরযাজযেট
সাধারন
ইনজামাম
সনদেহাতীতভাবে
সরবসমম
আেবদন
আরএইচএন
চিরাচরিত
নঈম
চিতরনাযিকা
বিরকতিকর
ভেষজ
ইড
ইনি
ইনধ
কিত
খডিযে
চাদার
জঞজ
তাবে
দানি
ধনা
নডিযা
নযানো
বটি
ভাডার
মিকসড
রেলে
সঞচিত
২শ
##পডে
##গনার
##ফতা
করিট
##িকরণ
বিবার
করেছন
সংযোজিত
##াতীয
নিরলজজ
##সথয
##যেরি
##িযাত
মাউন
আগামীর
মোসতাফা
##কাকে
কােজ
মানকিন
দরপণ
আইসল
মততিযা
বেযাদ
দিনকে
সভাপতিকে
৩০১
আজব
##াকারীরা
আমারা
মনসন
মনপরা
লিযন
কলসম
পরীকষণ
মকতিবাহিনীর
সারবিযা
উলভার
অরণা
হাঙগের
মযাচটির
পোষয
হাতেম
পরযকতিকে
পরসতাবনায
তাহরির
কোরো
মোহামমদকে
সদরশন
জডানোর
লেগের
২৪৪
বাণিজযসচিব
সিটিজেন
পরশাসকরা
কেরির
বিকষদধ
কমারী
আফরিক
চিতরাযিত
কানাডি
৩১৫
দৈতয
খাতেও
সিরাজউদ
ভালোবাসতে
সপরতি
পতলের
রেকরডে
শহরকে
ভেতরেও
বিশেষজঞের
ফাউ
ইমনের
অরধেকে
##হিভত
রাইসল
চরমপনথীদের
ঘনতব
শভরা
শভানধ
বীরতব
সকষমতার
োসা
পরদরশনীটি
কলযাণকর
মমবাসা
এযারটেল
বোনদের
সবলপমেযাদি
জযাকেট
রবিবার
পলেস
নিমনবিতত
কাযদা
শিকষাবযবসথার
ওযালমার
ঢাকতে
ইলেকটরন
মাদরিদে
অযানডরযেডের
মতযদণডাদেশ
বারনিকাট
কাসতর
সৌরবিদযৎ
১৯২৩
পোলিও
কযেকদিনে
কযাডাররা
বেকারতবের
এনডিপির
রেহানাকে
১৮৫৭
বরবরোচিত
িজযা
মিরসরাইযের
মাহাববর
পাগলের
মতযবারষিকীতে
দেইনি
পপলার
অিভেযােগ
হেরফের
পেকযা
শোরগোল
পরতযযন
সঞচারিত
##তাকামী
রামপালের
##রিজম
বালযবিবাহের
কলোজআপ
হঠাত
অসপষটতা
হিগযাইন
ঝালকাঠির
মিউনিখের
পামপের
পনেরো
উততরবঙগ
অলিমপিযাড
গৌরীপর
ফযাকটর
লকষযবসততে
আদিলর
কৎসিত
সচিকিৎসার
পাচেক
সওযাব
করোডপতর
অপতৎপরতা
ডিঙিযে
##মোবাইল
পারিপারশবিক
ঢামেক
অবার
অমলক
অটোগরাফ
ইরি
এভরি
গঠ
ঘরাণ
জও
মঙগা
রাডার
শপ
হরেক
াের
##াষটর
##টম
##নাসহ
##ননেসা
##ইডির
##খাজ
##চাকে
পরেন
পরবরতিত
##ালিকে
নিপ
##িলী
##পরবা
একপেশ
কোতথ
আরফান
রাধা
শরাবন
করমকৌশল
করমকষম
দরদাতা
##োধা
দেখছিল
পেজে
আলির
কাজাখ
আবব
আবহে
হোমসের
মারপিট
##লিঙগ
আশাবযঞজক
সরকারেরও
জাতীযভাবে
ওপরেই
বিচারও
পদদল
উততরোততর
বযাংকারস
গোলার
গোলচত
রানই
ভারতও
মযাচগলোতে
ফলকে
শনবে
অকণঠ
উননযনকে
জাহিদের
##টাইম
২৪৯
সহাযতাকারী
শাও
বিলবোরডে
সাজোযা
হারিযেই
বঝতেই
পেছাতে
জনগণও
যবসমাজ
তেংগোর
##চাৎ
বনদিদের
যাচছিলাম
অযালকো
কবিরকে
পরকরিযাও
লিখি
অলংকার
পেছনেই
হালিমের
তেমনটি
আধঘণটা
কটনীতি
সানডে
ছবিতেও
তবকীর
রিকর
নিকামালের
রাহলের
জাসাসের
বসতবাটি
চোরাকার
নাটযকলা
সযামসন
কলাগাছ
৫৬টি
রকষণভাগে
আেছ৷
সেঞচরিযান
##টেকশন
চিতরনাটযের
সটরাইকারের
এগোনোর
বিসিএসে
আতাউস
শককর
পেশাজীব
##াদরশের
১৯২৬
১৯২৯
আফগানিসতানকে
কারযতাল
ডালপালা
জোনাকির
নীলফামারীতে
মশিউল
আযারলযানডকে
মহাবিশ
##হযামপ
মৈতরীর
নৈরাজযকর
উইলিস
বিআইডবলিউটিসি
গঠনতনতরের
ভাসকরযের
মাজারে
রেলপথের
ফিজার
##জগৎ
উচচারণে
বিরোধীদলকে
ঘাসফল
শমপা
গিটারিসট
নওশীন
মকসদপর
ফোকাস
কোমলমতি
অযালাযেনসের
আফসানা
করোমোসো
এঞজেলে
শরেণীককষে
অগনিনিরবাপক
কেনাকাটার
দবিশতক
িশিবর
বাপপীর
কেযকিট
ধলেশবরী
কালবৈশাখী
বানচালের
নিতযনতন
গলযাডিযে
মযাসাচ
বরাইডাল
নিরলিপত
এটে
ওটি
চিশ
ঢের
ভবেন
লযেড
সিসির
েণর
##মণের
##খাব
##দাত
##হসয
##উিন
পরমান
পরমত
##পরাপতি
বাচে
জন৷
অনমনীয
পরিমণডলে
##সথির
বাংলো
বযর
বযতিরেকে
সাচচ
রাজবনদ
বিশবশানতি
সিজন
আলহাজ
##যোৎসব
নামমাতর
##দসতর
বাসকেট
##োটিক
খেলেনি
##মদী
##ধরণের
সপনদন
##সটিকে
কীসের
নারাযন
বারত
পরাযোগ
রেডি
তথযবিষযক
পিএল
পরবনিরধারিত
পরতিষঠানও
ফলবাডিযা
##জেদর
পকষকেই
শোষণের
অপশাসনের
কালানতর
##ামাটির
জোবাই
বাদাম
গাউ
মনোনয
মনোবিজঞান
সংখযাগর
শিউল
নিষকাশন
পশচাৎ
উপলবধ
নিরমাণসহ
শানতিপরিয
কেরামত
বিজযকে
ধরাছোযার
অযালামনাই
নোঙর
৩১৯
নাজিযা
ভাঙেন
মেযরকে
লোহা
কলাবগলোর
জযেলের
পিছন
পিছিযেছে
বাসতবাযনাধীন
গারসিযা
চযামপিযনশিপে
বিদযালযটি
আশরাফী
পরিষদকে
মিথযাচারের
বরিটিশবিরোধী
মকতাদির
আধনিকাযনে
রাইে
৪২তম
আফগানদের
সভানেতরীকে
নিরদিষটভাবে
সাগরিকা
তাপমাতরার
ঢকেছে
বাজাতে
বাজানোর
আশবাসে
আকরানতদের
জগজিৎ
জাকিযা
৫২টি
োনযা
কবরসথান
ফেরদৌসের
মরযাদাপরণ
অধযাদেশে
গণজাগরণের
অবিভকত
মেশিনে
সমপরচারিত
মৌসমীর
##যনিরভর
দযাখ
অতযাবশয
আবেদিনের
সিডিতে
রিসোরট
ছেলেমেযের
কিসে
##দষটিতে
একেকজন
হিটলার
কলপনাও
##১৫ঘ
১৯০৮
ধনক
কদদসের
পারাটা
আঙগর
নাটকীযভাবে
##জীবি
তরফদার
টাওযারে
উইকিমিডিযা
মালটিমিডিযার
জাবেদা
পথচারীরা
রৌপয
হেইডেন
মেরিডিযান
নওশাদ
মাঝমাঠ
মৌলবাদীদের
আতলেতিকোর
গণভোটে
ফাইনযানসিযাল
আবাসসথল
সামলানো
কোপেনহেগ
ৌতিরর
ফেসটিভযাল
হাঙগামা
ওযালীউললাহ
কারযপরণালী
আটলানটিক
##িকরমায
হাইসকলের
িলেত
সারিবদধভাবে
গাটছডা
সরসবতী
দরবীভত
কদদছ
অননমোদিত
ীকােরাি
োজনােরল
কোতথেকে
এবাদ
এগলোতে
ছাতক
জেই
বম
ভাড
মাইকেলের
লেনস
শংখলা
##পশ
##গব
##বসব
##বসতর
##ডনে
##োঝাই
##াবযবসথা
##নেতার
তারের
##াতলী
সরাজ
কোনে
কোনায
পরিপরক
করাচির
পরতিপনন
দলিলে
তাতি
রাঙগা
##মেত
মানিব
সিও
আইলা
ঘটত
চলল
শেষটা
##সেনার
সোহা
অসবিধার
গণাবলি
বিকতির
অভিযোগগলো
ইনশা
ছাতরসংগঠনের
বিচারপতিকে
ভাটায
চৌহান
সিদদী
রেণ
অপরতিরোধ
গানকে
মাহিযা
এতেও
একজনও
নিযত
মালালার
মযাচসেরা
লেখিকা
উৎসের
বকতবযও
ফরাজী
১৩তম
##ারিও
রাযও
চলচচিতরগলো
তললেও
##বোধে
সমভবপর
মোহামমদপরে
##িসিযার
কালক
দাভিদ
জেতায
পরাথমিকে
জীবনমানের
ভাবী
ভাবের
শকতিগলো
বযবসথাই
সমসযাকে
সফরকারীদের
সংসদেও
চিতরও
ফিদা
খেপে
ভাষাস
নযাযের
বিজযীর
লাভাল
ইরিনা
অনতরের
হাজেরা
সহজতর
জবালান
##বিদবেষী
গাছটি
রিজভীকে
খারাপের
অংশগরহণকারীরা
শাকিলা
পরেকষিত
পিরবার
বদলানো
লতিফর
মাননানকে
##ঘাটিত
ঘণটারও
পছনদমতো
ইনসটিটিউশনের
গোষঠীকে
অমনি
৫৭টি
উপসথাপনার
আজমলের
গেইমস
##৫০ঘ
নেপালি
নেপচন
শবাসকষট
ঘষিযাখালী
নৈপণযে
আলিফ
নতযনাটয
টরাসটে
রবারতো
অপারেটররা
বিবিযানা
কযারোল
বটমলে
ডোনার
অলরাউনডারের
ডাযমনড
এএসএম
ভিজিট
পৌছাযনি
করততববাদী
ছবিকে
মধযসথতা
সংসথাগলোকে
চিকিতসা
এপিএস
হাজারীবাগের
উদঘাটনে
মাফিযা
সকোযাডে
অযাকাডেমিক
সতমভিত
দরভাগা
পরমোশন
##াতমীয
কলোরো
শাইখ
হযাপীর
খাবারে
সেগনবাগিচায
নিউরো
কযানটিনে
লবণাকততা
মহাদেবপর
অতিকরানত
সরযাসত
অরনতভকত
ঢিলেঢালা
##পরতিবনধী
ডেলিভারি
নোভাক
সেমিসটারের
াংেকর
ধরপাকড
অকেজো
একপেশে
পরাযোগিক
ওভেন
খেজ
চযেট
চকতিকে
জেরি
ঠকে
ডের
ফোল
যামপ
রাদার
সচিত
সবাধিকার
াভ
##পঙখ
##ীমা
##মাদ
##মিজি
##চকষ
##েরাধ
##যাসে
বিরি
##ালীর
##াকিযা
##তাপের
##বরগের
সেবন
করাটাই
সবদেশের
##িযাগো
তাযে
আসগর
মেহন
বিশববাসী
সিএসসি
পেডে
পলেন
গতদিনের
এমিপ
বেপ
আবরাহাম
১০টির
সথিত
সামিরক
##ননযন
রাখাই
##মিঃ
##সমাবে
জিগ
২০০টি
খেলাতেই
২৫৩
লেখে
চলচচিতরা
শনিবারও
##গােযাগ
পোলা
পরোপ
পরোদসতর
২১৬
অবশযমভাবী
শেবাগের
২৪৭
পরতযাখযাত
##যবসথায
আযোজনটি
গরহণকারী
বসধা
দিলল
আসামে
সাইটেক
হতভ
জনমশত
সডকগলো
##চালনা
জঙগির
মকতিযদধকালে
পেশিশ
##গরেড
হিসাবেও
পরযোজকদের
মতামতকে
পরেমিকের
##যনতরিত
সাবান
পেরোতে
পডাশনা
##ফেরত
পাহাডিদের
ইনিংসেই
মহিউদদীন
ারকত
কিউসেক
সবলপতা
দপতরবিহীন
তাকান
শরতগলো
খাতনকে
সদীরঘ
চোরাই
জোরদারে
বারসেলোনাকে
সাপলাই
##ফেনহ
রাজযসভার
শিখবে
দেশগলোয
হিমাযিত
খাওযাতে
১৯৩৭
অটোরিকশাচালক
শামসননাহার
আলিঙগন
১৯১৫
একানতই
দাযিতবশীলতার
কযাডারদের
নথিভকত
পরতারক
পরতিশরত
কেডেছে
অমিতাভের
অসথিতিশীলতার
লডছে
রযাঙকিং
বরিগেডের
খাইবার
ঠিকাদারের
শালীন
কযানটনমেনটের
পরচছনন
লোডভিক
মঙগলে
উডালসডক
##ফরেড
রেসটরেনটে
কমিউনিকেশনস
মাধবপর
অরধেকেরও
লাইবরেরির
অনাচার
অবযবসথাপনার
গলাভসব
##শৈলী
টালবাহ
উদদেশযমলকভাবে
ইমিগরেশন
ওযারিযর
চাবিকা
উজিরপর
##নিষকাশন
চরফযাশন
অজনতা
কিসিঞজার
দৌরাতময
উপসাগরীয
ালািন
টেইলরের
মফিদল
কাননাকাটি
পংকজ
হাইবরিড
কছ
কটে
চযে
ছরির
জবরে
ধোযার
ফসকে
মৎ
যবে
লিল
সতবেও
িলক
##জমক
##গনি
##শানত
##দদি
##চড
##হামের
##১৬
পরবাচ
করাত
##টিসের
বাপার
##াইযে
বলও
জনপদে
অনাপত
##াহানের
পরতিপাল
উপকণঠে
##মাছি
দেশযোগ
মধপর
মোটে
করমিক
দরসে
##বাচয
হাসিলের
সিপিএ
বিষোদ
এমতাব
বরযানডিং
আলটর
শেখায
মারিযার
আলোকস
গণধর
বৈপল
##বলস
ইনর
পদকের
টিএন
জামশেদ
উললা
পাচছিল
মাহাত
সিরড
বাংলাভিশনে
শিলপকরমের
শিশশিলপী
দাযিতবজঞানহীন
বনডের
##করমক
করিড
১৭তম
জেটিতে
২৪২
হাতডি
ধারণকষমতার
নবীগঞজ
পরতিবেদনও
লালবাগের
লালকারড
##খাতা
আসামিপকষ
ওযানটেড
শবদগলো
ঐকানতিক
৩২৬
দঃখী
গারহ
ফোরসেস
তালিকাও
##িমিটেড
##ফাজজেল
হইপের
মোলল
মনিরামপর
ইনিংসেও
আনদোলনেও
বিবেচনাধীন
পিলার
কারখানাটির
খনিতে
সাঈদের
##ীকানত
সেমিসটার
রাহমানের
ডেমরার
২০২৫
সিরিজেও
বামন
ফরমযাট
পরতিবছরের
নতবা
ইবরাহিমোভিচ
সংখযাগরিষঠতার
জনসমমখে
লরডস
ধনীদের
খোলাসা
কসতি
ডোবা
ঘেরাওযের
দরগবা
শযালো
লেগেই
হযামপ
ওযাটলিং
মাইনড
কোকোসহ
মসকোয
বিনদতে
বততে
শযতান
মজাহিদকে
গঠনতনতরে
বাটলার
আইডিবি
বরডবযানড
ওজিল
সরকারপরধানের
বোমাবাজির
রাঙগামাটি
নিখতভাবে
মওকফের
সসজজিত
অযাডামস
গলিবরষণের
ষোলশহর
বিশরামের
হাইকমিশন
রিসোরস
পথিকৎ
বিযোগানত
এইচএসবিসি
আনলিমিটেড
আঠারো
শিউলি
ইউপিডিএফ
তামিলনাড
আধিকয
কোলাহল
টানাপোডেনের
গযাবরিযেল
নেকসাস
মোবাশবের
পদদলিত
অপরতিরোধয
ওমানের
ডরিম
নফ
ফিতা
শটার
ামা
##কেন
##যিত
##গলিক
##শট
##ভকে
##ডও
##ডহ
##এপি
##থনে
বিচযত
##টিপির
##বেষটিত
##িতল
করেব
##াবাজি
বলজ
জনমান
##বরী
##াহে
এইটে
পরিশীল
পারথে
আসতান
##াগড
কষণে
গরহা
##নদিত
বযাখযার
গেঞজি
করেছে৷
অসকারে
##সহিষণ
আইনমনতরীর
মনঃ
##াবাহিনীর
বাডডার
অপরটি
অপরিণ
গোলযোগের
অযাসি
অযাওযারডস
মাহিনদা
##থিও
নিরাশ
পানিযা
২৪৮
কনজার
জোহান
ভিটা
##চরচায
বাইরেই
##কসানা
সাইজ
নিরাপততাহীনতায
ডেযার
এতকষণ
মানবিকে
ওযারেনট
২৬৮
##াসথলের
কোমপানী
বিতরণে
পরতিযোগীদের
##তাসমপনন
ঘরছে
ভাষযে
মহাপর
কাউনটারে
বনদোপাধযায
সরকারকেও
গডাবে
##সটেইন
দেযারও
ফোরসের
পেছনেও
গাইছেন
রেকরডও
৩৪০
পযাসে
সাংগঠনিকভাবে
কযানভাস
োদখেত
হানট
ভাসা
তবলা
ঘনটায
বারতাটি
খোলাখলি
ধাককাধাক
পরতিবনধকতার
##টেইনে
ভেবেছি
বেধেছেন
শরতসাপেকষে
গোষঠীগলো
জগিযেছে
হরহাম
নাযকদের
বীণা
পশচিমাঞচল
কাবা
তালেব
ওযেবসাইটটি
আরিফকে
থামানো
জিনিসটা
ফকিরাপল
ফিনলযানড
রহমতললাহ
ইসরাযেলকে
বিকরেতাদের
ভৌগলিক
আধিপত
অরপিতার
বততিমলক
বিজঞাপনী
চনদনাই
এভারটন
বখতিযার
লযাবএইড
করিসটিনা
##বাকযে
আদমজী
নিরাপততাজনিত
কিউইরা
##াকানদা
রযযালস
পতরপতরিকা
##িধকার
নওযাজের
সীমারেখা
ইউিনযন
উইমেনস
দাবাং
বিমোচনের
সবরণালংকার
এযারওযেজ
নডেচডে
সরতহাল
সাহসিকতা
পদাধিকার
সাযেনসেস
চরিতারথ
চেরাগ
অসঙগতি
আললামা
সিলেকশন
বিশবরোড
গোদাগাডী
সকরিপট
কািশত
সহেযাি
সরবনাশা
বিলকিস
লাৎসিও
বযাডমিনটন
কানাডিযান
এমতাবসথায
বৈপলবিক
ইযন
ঋদধ
থাপ
বারা
ভাদ
ভপেন
রির
লেম
লিসট
হালে
হজি
িফ
িঝ
##িষ
##রযা
##গালা
##খত
##বড
##শাক
##শনি
##ভাসের
##হিট
##১৪
##োহী
করছিলো
##িকদের
##ালক
##াজগ
##াজম
এককের
##াইডিং
জানন
পরতিষেধ
পরতিবেশি
পারছিল
কারিনার
##দধারা
গরী
গরদাস
##সিতে
উদভাস
বেইল
কেও
সামযের
শেষদিন
বেশকটি
লাঘ
##সেনড
অসিত
নযই
নযজনকে
রাখো
চারল
খেলাযোগ
##মদরে
কললোল
নাটকগলো
মলিন
সারসং
নারভাস
পাচতলা
##পাতার
গোলটা
অযাভ
পাওযাটা
ধারাবাহিকটি
পরযাসে
উৎফলল
পরবসরি
এনসিসি
দাযিতবটা
শকরবারও
অকপটে
বাইক
২১৮
##কোচ
২৪১
গডেছিলেন
বসান
২৩৭
দিলশানের
##কষেপণের
কযাকাটা
##শরযী
বঝিযেছেন
নাসিমের
##জারস
পরষকে
কলাবাগ
ডাউ
ফোরড
গবেষণাপরতিষঠান
গহবনদি
রোগীরা
এরশাদবিরোধী
পরবেশপথ
৩৪২
পজিশ
হাননানের
পরবেই
জামালউদদিন
োসরা
হিনদিতে
শিগগিরি
মরযাদ
জাকজমক
দাসকে
কাউনসিলররা
োমাট
৬৭১
আদিবাসীরা
সটরাইকিং
এগোবে
উপাদানে
শৈতয
উইলিযামসের
খজছি
গানধীকে
লযাঙগ
রিপলে
কডিগরামে
উডোজাহাজে
আনতঃবাহিনী
মরাদপর
ডিভাইসে
সাজজাদর
##রাগী
দরশনীয
ওলট
যাতরাবাডীতে
তিরসকার
সবদেশী
সলোভাক
কযাটাগরির
##বাণিজয
ওজোন
ঠাকরগাওযের
সকলছাতরী
পবালী
চিকিতস
বারিধারার
সকাইপ
##াকানদি
িনিষ
ওডানো
সমাবরতনের
মেকআপ
আইরিশদের
সটডেনটস
গরীষমকালীন
শরেণিককষে
এমিলির
সেফটি
উইকিলিকসের
[...]
